/*
 * Copyright (c) 2024 EdgeImpulse Inc.
 *
 * Generated by Edge Impulse and licensed under the applicable Edge Impulse
 * Terms of Service. Community and Professional Terms of Service
 * (https://docs.edgeimpulse.com/page/terms-of-service) or Enterprise Terms of
 * Service (https://docs.edgeimpulse.com/page/enterprise-terms-of-service),
 * according to your product plan subscription (the “License”).
 *
 * This software, documentation and other associated files (collectively referred
 * to as the “Software”) is a single SDK variation generated by the Edge Impulse
 * platform and requires an active paid Edge Impulse subscription to use this
 * Software for any purpose.
 *
 * You may NOT use this Software unless you have an active Edge Impulse subscription
 * that meets the eligibility requirements for the applicable License, subject to
 * your full and continued compliance with the terms and conditions of the License,
 * including without limitation any usage restrictions under the applicable License.
 *
 * If you do not have an active Edge Impulse product plan subscription, or if use
 * of this Software exceeds the usage limitations of your Edge Impulse product plan
 * subscription, you are not permitted to use this Software and must immediately
 * delete and erase all copies of this Software within your control or possession.
 * Edge Impulse reserves all rights and remedies available to enforce its rights.
 *
 * Unless required by applicable law or agreed to in writing, the Software is
 * distributed on an "AS IS" BASIS, WITHOUT WARRANTIES OR CONDITIONS OF ANY KIND,
 * either express or implied. See the License for the specific language governing
 * permissions, disclaimers and limitations under the License.
 */

#ifndef _EI_CLASSIFIER_TFLITE_LEARN_5_H_
#define _EI_CLASSIFIER_TFLITE_LEARN_5_H_

#define EI_CLASSIFIER_TFLITE_LEARN_5_ARENA_SIZE     3020
const size_t tflite_learn_5_arena_size = 3020;

#ifdef EI_CLASSIFIER_TFLITE_ARENA_SIZE
#if EI_CLASSIFIER_TFLITE_ARENA_SIZE < EI_CLASSIFIER_TFLITE_LEARN_5_ARENA_SIZE
#undef EI_CLASSIFIER_TFLITE_ARENA_SIZE
#define EI_CLASSIFIER_TFLITE_ARENA_SIZE EI_CLASSIFIER_TFLITE_LEARN_5_ARENA_SIZE
#endif // #if EI_CLASSIFIER_TFLITE_ARENA_SIZE < EI_CLASSIFIER_TFLITE_LEARN_5_ARENA_SIZE
#else
#define EI_CLASSIFIER_TFLITE_ARENA_SIZE EI_CLASSIFIER_TFLITE_LEARN_5_ARENA_SIZE
#endif // #ifdef EI_CLASSIFIER_TFLITE_ARENA_SIZE

#if defined __GNUC__
#define ALIGN(X) __attribute__((aligned(X)))
#elif defined _MSC_VER
#define ALIGN(X) __declspec(align(X))
#elif defined __TASKING__
#define ALIGN(X) __align(X)
#else
#define ALIGN(X)
#endif

ALIGN(16) const unsigned char tflite_learn_5[] = {
  0x1c, 0x00, 0x00, 0x00, 0x54, 0x46, 0x4c, 0x33, 0x14, 0x00, 0x20, 0x00,
  0x1c, 0x00, 0x18, 0x00, 0x14, 0x00, 0x10, 0x00, 0x0c, 0x00, 0x00, 0x00,
  0x08, 0x00, 0x04, 0x00, 0x14, 0x00, 0x00, 0x00, 0x1c, 0x00, 0x00, 0x00,
  0x8c, 0x00, 0x00, 0x00, 0xe4, 0x00, 0x00, 0x00, 0xb8, 0x0e, 0x00, 0x00,
  0xc8, 0x0e, 0x00, 0x00, 0x8c, 0x15, 0x00, 0x00, 0x03, 0x00, 0x00, 0x00,
  0x01, 0x00, 0x00, 0x00, 0x10, 0x00, 0x00, 0x00, 0x00, 0x00, 0x0a, 0x00,
  0x10, 0x00, 0x0c, 0x00, 0x08, 0x00, 0x04, 0x00, 0x0a, 0x00, 0x00, 0x00,
  0x0c, 0x00, 0x00, 0x00, 0x1c, 0x00, 0x00, 0x00, 0x3c, 0x00, 0x00, 0x00,
  0x0f, 0x00, 0x00, 0x00, 0x73, 0x65, 0x72, 0x76, 0x69, 0x6e, 0x67, 0x5f,
  0x64, 0x65, 0x66, 0x61, 0x75, 0x6c, 0x74, 0x00, 0x01, 0x00, 0x00, 0x00,
  0x04, 0x00, 0x00, 0x00, 0x9c, 0xff, 0xff, 0xff, 0x0a, 0x00, 0x00, 0x00,
  0x04, 0x00, 0x00, 0x00, 0x08, 0x00, 0x00, 0x00, 0x6f, 0x75, 0x74, 0x70,
  0x75, 0x74, 0x5f, 0x30, 0x00, 0x00, 0x00, 0x00, 0x01, 0x00, 0x00, 0x00,
  0x04, 0x00, 0x00, 0x00, 0x2e, 0xf1, 0xff, 0xff, 0x04, 0x00, 0x00, 0x00,
  0x01, 0x00, 0x00, 0x00, 0x78, 0x00, 0x00, 0x00, 0x02, 0x00, 0x00, 0x00,
  0x34, 0x00, 0x00, 0x00, 0x04, 0x00, 0x00, 0x00, 0xdc, 0xff, 0xff, 0xff,
  0x0d, 0x00, 0x00, 0x00, 0x04, 0x00, 0x00, 0x00, 0x13, 0x00, 0x00, 0x00,
  0x43, 0x4f, 0x4e, 0x56, 0x45, 0x52, 0x53, 0x49, 0x4f, 0x4e, 0x5f, 0x4d,
  0x45, 0x54, 0x41, 0x44, 0x41, 0x54, 0x41, 0x00, 0x08, 0x00, 0x0c, 0x00,
  0x08, 0x00, 0x04, 0x00, 0x08, 0x00, 0x00, 0x00, 0x0c, 0x00, 0x00, 0x00,
  0x04, 0x00, 0x00, 0x00, 0x13, 0x00, 0x00, 0x00, 0x6d, 0x69, 0x6e, 0x5f,
  0x72, 0x75, 0x6e, 0x74, 0x69, 0x6d, 0x65, 0x5f, 0x76, 0x65, 0x72, 0x73,
  0x69, 0x6f, 0x6e, 0x00, 0x0e, 0x00, 0x00, 0x00, 0xd0, 0x0d, 0x00, 0x00,
  0xc8, 0x0d, 0x00, 0x00, 0xa4, 0x0d, 0x00, 0x00, 0x30, 0x0d, 0x00, 0x00,
  0xd0, 0x0c, 0x00, 0x00, 0x68, 0x0a, 0x00, 0x00, 0xe0, 0x09, 0x00, 0x00,
  0xac, 0x00, 0x00, 0x00, 0xa4, 0x00, 0x00, 0x00, 0x9c, 0x00, 0x00, 0x00,
  0x94, 0x00, 0x00, 0x00, 0x8c, 0x00, 0x00, 0x00, 0x6c, 0x00, 0x00, 0x00,
  0x04, 0x00, 0x00, 0x00, 0xd6, 0xf1, 0xff, 0xff, 0x04, 0x00, 0x00, 0x00,
  0x58, 0x00, 0x00, 0x00, 0x0c, 0x00, 0x00, 0x00, 0x08, 0x00, 0x0e, 0x00,
  0x08, 0x00, 0x04, 0x00, 0x08, 0x00, 0x00, 0x00, 0x10, 0x00, 0x00, 0x00,
  0x28, 0x00, 0x00, 0x00, 0x00, 0x00, 0x06, 0x00, 0x08, 0x00, 0x04, 0x00,
  0x06, 0x00, 0x00, 0x00, 0x04, 0x00, 0x00, 0x00, 0x01, 0x00, 0x00, 0x00,
  0xeb, 0x03, 0x00, 0x00, 0x00, 0x00, 0x0a, 0x00, 0x10, 0x00, 0x0c, 0x00,
  0x08, 0x00, 0x04, 0x00, 0x0a, 0x00, 0x00, 0x00, 0x03, 0x00, 0x00, 0x00,
  0x02, 0x00, 0x00, 0x00, 0x04, 0x00, 0x00, 0x00, 0x06, 0x00, 0x00, 0x00,
  0x32, 0x2e, 0x31, 0x31, 0x2e, 0x31, 0x00, 0x00, 0x3a, 0xf2, 0xff, 0xff,
  0x04, 0x00, 0x00, 0x00, 0x10, 0x00, 0x00, 0x00, 0x31, 0x2e, 0x31, 0x34,
  0x2e, 0x30, 0x00, 0x00, 0x00, 0x00, 0x00, 0x00, 0x00, 0x00, 0x00, 0x00,
  0x24, 0xf2, 0xff, 0xff, 0x28, 0xf2, 0xff, 0xff, 0x2c, 0xf2, 0xff, 0xff,
  0x30, 0xf2, 0xff, 0xff, 0x66, 0xf2, 0xff, 0xff, 0x04, 0x00, 0x00, 0x00,
  0x24, 0x09, 0x00, 0x00, 0x27, 0x0a, 0x47, 0xe3, 0x0c, 0x08, 0xdb, 0xd3,
  0xe4, 0xf1, 0x1e, 0x20, 0xf0, 0x17, 0xdb, 0xb3, 0xed, 0x0f, 0xbf, 0x16,
  0x0e, 0xc5, 0xd7, 0x28, 0xbf, 0xa8, 0xd3, 0x41, 0xdc, 0x1c, 0x47, 0xd9,
  0xd1, 0x06, 0xc4, 0xea, 0xd8, 0x2c, 0x18, 0x14, 0xeb, 0x0e, 0xf0, 0x25,
  0xe7, 0x09, 0xe7, 0x17, 0xca, 0xd9, 0xd1, 0xff, 0x1e, 0x35, 0x01, 0x1a,
  0xe8, 0xfd, 0xf0, 0xdf, 0x19, 0x36, 0x2f, 0xf0, 0x29, 0x2e, 0xe0, 0x44,
  0x08, 0xf7, 0xd0, 0xf1, 0xc4, 0xf3, 0x04, 0x00, 0xdd, 0xfc, 0xd3, 0x2b,
  0x1a, 0xea, 0x28, 0xfc, 0x4e, 0x44, 0x1f, 0x65, 0xbf, 0xfe, 0x2c, 0x01,
  0x25, 0x1e, 0x0b, 0xf5, 0x37, 0x3b, 0xfe, 0xff, 0x57, 0x20, 0xe8, 0x34,
  0xe2, 0x27, 0x15, 0xfb, 0xdc, 0x1f, 0x05, 0x0e, 0x05, 0x1d, 0xea, 0x13,
  0x27, 0xf4, 0x04, 0x28, 0xee, 0x27, 0x33, 0xf1, 0xe7, 0xc8, 0x23, 0xe5,
  0x27, 0x1a, 0x1d, 0x17, 0xdb, 0xcd, 0x01, 0xd2, 0xdd, 0x08, 0x14, 0xdb,
  0x12, 0x19, 0xf7, 0x2d, 0xae, 0x07, 0xfa, 0x0c, 0x1b, 0x01, 0x07, 0xd2,
  0xd9, 0x0c, 0xe7, 0xd8, 0x31, 0x81, 0xd0, 0x20, 0x14, 0xc8, 0xf7, 0xf9,
  0xe5, 0x2d, 0x3f, 0xef, 0xe8, 0xe6, 0xcf, 0xe0, 0x1a, 0x01, 0x01, 0x35,
  0xf2, 0x14, 0xc4, 0x1b, 0xce, 0xc7, 0xd2, 0xd4, 0xba, 0x01, 0x0b, 0x24,
  0x1e, 0x34, 0xec, 0xce, 0x3a, 0xe4, 0x1e, 0xfd, 0x19, 0xc3, 0x1d, 0x03,
  0xfc, 0x02, 0xe8, 0xf8, 0xfe, 0x1a, 0xc8, 0xdc, 0xec, 0xd8, 0xdd, 0x32,
  0xff, 0x0d, 0xec, 0xee, 0xd1, 0x27, 0xe1, 0xc7, 0xfb, 0x14, 0xe6, 0xfc,
  0xf8, 0x2d, 0xd3, 0xfb, 0xde, 0xf8, 0x12, 0xf6, 0xd6, 0xf8, 0xd3, 0xc4,
  0x16, 0x33, 0xfb, 0x3b, 0xcd, 0xee, 0x05, 0xf3, 0x00, 0xd6, 0x25, 0xee,
  0x0b, 0x02, 0x1f, 0xd5, 0x26, 0xeb, 0xd9, 0xc5, 0xdd, 0xee, 0x2c, 0xff,
  0x23, 0x2f, 0x02, 0xc6, 0xd6, 0xf1, 0x0c, 0x19, 0xf3, 0xcc, 0xfb, 0xe0,
  0xbd, 0x1f, 0x33, 0xe9, 0x1a, 0x1b, 0x1b, 0x28, 0xc3, 0xc8, 0xd6, 0xec,
  0x0b, 0xde, 0x1d, 0x04, 0x12, 0xe5, 0xd7, 0x13, 0xf0, 0x05, 0x10, 0x09,
  0x06, 0xc4, 0xee, 0x34, 0xef, 0x0b, 0x28, 0xd4, 0xf9, 0xf5, 0x0c, 0x13,
  0xfa, 0xe1, 0x00, 0x23, 0x42, 0xf0, 0xc6, 0xee, 0x22, 0x45, 0x3e, 0x5f,
  0x31, 0x77, 0x04, 0xdd, 0xcf, 0xdb, 0x2a, 0xc7, 0xdf, 0xd6, 0x37, 0x45,
  0x25, 0xe0, 0xf8, 0xf9, 0xf3, 0x28, 0x28, 0x98, 0xc7, 0x3b, 0xe1, 0xda,
  0xee, 0xf3, 0x37, 0x28, 0xfc, 0xf5, 0x51, 0x24, 0xcb, 0xfa, 0x2c, 0x00,
  0xf9, 0x1c, 0x02, 0x14, 0x4e, 0x10, 0x34, 0xfe, 0xf1, 0x16, 0xdc, 0xe0,
  0x2b, 0xb1, 0xca, 0xcb, 0xe7, 0x05, 0x21, 0xcc, 0x00, 0x38, 0xaf, 0x0f,
  0x0a, 0x23, 0xf3, 0x42, 0xd6, 0xe3, 0x22, 0x2e, 0x10, 0x20, 0x0b, 0x4e,
  0x1e, 0xea, 0x0a, 0x2f, 0x2f, 0x12, 0xe8, 0x43, 0xf9, 0x16, 0xde, 0x39,
  0xdc, 0xdc, 0x2d, 0x00, 0x11, 0x09, 0x05, 0xfb, 0xf4, 0x14, 0x3c, 0xea,
  0x46, 0x29, 0xb7, 0xeb, 0xd1, 0xe8, 0x07, 0x3d, 0x0e, 0x3f, 0x29, 0xfb,
  0x14, 0xdc, 0xd5, 0xd7, 0xc1, 0xfe, 0xdf, 0xce, 0x05, 0xba, 0x1d, 0x35,
  0xcc, 0xd8, 0x49, 0x49, 0x23, 0x08, 0xce, 0x26, 0xf1, 0x29, 0xfb, 0x39,
  0x30, 0x3c, 0x09, 0x2c, 0xff, 0x34, 0x3e, 0xec, 0x05, 0xf3, 0x03, 0xd0,
  0xed, 0xb1, 0x01, 0xb5, 0x11, 0xe6, 0xda, 0x1b, 0xd6, 0xd0, 0xed, 0xc1,
  0x0c, 0x0e, 0xe9, 0xce, 0x24, 0xf1, 0x0f, 0x26, 0x00, 0x10, 0xc2, 0xcb,
  0x14, 0xf3, 0xe0, 0xdb, 0xbe, 0xbd, 0x3a, 0x03, 0x1b, 0x08, 0xc2, 0x13,
  0xf5, 0xd6, 0x23, 0xe8, 0x09, 0xc2, 0x20, 0x2b, 0xe0, 0x2d, 0xcf, 0xd9,
  0xc5, 0xe2, 0xda, 0xc1, 0xe1, 0x1f, 0x18, 0xdc, 0x14, 0xe8, 0x20, 0xbe,
  0xe4, 0x2e, 0x02, 0x2d, 0xdb, 0x3e, 0x39, 0x0b, 0xea, 0xe3, 0x1b, 0x07,
  0x06, 0x0b, 0xec, 0x0f, 0xcf, 0xd6, 0x18, 0x25, 0x12, 0x18, 0x32, 0x1f,
  0x27, 0x33, 0x1e, 0x4c, 0x2e, 0xe5, 0xd5, 0x33, 0xd3, 0x03, 0xbd, 0xdf,
  0xe7, 0xc3, 0x1b, 0xc6, 0x03, 0xfe, 0x19, 0xce, 0xdb, 0xe8, 0xee, 0xe9,
  0xf2, 0xc5, 0x54, 0x11, 0xe4, 0x02, 0x13, 0x27, 0xf2, 0x3d, 0xf6, 0xd5,
  0x2f, 0xfb, 0xee, 0xe4, 0xe6, 0xef, 0x0f, 0xf8, 0x29, 0x21, 0xff, 0x3a,
  0x07, 0xc7, 0xfa, 0x03, 0xb5, 0xd7, 0x04, 0x31, 0x24, 0x06, 0xfd, 0x45,
  0xe5, 0x26, 0xe0, 0xf4, 0xf4, 0x36, 0x11, 0xc2, 0xec, 0xd3, 0x2b, 0xb4,
  0xd4, 0x26, 0x21, 0x17, 0x1d, 0xe1, 0xc3, 0x1b, 0xf5, 0xf9, 0xee, 0xb6,
  0x07, 0xc4, 0xf7, 0x0d, 0x6d, 0x10, 0xf3, 0xd8, 0x47, 0xd9, 0xee, 0xb9,
  0x1a, 0xee, 0xdc, 0x32, 0xb8, 0xb8, 0x0b, 0xce, 0xc3, 0x0f, 0x06, 0x34,
  0xe6, 0xb3, 0xca, 0x1f, 0x29, 0xdf, 0x20, 0xec, 0x3a, 0x0a, 0xfe, 0x34,
  0x26, 0xcb, 0xda, 0x1d, 0xfc, 0xd3, 0xc7, 0x2b, 0xd9, 0x17, 0xf4, 0x34,
  0x2d, 0x19, 0x13, 0xf3, 0xf9, 0x27, 0xeb, 0xc9, 0x27, 0x0a, 0x20, 0xdc,
  0xdc, 0x05, 0x20, 0xd0, 0xf9, 0x29, 0x21, 0xdf, 0x32, 0xda, 0xd4, 0x1c,
  0xe9, 0xda, 0xc6, 0x18, 0xc6, 0xee, 0xdd, 0xf8, 0x3e, 0xe1, 0x37, 0x1e,
  0xfc, 0x3b, 0x40, 0x04, 0x1a, 0x20, 0xe6, 0x00, 0xf1, 0x06, 0x2b, 0x0c,
  0x1c, 0xd9, 0x0e, 0x0f, 0xb4, 0xcf, 0x37, 0x04, 0x3e, 0xd9, 0xec, 0xf7,
  0x16, 0xf7, 0xc5, 0x2c, 0x3b, 0xe2, 0xdb, 0xe4, 0x31, 0xe3, 0x3d, 0xfe,
  0xeb, 0xe2, 0xc1, 0xd9, 0x3f, 0x01, 0xee, 0x15, 0xdc, 0x06, 0x2e, 0x06,
  0xff, 0x13, 0xee, 0xd5, 0xf3, 0xe7, 0xcb, 0xcc, 0xfe, 0xcc, 0x0c, 0x22,
  0xdf, 0xd6, 0x31, 0x0a, 0x44, 0xfd, 0xd8, 0x06, 0x09, 0x34, 0x2d, 0x2e,
  0x48, 0x26, 0xc3, 0x42, 0xf2, 0x34, 0x2a, 0xf3, 0x17, 0xd3, 0xf7, 0xd2,
  0xc8, 0x1c, 0xfe, 0x17, 0xee, 0x09, 0x0d, 0xd5, 0xd9, 0xcc, 0x1c, 0x20,
  0x10, 0xf5, 0xda, 0xfa, 0x1f, 0x3d, 0xf8, 0x0d, 0x0e, 0xf6, 0x06, 0xcc,
  0xd8, 0x2a, 0x10, 0xcb, 0x06, 0x11, 0x42, 0x27, 0x30, 0x44, 0xe3, 0x02,
  0xd3, 0xc4, 0x15, 0xda, 0x06, 0xee, 0xed, 0xdc, 0xf7, 0xd3, 0x01, 0xdc,
  0x08, 0xd9, 0xf1, 0x1c, 0x33, 0x37, 0x1f, 0x21, 0xc5, 0xe5, 0xff, 0x21,
  0xe0, 0xff, 0x2a, 0x03, 0xf2, 0x24, 0x2c, 0x22, 0x2b, 0x19, 0x27, 0xee,
  0xf8, 0xfa, 0x25, 0x02, 0x12, 0xd0, 0xfd, 0x2e, 0xdb, 0xe0, 0xcd, 0x03,
  0x13, 0xc5, 0x2c, 0x41, 0x11, 0xba, 0xca, 0xbf, 0x1a, 0xe5, 0x3c, 0xd4,
  0xf8, 0xd1, 0x32, 0xf0, 0xfb, 0x00, 0x1e, 0x12, 0xed, 0xd8, 0xde, 0x00,
  0x0d, 0xdd, 0x12, 0xfc, 0x30, 0x08, 0xce, 0xdf, 0x0c, 0xdd, 0x13, 0x26,
  0xc6, 0x0e, 0x03, 0x0d, 0x0c, 0x3b, 0x40, 0xf0, 0xfa, 0xd5, 0xe3, 0xe2,
  0x06, 0x0c, 0xc7, 0x08, 0xec, 0x15, 0xf7, 0xe6, 0xb9, 0x52, 0x2e, 0x19,
  0xe1, 0xf2, 0x30, 0x1a, 0x09, 0x32, 0x5d, 0xaf, 0x1a, 0x15, 0xf3, 0xde,
  0xf7, 0x20, 0x26, 0xf9, 0x40, 0x29, 0xd6, 0xe3, 0xe1, 0x1a, 0xd6, 0xda,
  0x00, 0x2c, 0xdc, 0x0e, 0xe3, 0x0a, 0x1a, 0xe7, 0xfd, 0x08, 0x1b, 0x0c,
  0x22, 0xef, 0x18, 0xbc, 0x0e, 0xef, 0xc7, 0x1f, 0xe6, 0x04, 0xfc, 0x15,
  0x63, 0x23, 0xf5, 0x11, 0xe3, 0x20, 0x1c, 0x42, 0x39, 0x1e, 0x3c, 0xa9,
  0x20, 0x2b, 0xdb, 0x20, 0x2c, 0xf6, 0xf2, 0xd8, 0xd7, 0x24, 0x18, 0xcc,
  0xf9, 0x3a, 0xdc, 0x18, 0x07, 0x2d, 0x2f, 0x13, 0xd1, 0xc3, 0xda, 0xe7,
  0xde, 0xf8, 0x01, 0xdb, 0x35, 0x3c, 0x2b, 0x45, 0xe9, 0x23, 0x3f, 0x26,
  0x02, 0x52, 0x5f, 0x47, 0xcf, 0xf5, 0x5c, 0x00, 0x32, 0xdf, 0x50, 0xf1,
  0x3d, 0x13, 0xf9, 0x35, 0xf3, 0xb2, 0x22, 0xc9, 0x3f, 0xe2, 0x17, 0xf6,
  0xca, 0x32, 0x2f, 0xe1, 0x26, 0xf2, 0xf6, 0xd3, 0x13, 0xd2, 0x02, 0xce,
  0x16, 0xe6, 0xce, 0x4f, 0xbe, 0xfc, 0x35, 0xf6, 0x06, 0xe0, 0xc9, 0xb2,
  0xb1, 0x02, 0xcb, 0xbd, 0x22, 0xe3, 0x1e, 0xf9, 0x15, 0x84, 0xd6, 0xc5,
  0x98, 0xb9, 0xe2, 0x65, 0x4e, 0x0e, 0x5f, 0xf5, 0xd8, 0x19, 0xe3, 0xd8,
  0x54, 0x4f, 0x41, 0x01, 0xe5, 0x20, 0xd7, 0x3a, 0xb6, 0x26, 0x14, 0x3f,
  0xe9, 0x30, 0x24, 0xf8, 0xd9, 0x16, 0xe3, 0x3c, 0x10, 0x49, 0x39, 0x03,
  0x5f, 0x13, 0x48, 0x1f, 0x4a, 0x38, 0x38, 0x12, 0xf2, 0x27, 0xf6, 0xdb,
  0xe4, 0x08, 0xfc, 0xec, 0xea, 0x15, 0x18, 0xfb, 0x24, 0xd6, 0x0f, 0xca,
  0xe5, 0x4c, 0xf2, 0xd5, 0xe0, 0xce, 0xee, 0xfc, 0xdc, 0x0c, 0xf7, 0xee,
  0xe3, 0xc7, 0x09, 0xe0, 0xf7, 0xe1, 0xcf, 0xea, 0x4b, 0x13, 0x2f, 0xee,
  0x0a, 0xfa, 0x10, 0x29, 0xfb, 0x43, 0x0f, 0x39, 0x1a, 0xce, 0xfd, 0x1c,
  0x48, 0x15, 0x1e, 0x00, 0x08, 0xe5, 0xdd, 0x31, 0xfd, 0xe7, 0x22, 0x23,
  0x1b, 0x22, 0xf6, 0x1e, 0xe0, 0x02, 0x2e, 0x55, 0x46, 0x12, 0x43, 0xeb,
  0x58, 0x19, 0x1f, 0xc6, 0xcf, 0x1e, 0x1e, 0x24, 0x15, 0xea, 0xf2, 0xd4,
  0x1f, 0xea, 0xd4, 0xea, 0x26, 0xfd, 0x2a, 0xfc, 0xe1, 0xdd, 0x34, 0xf0,
  0xc2, 0x2d, 0x21, 0x23, 0x10, 0x02, 0x12, 0xaa, 0xd5, 0x0b, 0xe3, 0x0c,
  0x31, 0x3c, 0x1b, 0xe2, 0x19, 0xe5, 0xdb, 0x31, 0x10, 0x2a, 0x32, 0x19,
  0x1d, 0xfa, 0xf0, 0x25, 0x09, 0xdb, 0x05, 0x29, 0xfc, 0xf4, 0xd6, 0xeb,
  0xff, 0xe3, 0xfc, 0x25, 0xf8, 0x05, 0xff, 0xde, 0xaa, 0x2e, 0x0c, 0x35,
  0x11, 0xd6, 0x34, 0x2f, 0xf2, 0x18, 0x1b, 0x2b, 0xf1, 0x4e, 0x46, 0xfe,
  0xf7, 0x22, 0xdf, 0xf9, 0x16, 0xf4, 0x19, 0xdb, 0x0e, 0xd0, 0xbd, 0xf1,
  0xf2, 0x39, 0x2e, 0xd3, 0xf8, 0x05, 0x1f, 0xd5, 0xda, 0x1d, 0xff, 0xf6,
  0x3b, 0x0a, 0xc3, 0xe8, 0xf9, 0x2f, 0xcd, 0xcf, 0x0b, 0xe1, 0x57, 0x2c,
  0xc8, 0x09, 0xd8, 0xf1, 0x15, 0xe1, 0xe3, 0xfe, 0x09, 0xc5, 0x2e, 0x1a,
  0xce, 0x11, 0x3f, 0x1a, 0xde, 0xcb, 0xc7, 0xcd, 0xd1, 0xf7, 0x05, 0xc6,
  0xbe, 0xca, 0x19, 0x27, 0x35, 0x16, 0xe9, 0xdc, 0xe5, 0x01, 0x13, 0xef,
  0xfd, 0x12, 0x3a, 0x61, 0xc5, 0xfe, 0xfa, 0x25, 0x13, 0xec, 0xf5, 0xfd,
  0xdc, 0xe1, 0x18, 0x09, 0xe0, 0x0e, 0x08, 0x00, 0xb6, 0xb2, 0x02, 0xd7,
  0xca, 0x1a, 0xcd, 0x11, 0xd9, 0x04, 0xe1, 0x24, 0xf1, 0x20, 0x02, 0x19,
  0xef, 0x1d, 0xf0, 0xfa, 0x0b, 0x28, 0x27, 0x1e, 0xdc, 0x1e, 0xea, 0xa3,
  0xf2, 0xda, 0xab, 0xc6, 0xe6, 0xb8, 0xda, 0xc2, 0xfa, 0xd1, 0xff, 0xc8,
  0xa8, 0x9a, 0xab, 0xb3, 0xe7, 0xcb, 0xa6, 0xe1, 0x0c, 0x47, 0x27, 0xd7,
  0x25, 0x1a, 0x1f, 0xe2, 0x1c, 0xd9, 0xff, 0xd3, 0xc7, 0x0f, 0x2f, 0xe4,
  0x27, 0x02, 0x03, 0x0e, 0xbd, 0xc2, 0xe6, 0xeb, 0x0f, 0xe8, 0xfa, 0x05,
  0xf3, 0xfa, 0xdb, 0xef, 0xfc, 0xe7, 0x13, 0x26, 0xdc, 0x0a, 0x09, 0xea,
  0xc5, 0x2c, 0x15, 0xd8, 0x4b, 0xc9, 0x05, 0xc1, 0x30, 0x20, 0x2a, 0xf5,
  0x8e, 0x40, 0xee, 0xe9, 0xef, 0xfd, 0xcf, 0xc7, 0xc9, 0x0c, 0xc1, 0xe6,
  0xff, 0x07, 0x08, 0xd1, 0xd5, 0x23, 0xe3, 0x15, 0x23, 0xcb, 0x13, 0x25,
  0xda, 0x13, 0xc2, 0xd2, 0x0f, 0xcd, 0xed, 0xd7, 0xdd, 0x24, 0xe1, 0xe2,
  0x06, 0xe7, 0xd3, 0x4a, 0x07, 0xdb, 0xe6, 0xd3, 0xfb, 0x0e, 0xb8, 0xde,
  0xf0, 0x2a, 0xd5, 0xd9, 0xd8, 0xe8, 0x2a, 0x02, 0x08, 0xc3, 0xf8, 0x19,
  0x18, 0xf1, 0x16, 0x24, 0xf1, 0x08, 0x11, 0xe9, 0xce, 0xec, 0xe2, 0x0a,
  0xbd, 0xec, 0x21, 0xdb, 0xe4, 0xcb, 0x1f, 0x38, 0x3a, 0xed, 0xc7, 0x2a,
  0x18, 0xd8, 0xb9, 0x26, 0x1d, 0xb8, 0x1a, 0xe5, 0x1a, 0xf5, 0xe5, 0xc6,
  0xe7, 0xe7, 0x12, 0xfc, 0x3b, 0xe7, 0x38, 0x08, 0xfc, 0x29, 0x1b, 0xc5,
  0x00, 0x08, 0x05, 0xfd, 0xdd, 0xde, 0x11, 0xcd, 0x1f, 0xc6, 0xff, 0xe1,
  0x0f, 0xe1, 0xc5, 0xcc, 0xef, 0x13, 0xf4, 0xf5, 0x06, 0xd2, 0x0c, 0x1f,
  0x35, 0x3e, 0xd6, 0xc2, 0xc4, 0xe3, 0xee, 0x15, 0x2f, 0xe8, 0x04, 0x1a,
  0x15, 0xc8, 0x09, 0x36, 0xd6, 0x2f, 0x11, 0xe5, 0x42, 0x01, 0xc9, 0x0e,
  0x59, 0x0b, 0x17, 0x28, 0xfd, 0x22, 0x3d, 0x1c, 0x30, 0xfe, 0x01, 0x21,
  0xfb, 0x1d, 0x11, 0xe9, 0x62, 0x29, 0x09, 0xda, 0x08, 0x14, 0xd7, 0x2d,
  0x38, 0xe7, 0x32, 0xdc, 0xdc, 0x32, 0xdd, 0x0e, 0x42, 0x16, 0x1f, 0x7f,
  0x1e, 0x43, 0x43, 0x17, 0xd8, 0xdd, 0xfe, 0x05, 0x1a, 0x46, 0x18, 0xe3,
  0x1c, 0x1e, 0x0a, 0xeb, 0xf2, 0x15, 0xe8, 0x1e, 0x32, 0x3f, 0xee, 0xda,
  0x34, 0x21, 0x20, 0xbd, 0xe9, 0xfe, 0x26, 0xe1, 0x3a, 0xb6, 0xd0, 0xb5,
  0x08, 0xf0, 0x05, 0xe0, 0x24, 0x09, 0x1b, 0x2c, 0xdb, 0x07, 0xd7, 0xe2,
  0x1b, 0xcc, 0xf7, 0x20, 0xf6, 0xc9, 0x13, 0x04, 0xf2, 0xbe, 0x04, 0x2e,
  0xed, 0x25, 0xed, 0xff, 0xc4, 0xd1, 0x00, 0x0b, 0x00, 0x02, 0xfe, 0x1d,
  0xe6, 0x0d, 0xfa, 0xee, 0x2a, 0x0c, 0xc5, 0x27, 0xd4, 0x0e, 0x31, 0x1b,
  0xf6, 0xc6, 0xcb, 0x18, 0x1b, 0x0b, 0x38, 0xc0, 0x15, 0x16, 0xc2, 0x37,
  0xb8, 0xd9, 0x19, 0x19, 0xee, 0xf2, 0x05, 0xef, 0xc5, 0xcf, 0x35, 0xfc,
  0x11, 0x29, 0x16, 0x13, 0x3e, 0x17, 0x47, 0x1a, 0xf7, 0x10, 0x35, 0xd0,
  0x15, 0xf6, 0x2d, 0xec, 0x20, 0x0e, 0x2d, 0xd7, 0x1f, 0x07, 0xd5, 0x26,
  0xc5, 0x26, 0x29, 0x31, 0x17, 0x17, 0x1e, 0x05, 0xef, 0xdd, 0xde, 0x17,
  0xea, 0xe8, 0xe9, 0xe8, 0xe3, 0x26, 0xbd, 0xfe, 0x15, 0xec, 0xd0, 0x0e,
  0xea, 0xcf, 0x45, 0xdc, 0x1d, 0xee, 0xcc, 0x23, 0x2f, 0xca, 0x25, 0xe5,
  0x48, 0xd8, 0xf7, 0x14, 0xdf, 0x2f, 0xf8, 0x06, 0x0d, 0x11, 0x0c, 0x26,
  0xfd, 0x19, 0x38, 0x1d, 0x08, 0xed, 0xba, 0xde, 0xec, 0x1d, 0xf3, 0xc6,
  0xdb, 0xba, 0x1e, 0x08, 0xf9, 0x27, 0xf6, 0x2d, 0xff, 0xe6, 0xbf, 0xe2,
  0xcd, 0xdb, 0xde, 0xd6, 0xc7, 0x28, 0x01, 0x2c, 0xe8, 0xf8, 0x2f, 0xde,
  0x2b, 0xf8, 0xd2, 0xf7, 0x34, 0x32, 0x2e, 0xd8, 0xde, 0xe2, 0xfa, 0x1f,
  0x38, 0xf7, 0xd0, 0xdf, 0x13, 0x31, 0xed, 0x0b, 0xe5, 0x24, 0x30, 0xd9,
  0xd7, 0x25, 0x25, 0x0a, 0x00, 0xf5, 0x0e, 0xfd, 0xf0, 0x2a, 0xe7, 0x3b,
  0xf4, 0xe5, 0xcb, 0xd1, 0x15, 0xe7, 0xdd, 0x20, 0xfb, 0x37, 0x29, 0xd3,
  0x06, 0x00, 0x21, 0x15, 0xc4, 0x17, 0x1f, 0x11, 0xd8, 0x1d, 0xff, 0xc9,
  0xe6, 0x16, 0xf0, 0xe2, 0xe2, 0xe2, 0xef, 0xe6, 0x04, 0x04, 0xdd, 0x0e,
  0x2a, 0x02, 0xe7, 0x17, 0xdb, 0xf4, 0x23, 0x15, 0x11, 0x2a, 0x25, 0x37,
  0x1e, 0x2a, 0xc9, 0x0a, 0xdf, 0x1d, 0x1c, 0xfa, 0x39, 0x2d, 0xdd, 0x23,
  0x12, 0x1e, 0x05, 0xe2, 0xde, 0x36, 0xe6, 0x20, 0x41, 0x4e, 0x04, 0x14,
  0x14, 0x38, 0x29, 0x14, 0x01, 0x3a, 0xda, 0x27, 0x3d, 0x1d, 0x12, 0x04,
  0x0d, 0x15, 0x03, 0xd5, 0xf3, 0xea, 0xbf, 0x03, 0x45, 0x1f, 0x06, 0xe8,
  0xff, 0xef, 0xe1, 0xdc, 0x21, 0xcf, 0xe5, 0xd2, 0xf3, 0xfc, 0x33, 0x2b,
  0xcf, 0x30, 0xc2, 0xdf, 0x21, 0xe4, 0xfb, 0x0b, 0xe2, 0xfb, 0x32, 0xca,
  0xef, 0x08, 0xd3, 0xd7, 0x06, 0xfc, 0x2a, 0xd1, 0xde, 0xee, 0x1e, 0x20,
  0x13, 0xec, 0xf9, 0xe4, 0x08, 0x17, 0x06, 0xfd, 0xfc, 0xfc, 0xfc, 0xe0,
  0xf9, 0xf1, 0xe8, 0xef, 0x2b, 0x3b, 0xf9, 0xe1, 0xdc, 0x3f, 0xc4, 0x04,
  0xf6, 0x34, 0xf9, 0x33, 0xf5, 0x17, 0x20, 0xc8, 0xed, 0xe3, 0xd6, 0x40,
  0x29, 0xf5, 0x0d, 0x19, 0xfc, 0x51, 0x47, 0xfa, 0xeb, 0x1d, 0x11, 0x1a,
  0xf3, 0x35, 0x47, 0xf7, 0xcb, 0xf3, 0x48, 0x0d, 0x05, 0x42, 0x1b, 0x31,
  0xf8, 0xf0, 0x31, 0x32, 0x1a, 0x39, 0x2c, 0xf0, 0x02, 0x28, 0xec, 0x37,
  0x3a, 0xe4, 0xe9, 0x12, 0x34, 0x23, 0xe5, 0x0e, 0xdb, 0xeb, 0x27, 0x25,
  0xef, 0xd5, 0x20, 0xb2, 0x26, 0x22, 0xf1, 0xd5, 0x21, 0x14, 0xd6, 0xc7,
  0xcf, 0x1b, 0xc4, 0x4a, 0xe8, 0x1a, 0xee, 0x13, 0xf5, 0x4b, 0xe4, 0xcc,
  0x12, 0xf5, 0xe5, 0x25, 0x31, 0x0a, 0xe9, 0x04, 0xe4, 0x02, 0x01, 0xee,
  0xf5, 0xd9, 0x24, 0xf1, 0x19, 0xdf, 0x27, 0x13, 0x1e, 0x04, 0x2d, 0xdf,
  0xcb, 0xe0, 0xc9, 0x17, 0x26, 0xcc, 0xd0, 0x00, 0xff, 0xf1, 0xde, 0xf0,
  0xfb, 0xf8, 0x2d, 0xd1, 0x0b, 0xd1, 0xf0, 0x20, 0x14, 0xd7, 0xff, 0xef,
  0x2b, 0x02, 0xe9, 0x1c, 0xd1, 0xca, 0xd8, 0x0e, 0x2f, 0x11, 0xd1, 0xff,
  0x1e, 0x42, 0x26, 0xdb, 0xd6, 0x2a, 0x31, 0xd9, 0x17, 0x31, 0xd4, 0x4b,
  0x0b, 0xd5, 0xf6, 0xdc, 0xff, 0xdd, 0x0e, 0xe1, 0x36, 0x1c, 0x17, 0x0e,
  0xc9, 0x14, 0x22, 0x06, 0xbf, 0x12, 0xa3, 0xcf, 0x23, 0xdc, 0x1e, 0xe9,
  0x1c, 0xe0, 0x31, 0xca, 0x08, 0x31, 0x02, 0x4d, 0x2e, 0x30, 0x46, 0x17,
  0x0d, 0x16, 0x27, 0xfb, 0x16, 0x36, 0xf2, 0x27, 0xdd, 0x1d, 0x17, 0x1a,
  0xbe, 0x3f, 0xed, 0xe9, 0x1b, 0xf8, 0xea, 0xe6, 0xe0, 0x2d, 0xee, 0xd9,
  0x25, 0xc3, 0x27, 0x08, 0xc8, 0xd7, 0x1d, 0x3d, 0x22, 0x01, 0x11, 0xdc,
  0x00, 0xcb, 0xc5, 0x49, 0x38, 0x08, 0xfb, 0xf6, 0xbe, 0xbc, 0x1d, 0x2e,
  0xc6, 0xdc, 0x28, 0xfb, 0x96, 0xfb, 0xff, 0xff, 0x04, 0x00, 0x00, 0x00,
  0x78, 0x00, 0x00, 0x00, 0x88, 0x00, 0x00, 0x00, 0x12, 0x00, 0x00, 0x00,
  0x56, 0x00, 0x00, 0x00, 0xe5, 0xff, 0xff, 0xff, 0xf5, 0xff, 0xff, 0xff,
  0x76, 0x00, 0x00, 0x00, 0xdd, 0xff, 0xff, 0xff, 0x2d, 0x00, 0x00, 0x00,
  0x04, 0x00, 0x00, 0x00, 0xfe, 0xff, 0xff, 0xff, 0xc5, 0xff, 0xff, 0xff,
  0x3c, 0x00, 0x00, 0x00, 0x16, 0x00, 0x00, 0x00, 0xb6, 0x00, 0x00, 0x00,
  0x29, 0x00, 0x00, 0x00, 0xc4, 0xff, 0xff, 0xff, 0xd8, 0xff, 0xff, 0xff,
  0x34, 0x00, 0x00, 0x00, 0xab, 0xff, 0xff, 0xff, 0x2f, 0x00, 0x00, 0x00,
  0x4f, 0x00, 0x00, 0x00, 0xdb, 0xff, 0xff, 0xff, 0xe2, 0xff, 0xff, 0xff,
  0x48, 0x00, 0x00, 0x00, 0xf7, 0xff, 0xff, 0xff, 0xe2, 0xff, 0xff, 0xff,
  0x38, 0x00, 0x00, 0x00, 0x47, 0x00, 0x00, 0x00, 0xd0, 0xff, 0xff, 0xff,
  0x6c, 0x00, 0x00, 0x00, 0x1a, 0xfc, 0xff, 0xff, 0x04, 0x00, 0x00, 0x00,
  0x58, 0x02, 0x00, 0x00, 0x3f, 0xda, 0x43, 0x3e, 0x19, 0x08, 0x3b, 0x65,
  0x07, 0xdf, 0x33, 0x35, 0xa0, 0x29, 0xad, 0x2b, 0xeb, 0x41, 0xf3, 0x21,
  0x39, 0xfd, 0xf3, 0x23, 0xe8, 0xd3, 0x3e, 0x01, 0x03, 0xc6, 0xdc, 0x22,
  0x17, 0xdf, 0xc7, 0xe1, 0x21, 0x27, 0xe2, 0xe4, 0xfe, 0xc7, 0x3a, 0xd0,
  0xd7, 0x36, 0xdc, 0x06, 0xe5, 0x25, 0x14, 0xfa, 0xcc, 0x2b, 0x3b, 0xca,
  0xed, 0x04, 0x14, 0x24, 0xe5, 0xfe, 0xe3, 0xe6, 0xe8, 0x11, 0xf0, 0xcb,
  0x17, 0xbc, 0xd7, 0xf7, 0x57, 0xf1, 0x14, 0xfb, 0xf4, 0xf7, 0xfc, 0xae,
  0x3e, 0x11, 0x37, 0xb1, 0x39, 0xde, 0x17, 0x2e, 0xdc, 0x07, 0x5d, 0x30,
  0xba, 0xda, 0xef, 0x43, 0xe7, 0x02, 0xf8, 0x3c, 0x43, 0xcc, 0x26, 0xf3,
  0xe8, 0x37, 0x4f, 0x1a, 0xce, 0x07, 0xd9, 0x25, 0xd3, 0x0a, 0xde, 0x3a,
  0xe5, 0xca, 0xdc, 0xc8, 0xe2, 0xcb, 0xb8, 0xdf, 0xd2, 0x40, 0xff, 0xee,
  0x0d, 0x29, 0xde, 0x31, 0xd8, 0xec, 0x40, 0x36, 0xce, 0x1f, 0xdb, 0x06,
  0xe1, 0x75, 0xee, 0x04, 0x54, 0x05, 0x20, 0x1d, 0xee, 0x14, 0xb7, 0xe5,
  0xe8, 0xed, 0xda, 0x3b, 0xb7, 0xcf, 0xe7, 0xcf, 0xb8, 0x11, 0x1d, 0xf6,
  0x35, 0xcb, 0xef, 0x07, 0xc5, 0xea, 0x29, 0xdb, 0xc8, 0xb6, 0xdc, 0x2c,
  0xca, 0x3b, 0x1d, 0x12, 0x69, 0xc8, 0x4a, 0x15, 0xe9, 0x21, 0xee, 0xe8,
  0x61, 0x06, 0xfe, 0x1c, 0x37, 0xe7, 0xc6, 0xd4, 0xf9, 0x4d, 0x11, 0x7f,
  0x1d, 0xee, 0xf0, 0x24, 0xe8, 0x21, 0x65, 0xf3, 0xc2, 0xf8, 0xfc, 0x12,
  0xf2, 0x33, 0x3e, 0xe6, 0x26, 0xc3, 0x26, 0x06, 0x05, 0xe5, 0x1e, 0xed,
  0xc7, 0xe5, 0x32, 0xb8, 0x0c, 0x36, 0x3a, 0x21, 0xe7, 0xd7, 0x3c, 0xc5,
  0xfd, 0xc9, 0x30, 0xd6, 0x1e, 0x34, 0x41, 0xda, 0x10, 0x3b, 0x09, 0x18,
  0xaf, 0xf6, 0x09, 0x28, 0x3c, 0x45, 0xf3, 0xcd, 0x1c, 0xac, 0xfd, 0xab,
  0xdc, 0xc4, 0x31, 0x34, 0x23, 0x06, 0xed, 0x0f, 0xfe, 0x1d, 0x04, 0xfc,
  0x38, 0xfb, 0x38, 0xd8, 0xd3, 0x32, 0xea, 0x05, 0x36, 0xe1, 0x1c, 0xf5,
  0x14, 0x13, 0xe3, 0xcc, 0xfb, 0xb2, 0x4d, 0xe3, 0xbe, 0x01, 0xef, 0xfb,
  0x10, 0x09, 0xd4, 0xc9, 0xe9, 0x03, 0x16, 0xd3, 0xb8, 0xf6, 0x40, 0xa6,
  0xf9, 0x1d, 0xc2, 0x1c, 0x04, 0x35, 0x3e, 0x62, 0xc0, 0xf7, 0x04, 0x22,
  0x29, 0x04, 0xc0, 0x2f, 0x4b, 0xb6, 0x69, 0xca, 0xd9, 0x36, 0xe5, 0x1b,
  0xf6, 0xd8, 0x0d, 0xed, 0x17, 0x3d, 0x2a, 0xeb, 0xe0, 0x36, 0x36, 0xd5,
  0xf0, 0xfe, 0xb5, 0x0b, 0x4c, 0x05, 0x37, 0x1b, 0x0b, 0xed, 0x37, 0x20,
  0x02, 0x18, 0x25, 0xda, 0xab, 0x3e, 0xdd, 0x13, 0xef, 0x3a, 0xc2, 0xc2,
  0xaf, 0xd4, 0x2a, 0xba, 0x05, 0x1f, 0x58, 0x0a, 0x0b, 0x28, 0x1c, 0x14,
  0xbd, 0x26, 0x3b, 0xad, 0x0a, 0xf5, 0x16, 0x02, 0xf9, 0xff, 0x0a, 0x0e,
  0x2e, 0xe3, 0x54, 0x2a, 0xd2, 0x0f, 0xcb, 0x33, 0x32, 0xe7, 0xbd, 0x19,
  0xf2, 0x21, 0x47, 0xea, 0x16, 0xd8, 0x0e, 0xcf, 0x20, 0x33, 0x00, 0x02,
  0x5b, 0x3d, 0xbe, 0x14, 0x35, 0xe8, 0x24, 0x01, 0x28, 0x26, 0x29, 0xdb,
  0x4c, 0x22, 0x09, 0xcb, 0xbc, 0x14, 0xc9, 0x37, 0x1c, 0x29, 0xba, 0x19,
  0xf2, 0x34, 0xc3, 0x26, 0x10, 0x02, 0x35, 0x2e, 0x0a, 0xf4, 0x15, 0x1d,
  0xbb, 0x35, 0xd3, 0x2e, 0x21, 0xc7, 0x1a, 0x02, 0x3d, 0xff, 0x24, 0x03,
  0x1b, 0x22, 0xae, 0x39, 0x34, 0x4e, 0xda, 0x01, 0x43, 0xc7, 0x06, 0x0b,
  0xf7, 0xc4, 0x08, 0x24, 0x12, 0xd3, 0x39, 0xf4, 0xe6, 0x11, 0xe4, 0xac,
  0x0c, 0xf5, 0xf7, 0xcb, 0x0a, 0x2b, 0x58, 0x45, 0xcb, 0xf6, 0xe0, 0xfe,
  0x44, 0x48, 0xfb, 0x30, 0xed, 0xf3, 0x3c, 0xf1, 0xb5, 0x55, 0x4b, 0x2b,
  0x31, 0xc4, 0x10, 0x42, 0xfe, 0x67, 0xe9, 0x2e, 0x1a, 0xe8, 0x2f, 0x52,
  0xb5, 0xe0, 0xf1, 0xc2, 0x3b, 0xbe, 0x30, 0xc7, 0xd4, 0xde, 0xd4, 0xba,
  0xe7, 0xc2, 0xf3, 0x19, 0x0d, 0x0f, 0x1a, 0xea, 0x06, 0x04, 0xbd, 0x34,
  0x24, 0xe8, 0xc4, 0x1c, 0xcc, 0xb9, 0xe5, 0x39, 0xff, 0xc5, 0x25, 0x34,
  0xdb, 0xd8, 0x08, 0x38, 0x29, 0x3b, 0xd5, 0x12, 0x2c, 0x27, 0xcb, 0x06,
  0x45, 0x16, 0xc0, 0x10, 0xe1, 0xae, 0x34, 0x37, 0xc1, 0x14, 0xd8, 0x13,
  0xf0, 0xf1, 0xd8, 0x4b, 0xdf, 0x22, 0x2a, 0xbd, 0x28, 0x54, 0xf0, 0xd7,
  0xf8, 0x38, 0xd1, 0x51, 0x7e, 0xfe, 0xff, 0xff, 0x04, 0x00, 0x00, 0x00,
  0x50, 0x00, 0x00, 0x00, 0xdd, 0xff, 0xff, 0xff, 0xc4, 0xff, 0xff, 0xff,
  0xf3, 0xff, 0xff, 0xff, 0x14, 0xff, 0xff, 0xff, 0xab, 0xff, 0xff, 0xff,
  0x1a, 0x00, 0x00, 0x00, 0xc1, 0x00, 0x00, 0x00, 0xdb, 0xff, 0xff, 0xff,
  0xf2, 0x00, 0x00, 0x00, 0x71, 0x00, 0x00, 0x00, 0x2d, 0x00, 0x00, 0x00,
  0xf7, 0xff, 0xff, 0xff, 0x51, 0x00, 0x00, 0x00, 0x29, 0x00, 0x00, 0x00,
  0xbb, 0xff, 0xff, 0xff, 0x11, 0x00, 0x00, 0x00, 0x5e, 0x00, 0x00, 0x00,
  0x07, 0x00, 0x00, 0x00, 0xd0, 0xff, 0xff, 0xff, 0xd2, 0x00, 0x00, 0x00,
  0xda, 0xfe, 0xff, 0xff, 0x04, 0x00, 0x00, 0x00, 0x64, 0x00, 0x00, 0x00,
  0x3f, 0xf5, 0xb0, 0x27, 0xd4, 0xe2, 0x3c, 0xc8, 0x1e, 0x19, 0x2e, 0xaf,
  0xb1, 0x31, 0xf2, 0xb8, 0x24, 0xfb, 0x2a, 0x1c, 0x1d, 0x3a, 0x03, 0x02,
  0x9a, 0x48, 0x9c, 0x1e, 0x45, 0x1d, 0x81, 0x03, 0x24, 0x47, 0xc6, 0xeb,
  0xc5, 0x2e, 0x29, 0xff, 0xb7, 0xf6, 0xfd, 0xaa, 0xcb, 0x4c, 0x43, 0x0a,
  0x19, 0x1c, 0x45, 0x21, 0x48, 0x09, 0xbb, 0x57, 0x48, 0xcd, 0xfa, 0x3a,
  0x02, 0x47, 0xc3, 0x43, 0xf3, 0xe5, 0xeb, 0xd2, 0xf3, 0xdb, 0xd2, 0x1e,
  0x51, 0x21, 0x12, 0x33, 0x21, 0xc4, 0xbd, 0xb7, 0x32, 0xc9, 0xbc, 0x0d,
  0xb8, 0x16, 0x44, 0xbe, 0xd3, 0x1e, 0xf8, 0x54, 0xdd, 0xf7, 0xb3, 0x50,
  0xa4, 0x00, 0xdc, 0x03, 0x4a, 0xff, 0xff, 0xff, 0x04, 0x00, 0x00, 0x00,
  0x14, 0x00, 0x00, 0x00, 0x1b, 0x00, 0x00, 0x00, 0x01, 0x00, 0x00, 0x00,
  0x2c, 0x00, 0x00, 0x00, 0xc4, 0xff, 0xff, 0xff, 0xb2, 0xff, 0xff, 0xff,
  0x38, 0xff, 0xff, 0xff, 0x3c, 0xff, 0xff, 0xff, 0x0f, 0x00, 0x00, 0x00,
  0x4d, 0x4c, 0x49, 0x52, 0x20, 0x43, 0x6f, 0x6e, 0x76, 0x65, 0x72, 0x74,
  0x65, 0x64, 0x2e, 0x00, 0x01, 0x00, 0x00, 0x00, 0x14, 0x00, 0x00, 0x00,
  0x00, 0x00, 0x0e, 0x00, 0x18, 0x00, 0x14, 0x00, 0x10, 0x00, 0x0c, 0x00,
  0x08, 0x00, 0x04, 0x00, 0x0e, 0x00, 0x00, 0x00, 0x14, 0x00, 0x00, 0x00,
  0x1c, 0x00, 0x00, 0x00, 0x28, 0x01, 0x00, 0x00, 0x2c, 0x01, 0x00, 0x00,
  0x30, 0x01, 0x00, 0x00, 0x04, 0x00, 0x00, 0x00, 0x6d, 0x61, 0x69, 0x6e,
  0x00, 0x00, 0x00, 0x00, 0x04, 0x00, 0x00, 0x00, 0xd0, 0x00, 0x00, 0x00,
  0x88, 0x00, 0x00, 0x00, 0x50, 0x00, 0x00, 0x00, 0x14, 0x00, 0x00, 0x00,
  0x00, 0x00, 0x0e, 0x00, 0x1a, 0x00, 0x14, 0x00, 0x10, 0x00, 0x0c, 0x00,
  0x0b, 0x00, 0x04, 0x00, 0x0e, 0x00, 0x00, 0x00, 0x1c, 0x00, 0x00, 0x00,
  0x00, 0x00, 0x00, 0x09, 0x1c, 0x00, 0x00, 0x00, 0x20, 0x00, 0x00, 0x00,
  0x01, 0x00, 0x00, 0x00, 0x00, 0x00, 0x06, 0x00, 0x08, 0x00, 0x04, 0x00,
  0x06, 0x00, 0x00, 0x00, 0x00, 0x00, 0x80, 0x3f, 0x01, 0x00, 0x00, 0x00,
  0x0a, 0x00, 0x00, 0x00, 0x01, 0x00, 0x00, 0x00, 0x09, 0x00, 0x00, 0x00,
  0x96, 0xff, 0xff, 0xff, 0x14, 0x00, 0x00, 0x00, 0x00, 0x00, 0x00, 0x08,
  0x10, 0x00, 0x00, 0x00, 0x14, 0x00, 0x00, 0x00, 0x04, 0x00, 0x04, 0x00,
  0x04, 0x00, 0x00, 0x00, 0x01, 0x00, 0x00, 0x00, 0x09, 0x00, 0x00, 0x00,
  0x03, 0x00, 0x00, 0x00, 0x08, 0x00, 0x00, 0x00, 0x02, 0x00, 0x00, 0x00,
  0x01, 0x00, 0x00, 0x00, 0xca, 0xff, 0xff, 0xff, 0x10, 0x00, 0x00, 0x00,
  0x00, 0x00, 0x00, 0x08, 0x10, 0x00, 0x00, 0x00, 0x14, 0x00, 0x00, 0x00,
  0xba, 0xff, 0xff, 0xff, 0x00, 0x00, 0x00, 0x01, 0x01, 0x00, 0x00, 0x00,
  0x08, 0x00, 0x00, 0x00, 0x03, 0x00, 0x00, 0x00, 0x07, 0x00, 0x00, 0x00,
  0x04, 0x00, 0x00, 0x00, 0x03, 0x00, 0x00, 0x00, 0x00, 0x00, 0x0e, 0x00,
  0x16, 0x00, 0x00, 0x00, 0x10, 0x00, 0x0c, 0x00, 0x0b, 0x00, 0x04, 0x00,
  0x0e, 0x00, 0x00, 0x00, 0x18, 0x00, 0x00, 0x00, 0x00, 0x00, 0x00, 0x08,
  0x18, 0x00, 0x00, 0x00, 0x1c, 0x00, 0x00, 0x00, 0x00, 0x00, 0x06, 0x00,
  0x08, 0x00, 0x07, 0x00, 0x06, 0x00, 0x00, 0x00, 0x00, 0x00, 0x00, 0x01,
  0x01, 0x00, 0x00, 0x00, 0x07, 0x00, 0x00, 0x00, 0x03, 0x00, 0x00, 0x00,
  0x00, 0x00, 0x00, 0x00, 0x06, 0x00, 0x00, 0x00, 0x05, 0x00, 0x00, 0x00,
  0x01, 0x00, 0x00, 0x00, 0x0a, 0x00, 0x00, 0x00, 0x01, 0x00, 0x00, 0x00,
  0x00, 0x00, 0x00, 0x00, 0x0b, 0x00, 0x00, 0x00, 0xf8, 0x04, 0x00, 0x00,
  0x68, 0x04, 0x00, 0x00, 0xfc, 0x03, 0x00, 0x00, 0x80, 0x03, 0x00, 0x00,
  0x14, 0x03, 0x00, 0x00, 0xa0, 0x02, 0x00, 0x00, 0x34, 0x02, 0x00, 0x00,
  0x98, 0x01, 0x00, 0x00, 0xf4, 0x00, 0x00, 0x00, 0x70, 0x00, 0x00, 0x00,
  0x04, 0x00, 0x00, 0x00, 0x4a, 0xfb, 0xff, 0xff, 0x00, 0x00, 0x00, 0x01,
  0x14, 0x00, 0x00, 0x00, 0x30, 0x00, 0x00, 0x00, 0x0b, 0x00, 0x00, 0x00,
  0x00, 0x00, 0x00, 0x09, 0x44, 0x00, 0x00, 0x00, 0x34, 0xfb, 0xff, 0xff,
  0x08, 0x00, 0x00, 0x00, 0x10, 0x00, 0x00, 0x00, 0x01, 0x00, 0x00, 0x00,
  0x80, 0xff, 0xff, 0xff, 0xff, 0xff, 0xff, 0xff, 0x01, 0x00, 0x00, 0x00,
  0x00, 0x00, 0x80, 0x3b, 0x19, 0x00, 0x00, 0x00, 0x53, 0x74, 0x61, 0x74,
  0x65, 0x66, 0x75, 0x6c, 0x50, 0x61, 0x72, 0x74, 0x69, 0x74, 0x69, 0x6f,
  0x6e, 0x65, 0x64, 0x43, 0x61, 0x6c, 0x6c, 0x3a, 0x30, 0x00, 0x00, 0x00,
  0x02, 0x00, 0x00, 0x00, 0x01, 0x00, 0x00, 0x00, 0x05, 0x00, 0x00, 0x00,
  0xb2, 0xfb, 0xff, 0xff, 0x00, 0x00, 0x00, 0x01, 0x14, 0x00, 0x00, 0x00,
  0x30, 0x00, 0x00, 0x00, 0x0a, 0x00, 0x00, 0x00, 0x00, 0x00, 0x00, 0x09,
  0x5c, 0x00, 0x00, 0x00, 0x9c, 0xfb, 0xff, 0xff, 0x08, 0x00, 0x00, 0x00,
  0x10, 0x00, 0x00, 0x00, 0x01, 0x00, 0x00, 0x00, 0x09, 0x00, 0x00, 0x00,
  0x00, 0x00, 0x00, 0x00, 0x01, 0x00, 0x00, 0x00, 0x34, 0x2c, 0x97, 0x3e,
  0x32, 0x00, 0x00, 0x00, 0x73, 0x65, 0x71, 0x75, 0x65, 0x6e, 0x74, 0x69,
  0x61, 0x6c, 0x2f, 0x79, 0x5f, 0x70, 0x72, 0x65, 0x64, 0x2f, 0x4d, 0x61,
  0x74, 0x4d, 0x75, 0x6c, 0x3b, 0x73, 0x65, 0x71, 0x75, 0x65, 0x6e, 0x74,
  0x69, 0x61, 0x6c, 0x2f, 0x79, 0x5f, 0x70, 0x72, 0x65, 0x64, 0x2f, 0x42,
  0x69, 0x61, 0x73, 0x41, 0x64, 0x64, 0x00, 0x00, 0x02, 0x00, 0x00, 0x00,
  0x01, 0x00, 0x00, 0x00, 0x05, 0x00, 0x00, 0x00, 0x32, 0xfc, 0xff, 0xff,
  0x00, 0x00, 0x00, 0x01, 0x14, 0x00, 0x00, 0x00, 0x34, 0x00, 0x00, 0x00,
  0x09, 0x00, 0x00, 0x00, 0x00, 0x00, 0x00, 0x09, 0x7c, 0x00, 0x00, 0x00,
  0x1c, 0xfc, 0xff, 0xff, 0x08, 0x00, 0x00, 0x00, 0x14, 0x00, 0x00, 0x00,
  0x01, 0x00, 0x00, 0x00, 0x80, 0xff, 0xff, 0xff, 0xff, 0xff, 0xff, 0xff,
  0x00, 0x00, 0x00, 0x00, 0x01, 0x00, 0x00, 0x00, 0xe1, 0xe5, 0x2f, 0x3e,
  0x4c, 0x00, 0x00, 0x00, 0x73, 0x65, 0x71, 0x75, 0x65, 0x6e, 0x74, 0x69,
  0x61, 0x6c, 0x2f, 0x64, 0x65, 0x6e, 0x73, 0x65, 0x5f, 0x31, 0x2f, 0x4d,
  0x61, 0x74, 0x4d, 0x75, 0x6c, 0x3b, 0x73, 0x65, 0x71, 0x75, 0x65, 0x6e,
  0x74, 0x69, 0x61, 0x6c, 0x2f, 0x64, 0x65, 0x6e, 0x73, 0x65, 0x5f, 0x31,
  0x2f, 0x52, 0x65, 0x6c, 0x75, 0x3b, 0x73, 0x65, 0x71, 0x75, 0x65, 0x6e,
  0x74, 0x69, 0x61, 0x6c, 0x2f, 0x64, 0x65, 0x6e, 0x73, 0x65, 0x5f, 0x31,
  0x2f, 0x42, 0x69, 0x61, 0x73, 0x41, 0x64, 0x64, 0x00, 0x00, 0x00, 0x00,
  0x02, 0x00, 0x00, 0x00, 0x01, 0x00, 0x00, 0x00, 0x14, 0x00, 0x00, 0x00,
  0xd2, 0xfc, 0xff, 0xff, 0x00, 0x00, 0x00, 0x01, 0x14, 0x00, 0x00, 0x00,
  0x34, 0x00, 0x00, 0x00, 0x08, 0x00, 0x00, 0x00, 0x00, 0x00, 0x00, 0x09,
  0x74, 0x00, 0x00, 0x00, 0xbc, 0xfc, 0xff, 0xff, 0x08, 0x00, 0x00, 0x00,
  0x14, 0x00, 0x00, 0x00, 0x01, 0x00, 0x00, 0x00, 0x80, 0xff, 0xff, 0xff,
  0xff, 0xff, 0xff, 0xff, 0x00, 0x00, 0x00, 0x00, 0x01, 0x00, 0x00, 0x00,
  0xdb, 0x9a, 0xb5, 0x3d, 0x46, 0x00, 0x00, 0x00, 0x73, 0x65, 0x71, 0x75,
  0x65, 0x6e, 0x74, 0x69, 0x61, 0x6c, 0x2f, 0x64, 0x65, 0x6e, 0x73, 0x65,
  0x2f, 0x4d, 0x61, 0x74, 0x4d, 0x75, 0x6c, 0x3b, 0x73, 0x65, 0x71, 0x75,
  0x65, 0x6e, 0x74, 0x69, 0x61, 0x6c, 0x2f, 0x64, 0x65, 0x6e, 0x73, 0x65,
  0x2f, 0x52, 0x65, 0x6c, 0x75, 0x3b, 0x73, 0x65, 0x71, 0x75, 0x65, 0x6e,
  0x74, 0x69, 0x61, 0x6c, 0x2f, 0x64, 0x65, 0x6e, 0x73, 0x65, 0x2f, 0x42,
  0x69, 0x61, 0x73, 0x41, 0x64, 0x64, 0x00, 0x00, 0x02, 0x00, 0x00, 0x00,
  0x01, 0x00, 0x00, 0x00, 0x1e, 0x00, 0x00, 0x00, 0x6a, 0xfd, 0xff, 0xff,
  0x00, 0x00, 0x00, 0x01, 0x14, 0x00, 0x00, 0x00, 0x34, 0x00, 0x00, 0x00,
  0x07, 0x00, 0x00, 0x00, 0x00, 0x00, 0x00, 0x09, 0x44, 0x00, 0x00, 0x00,
  0x54, 0xfd, 0xff, 0xff, 0x08, 0x00, 0x00, 0x00, 0x14, 0x00, 0x00, 0x00,
  0x01, 0x00, 0x00, 0x00, 0x00, 0x00, 0x00, 0x00, 0x00, 0x00, 0x00, 0x00,
  0x00, 0x00, 0x00, 0x00, 0x01, 0x00, 0x00, 0x00, 0xa6, 0xed, 0x86, 0x3b,
  0x17, 0x00, 0x00, 0x00, 0x73, 0x65, 0x71, 0x75, 0x65, 0x6e, 0x74, 0x69,
  0x61, 0x6c, 0x2f, 0x64, 0x65, 0x6e, 0x73, 0x65, 0x2f, 0x4d, 0x61, 0x74,
  0x4d, 0x75, 0x6c, 0x00, 0x02, 0x00, 0x00, 0x00, 0x1e, 0x00, 0x00, 0x00,
  0x4e, 0x00, 0x00, 0x00, 0xd2, 0xfd, 0xff, 0xff, 0x00, 0x00, 0x00, 0x01,
  0x14, 0x00, 0x00, 0x00, 0x30, 0x00, 0x00, 0x00, 0x06, 0x00, 0x00, 0x00,
  0x00, 0x00, 0x00, 0x02, 0x50, 0x00, 0x00, 0x00, 0xbc, 0xfd, 0xff, 0xff,
  0x08, 0x00, 0x00, 0x00, 0x10, 0x00, 0x00, 0x00, 0x01, 0x00, 0x00, 0x00,
  0x00, 0x00, 0x00, 0x00, 0x00, 0x00, 0x00, 0x00, 0x01, 0x00, 0x00, 0x00,
  0x96, 0x02, 0x3f, 0x3a, 0x27, 0x00, 0x00, 0x00, 0x73, 0x65, 0x71, 0x75,
  0x65, 0x6e, 0x74, 0x69, 0x61, 0x6c, 0x2f, 0x64, 0x65, 0x6e, 0x73, 0x65,
  0x2f, 0x42, 0x69, 0x61, 0x73, 0x41, 0x64, 0x64, 0x2f, 0x52, 0x65, 0x61,
  0x64, 0x56, 0x61, 0x72, 0x69, 0x61, 0x62, 0x6c, 0x65, 0x4f, 0x70, 0x00,
  0x01, 0x00, 0x00, 0x00, 0x1e, 0x00, 0x00, 0x00, 0x42, 0xfe, 0xff, 0xff,
  0x00, 0x00, 0x00, 0x01, 0x14, 0x00, 0x00, 0x00, 0x30, 0x00, 0x00, 0x00,
  0x05, 0x00, 0x00, 0x00, 0x00, 0x00, 0x00, 0x09, 0x44, 0x00, 0x00, 0x00,
  0x2c, 0xfe, 0xff, 0xff, 0x08, 0x00, 0x00, 0x00, 0x10, 0x00, 0x00, 0x00,
  0x01, 0x00, 0x00, 0x00, 0x00, 0x00, 0x00, 0x00, 0x00, 0x00, 0x00, 0x00,
  0x01, 0x00, 0x00, 0x00, 0x26, 0x4d, 0xab, 0x3b, 0x19, 0x00, 0x00, 0x00,
  0x73, 0x65, 0x71, 0x75, 0x65, 0x6e, 0x74, 0x69, 0x61, 0x6c, 0x2f, 0x64,
  0x65, 0x6e, 0x73, 0x65, 0x5f, 0x31, 0x2f, 0x4d, 0x61, 0x74, 0x4d, 0x75,
  0x6c, 0x00, 0x00, 0x00, 0x02, 0x00, 0x00, 0x00, 0x14, 0x00, 0x00, 0x00,
  0x1e, 0x00, 0x00, 0x00, 0xaa, 0xfe, 0xff, 0xff, 0x00, 0x00, 0x00, 0x01,
  0x14, 0x00, 0x00, 0x00, 0x34, 0x00, 0x00, 0x00, 0x04, 0x00, 0x00, 0x00,
  0x00, 0x00, 0x00, 0x02, 0x58, 0x00, 0x00, 0x00, 0x94, 0xfe, 0xff, 0xff,
  0x08, 0x00, 0x00, 0x00, 0x14, 0x00, 0x00, 0x00, 0x01, 0x00, 0x00, 0x00,
  0x00, 0x00, 0x00, 0x00, 0x00, 0x00, 0x00, 0x00, 0x00, 0x00, 0x00, 0x00,
  0x01, 0x00, 0x00, 0x00, 0x56, 0x0a, 0xf3, 0x39, 0x29, 0x00, 0x00, 0x00,
  0x73, 0x65, 0x71, 0x75, 0x65, 0x6e, 0x74, 0x69, 0x61, 0x6c, 0x2f, 0x64,
  0x65, 0x6e, 0x73, 0x65, 0x5f, 0x31, 0x2f, 0x42, 0x69, 0x61, 0x73, 0x41,
  0x64, 0x64, 0x2f, 0x52, 0x65, 0x61, 0x64, 0x56, 0x61, 0x72, 0x69, 0x61,
  0x62, 0x6c, 0x65, 0x4f, 0x70, 0x00, 0x00, 0x00, 0x01, 0x00, 0x00, 0x00,
  0x14, 0x00, 0x00, 0x00, 0x22, 0xff, 0xff, 0xff, 0x00, 0x00, 0x00, 0x01,
  0x14, 0x00, 0x00, 0x00, 0x30, 0x00, 0x00, 0x00, 0x03, 0x00, 0x00, 0x00,
  0x00, 0x00, 0x00, 0x09, 0x44, 0x00, 0x00, 0x00, 0x0c, 0xff, 0xff, 0xff,
  0x08, 0x00, 0x00, 0x00, 0x10, 0x00, 0x00, 0x00, 0x01, 0x00, 0x00, 0x00,
  0x00, 0x00, 0x00, 0x00, 0x00, 0x00, 0x00, 0x00, 0x01, 0x00, 0x00, 0x00,
  0xe4, 0xb4, 0xde, 0x3b, 0x18, 0x00, 0x00, 0x00, 0x73, 0x65, 0x71, 0x75,
  0x65, 0x6e, 0x74, 0x69, 0x61, 0x6c, 0x2f, 0x79, 0x5f, 0x70, 0x72, 0x65,
  0x64, 0x2f, 0x4d, 0x61, 0x74, 0x4d, 0x75, 0x6c, 0x00, 0x00, 0x00, 0x00,
  0x02, 0x00, 0x00, 0x00, 0x05, 0x00, 0x00, 0x00, 0x14, 0x00, 0x00, 0x00,
  0x8a, 0xff, 0xff, 0xff, 0x00, 0x00, 0x00, 0x01, 0x14, 0x00, 0x00, 0x00,
  0x30, 0x00, 0x00, 0x00, 0x02, 0x00, 0x00, 0x00, 0x00, 0x00, 0x00, 0x02,
  0x54, 0x00, 0x00, 0x00, 0x74, 0xff, 0xff, 0xff, 0x08, 0x00, 0x00, 0x00,
  0x10, 0x00, 0x00, 0x00, 0x01, 0x00, 0x00, 0x00, 0x00, 0x00, 0x00, 0x00,
  0x00, 0x00, 0x00, 0x00, 0x01, 0x00, 0x00, 0x00, 0xa3, 0x05, 0x99, 0x3a,
  0x28, 0x00, 0x00, 0x00, 0x73, 0x65, 0x71, 0x75, 0x65, 0x6e, 0x74, 0x69,
  0x61, 0x6c, 0x2f, 0x79, 0x5f, 0x70, 0x72, 0x65, 0x64, 0x2f, 0x42, 0x69,
  0x61, 0x73, 0x41, 0x64, 0x64, 0x2f, 0x52, 0x65, 0x61, 0x64, 0x56, 0x61,
  0x72, 0x69, 0x61, 0x62, 0x6c, 0x65, 0x4f, 0x70, 0x00, 0x00, 0x00, 0x00,
  0x01, 0x00, 0x00, 0x00, 0x05, 0x00, 0x00, 0x00, 0x00, 0x00, 0x16, 0x00,
  0x1c, 0x00, 0x18, 0x00, 0x17, 0x00, 0x10, 0x00, 0x0c, 0x00, 0x08, 0x00,
  0x00, 0x00, 0x00, 0x00, 0x00, 0x00, 0x07, 0x00, 0x16, 0x00, 0x00, 0x00,
  0x00, 0x00, 0x00, 0x01, 0x20, 0x00, 0x00, 0x00, 0x40, 0x00, 0x00, 0x00,
  0x01, 0x00, 0x00, 0x00, 0x00, 0x00, 0x00, 0x09, 0x4c, 0x00, 0x00, 0x00,
  0x0c, 0x00, 0x0c, 0x00, 0x00, 0x00, 0x00, 0x00, 0x08, 0x00, 0x04, 0x00,
  0x0c, 0x00, 0x00, 0x00, 0x08, 0x00, 0x00, 0x00, 0x14, 0x00, 0x00, 0x00,
  0x01, 0x00, 0x00, 0x00, 0xe9, 0xff, 0xff, 0xff, 0xff, 0xff, 0xff, 0xff,
  0x00, 0x00, 0x00, 0x00, 0x01, 0x00, 0x00, 0x00, 0xbc, 0x33, 0x35, 0x3e,
  0x13, 0x00, 0x00, 0x00, 0x73, 0x65, 0x72, 0x76, 0x69, 0x6e, 0x67, 0x5f,
  0x64, 0x65, 0x66, 0x61, 0x75, 0x6c, 0x74, 0x5f, 0x78, 0x3a, 0x30, 0x00,
  0x02, 0x00, 0x00, 0x00, 0x01, 0x00, 0x00, 0x00, 0x4e, 0x00, 0x00, 0x00,
  0x02, 0x00, 0x00, 0x00, 0x24, 0x00, 0x00, 0x00, 0x04, 0x00, 0x00, 0x00,
  0xf0, 0xff, 0xff, 0xff, 0x19, 0x00, 0x00, 0x00, 0x02, 0x00, 0x00, 0x00,
  0x00, 0x00, 0x00, 0x19, 0x0c, 0x00, 0x10, 0x00, 0x0f, 0x00, 0x00, 0x00,
  0x08, 0x00, 0x04, 0x00, 0x0c, 0x00, 0x00, 0x00, 0x09, 0x00, 0x00, 0x00,
  0x04, 0x00, 0x00, 0x00, 0x00, 0x00, 0x00, 0x09
};
unsigned int tflite_learn_5_len = 5624;
#endif // _EI_CLASSIFIER_TFLITE_LEARN_5_H_
