/*
 * Copyright (c) 2024 EdgeImpulse Inc.
 *
 * Generated by Edge Impulse and licensed under the applicable Edge Impulse
 * Terms of Service. Community and Professional Terms of Service
 * (https://docs.edgeimpulse.com/page/terms-of-service) or Enterprise Terms of
 * Service (https://docs.edgeimpulse.com/page/enterprise-terms-of-service),
 * according to your product plan subscription (the “License”).
 *
 * This software, documentation and other associated files (collectively referred
 * to as the “Software”) is a single SDK variation generated by the Edge Impulse
 * platform and requires an active paid Edge Impulse subscription to use this
 * Software for any purpose.
 *
 * You may NOT use this Software unless you have an active Edge Impulse subscription
 * that meets the eligibility requirements for the applicable License, subject to
 * your full and continued compliance with the terms and conditions of the License,
 * including without limitation any usage restrictions under the applicable License.
 *
 * If you do not have an active Edge Impulse product plan subscription, or if use
 * of this Software exceeds the usage limitations of your Edge Impulse product plan
 * subscription, you are not permitted to use this Software and must immediately
 * delete and erase all copies of this Software within your control or possession.
 * Edge Impulse reserves all rights and remedies available to enforce its rights.
 *
 * Unless required by applicable law or agreed to in writing, the Software is
 * distributed on an "AS IS" BASIS, WITHOUT WARRANTIES OR CONDITIONS OF ANY KIND,
 * either express or implied. See the License for the specific language governing
 * permissions, disclaimers and limitations under the License.
 */

#ifndef _EI_CLASSIFIER_TFLITE_LEARN_5_H_
#define _EI_CLASSIFIER_TFLITE_LEARN_5_H_

#define EI_CLASSIFIER_TFLITE_LEARN_5_ARENA_SIZE     3020
const size_t tflite_learn_5_arena_size = 3020;

#ifdef EI_CLASSIFIER_TFLITE_ARENA_SIZE
#if EI_CLASSIFIER_TFLITE_ARENA_SIZE < EI_CLASSIFIER_TFLITE_LEARN_5_ARENA_SIZE
#undef EI_CLASSIFIER_TFLITE_ARENA_SIZE
#define EI_CLASSIFIER_TFLITE_ARENA_SIZE EI_CLASSIFIER_TFLITE_LEARN_5_ARENA_SIZE
#endif // #if EI_CLASSIFIER_TFLITE_ARENA_SIZE < EI_CLASSIFIER_TFLITE_LEARN_5_ARENA_SIZE
#else
#define EI_CLASSIFIER_TFLITE_ARENA_SIZE EI_CLASSIFIER_TFLITE_LEARN_5_ARENA_SIZE
#endif // #ifdef EI_CLASSIFIER_TFLITE_ARENA_SIZE

#if defined __GNUC__
#define ALIGN(X) __attribute__((aligned(X)))
#elif defined _MSC_VER
#define ALIGN(X) __declspec(align(X))
#elif defined __TASKING__
#define ALIGN(X) __align(X)
#else
#define ALIGN(X)
#endif

ALIGN(16) const unsigned char tflite_learn_5[] = {
  0x1c, 0x00, 0x00, 0x00, 0x54, 0x46, 0x4c, 0x33, 0x14, 0x00, 0x20, 0x00,
  0x1c, 0x00, 0x18, 0x00, 0x14, 0x00, 0x10, 0x00, 0x0c, 0x00, 0x00, 0x00,
  0x08, 0x00, 0x04, 0x00, 0x14, 0x00, 0x00, 0x00, 0x1c, 0x00, 0x00, 0x00,
  0x8c, 0x00, 0x00, 0x00, 0xe4, 0x00, 0x00, 0x00, 0xb8, 0x0e, 0x00, 0x00,
  0xc8, 0x0e, 0x00, 0x00, 0x8c, 0x15, 0x00, 0x00, 0x03, 0x00, 0x00, 0x00,
  0x01, 0x00, 0x00, 0x00, 0x10, 0x00, 0x00, 0x00, 0x00, 0x00, 0x0a, 0x00,
  0x10, 0x00, 0x0c, 0x00, 0x08, 0x00, 0x04, 0x00, 0x0a, 0x00, 0x00, 0x00,
  0x0c, 0x00, 0x00, 0x00, 0x1c, 0x00, 0x00, 0x00, 0x3c, 0x00, 0x00, 0x00,
  0x0f, 0x00, 0x00, 0x00, 0x73, 0x65, 0x72, 0x76, 0x69, 0x6e, 0x67, 0x5f,
  0x64, 0x65, 0x66, 0x61, 0x75, 0x6c, 0x74, 0x00, 0x01, 0x00, 0x00, 0x00,
  0x04, 0x00, 0x00, 0x00, 0x9c, 0xff, 0xff, 0xff, 0x0a, 0x00, 0x00, 0x00,
  0x04, 0x00, 0x00, 0x00, 0x08, 0x00, 0x00, 0x00, 0x6f, 0x75, 0x74, 0x70,
  0x75, 0x74, 0x5f, 0x30, 0x00, 0x00, 0x00, 0x00, 0x01, 0x00, 0x00, 0x00,
  0x04, 0x00, 0x00, 0x00, 0x2e, 0xf1, 0xff, 0xff, 0x04, 0x00, 0x00, 0x00,
  0x01, 0x00, 0x00, 0x00, 0x78, 0x00, 0x00, 0x00, 0x02, 0x00, 0x00, 0x00,
  0x34, 0x00, 0x00, 0x00, 0x04, 0x00, 0x00, 0x00, 0xdc, 0xff, 0xff, 0xff,
  0x0d, 0x00, 0x00, 0x00, 0x04, 0x00, 0x00, 0x00, 0x13, 0x00, 0x00, 0x00,
  0x43, 0x4f, 0x4e, 0x56, 0x45, 0x52, 0x53, 0x49, 0x4f, 0x4e, 0x5f, 0x4d,
  0x45, 0x54, 0x41, 0x44, 0x41, 0x54, 0x41, 0x00, 0x08, 0x00, 0x0c, 0x00,
  0x08, 0x00, 0x04, 0x00, 0x08, 0x00, 0x00, 0x00, 0x0c, 0x00, 0x00, 0x00,
  0x04, 0x00, 0x00, 0x00, 0x13, 0x00, 0x00, 0x00, 0x6d, 0x69, 0x6e, 0x5f,
  0x72, 0x75, 0x6e, 0x74, 0x69, 0x6d, 0x65, 0x5f, 0x76, 0x65, 0x72, 0x73,
  0x69, 0x6f, 0x6e, 0x00, 0x0e, 0x00, 0x00, 0x00, 0xd0, 0x0d, 0x00, 0x00,
  0xc8, 0x0d, 0x00, 0x00, 0xa4, 0x0d, 0x00, 0x00, 0x30, 0x0d, 0x00, 0x00,
  0xd0, 0x0c, 0x00, 0x00, 0x68, 0x0a, 0x00, 0x00, 0xe0, 0x09, 0x00, 0x00,
  0xac, 0x00, 0x00, 0x00, 0xa4, 0x00, 0x00, 0x00, 0x9c, 0x00, 0x00, 0x00,
  0x94, 0x00, 0x00, 0x00, 0x8c, 0x00, 0x00, 0x00, 0x6c, 0x00, 0x00, 0x00,
  0x04, 0x00, 0x00, 0x00, 0xd6, 0xf1, 0xff, 0xff, 0x04, 0x00, 0x00, 0x00,
  0x58, 0x00, 0x00, 0x00, 0x0c, 0x00, 0x00, 0x00, 0x08, 0x00, 0x0e, 0x00,
  0x08, 0x00, 0x04, 0x00, 0x08, 0x00, 0x00, 0x00, 0x10, 0x00, 0x00, 0x00,
  0x28, 0x00, 0x00, 0x00, 0x00, 0x00, 0x06, 0x00, 0x08, 0x00, 0x04, 0x00,
  0x06, 0x00, 0x00, 0x00, 0x04, 0x00, 0x00, 0x00, 0x01, 0x00, 0x00, 0x00,
  0xeb, 0x03, 0x00, 0x00, 0x00, 0x00, 0x0a, 0x00, 0x10, 0x00, 0x0c, 0x00,
  0x08, 0x00, 0x04, 0x00, 0x0a, 0x00, 0x00, 0x00, 0x03, 0x00, 0x00, 0x00,
  0x02, 0x00, 0x00, 0x00, 0x04, 0x00, 0x00, 0x00, 0x06, 0x00, 0x00, 0x00,
  0x32, 0x2e, 0x31, 0x31, 0x2e, 0x31, 0x00, 0x00, 0x3a, 0xf2, 0xff, 0xff,
  0x04, 0x00, 0x00, 0x00, 0x10, 0x00, 0x00, 0x00, 0x31, 0x2e, 0x31, 0x34,
  0x2e, 0x30, 0x00, 0x00, 0x00, 0x00, 0x00, 0x00, 0x00, 0x00, 0x00, 0x00,
  0x24, 0xf2, 0xff, 0xff, 0x28, 0xf2, 0xff, 0xff, 0x2c, 0xf2, 0xff, 0xff,
  0x30, 0xf2, 0xff, 0xff, 0x66, 0xf2, 0xff, 0xff, 0x04, 0x00, 0x00, 0x00,
  0x24, 0x09, 0x00, 0x00, 0xee, 0x22, 0x2c, 0xce, 0x07, 0x01, 0xc6, 0xcc,
  0xcf, 0xd4, 0x2c, 0xef, 0xe2, 0x0d, 0xe5, 0xc9, 0xce, 0xf5, 0xe4, 0x30,
  0x12, 0xd3, 0xd1, 0x45, 0xf1, 0xe9, 0xd9, 0x17, 0xd4, 0xf0, 0x2f, 0x02,
  0xd8, 0x14, 0xc9, 0x04, 0xd0, 0x3a, 0x4a, 0x0f, 0x17, 0x0f, 0xd5, 0x0a,
  0x09, 0x22, 0xfc, 0x33, 0xe2, 0xf1, 0xe8, 0x0f, 0xfe, 0x38, 0xf7, 0x0f,
  0xeb, 0x2c, 0xf3, 0xed, 0x1c, 0x3d, 0x36, 0xff, 0x43, 0x0e, 0xfb, 0x35,
  0x0b, 0x11, 0xe5, 0x00, 0xe0, 0x0b, 0x19, 0x1a, 0xe8, 0x10, 0xc9, 0x07,
  0x13, 0xdc, 0x1a, 0xd9, 0x4f, 0x3e, 0xfb, 0x3f, 0xd7, 0xe8, 0x35, 0x06,
  0xe5, 0x3d, 0x14, 0x08, 0x3a, 0x44, 0xfa, 0x01, 0x3d, 0xf2, 0xcb, 0x16,
  0xfd, 0x14, 0x2c, 0xfa, 0xfd, 0x2b, 0x20, 0x23, 0x2c, 0x2d, 0xee, 0x14,
  0x25, 0x1a, 0xe2, 0x1b, 0x00, 0x37, 0x34, 0xf2, 0xfa, 0xdb, 0x25, 0xd5,
  0x2d, 0x18, 0xff, 0x32, 0xcb, 0xd3, 0x1b, 0xcd, 0xd4, 0xfd, 0x0f, 0xcd,
  0x02, 0x06, 0xd9, 0x26, 0xb8, 0xfe, 0x06, 0x2c, 0x1a, 0x06, 0xf8, 0xc9,
  0xc9, 0x0b, 0xe5, 0xce, 0x30, 0xb2, 0xbf, 0x2f, 0x22, 0xbc, 0x37, 0x02,
  0xcc, 0xf3, 0x24, 0xee, 0xf3, 0xea, 0xd7, 0xd0, 0x20, 0x05, 0xfc, 0x0f,
  0xb3, 0x15, 0xb6, 0x02, 0xb8, 0xca, 0xc5, 0xec, 0xf1, 0xea, 0xfc, 0x23,
  0x08, 0x3a, 0xd5, 0xb6, 0xfa, 0x9c, 0xdc, 0xd7, 0x20, 0x06, 0x15, 0x0e,
  0x01, 0x03, 0xe3, 0xf3, 0xf7, 0x18, 0xb6, 0xc9, 0xe4, 0xb6, 0xd2, 0x42,
  0x1e, 0x25, 0x07, 0x08, 0xd0, 0x2e, 0xe9, 0xd0, 0x11, 0xf6, 0x01, 0xb4,
  0xe9, 0x1c, 0xda, 0xfe, 0xff, 0xff, 0x0d, 0xf7, 0xcb, 0xfb, 0xd0, 0xd3,
  0x27, 0x31, 0x04, 0x35, 0x8f, 0xe7, 0x1c, 0x29, 0xf5, 0xca, 0x16, 0x01,
  0x16, 0xff, 0x2b, 0xd6, 0x2f, 0x09, 0x09, 0xc4, 0xfb, 0x1d, 0x48, 0xf5,
  0x2c, 0x44, 0x01, 0xd9, 0xd1, 0xf1, 0x15, 0x09, 0xf3, 0xd5, 0x38, 0x18,
  0xf9, 0x3c, 0x3a, 0xe0, 0x27, 0x2b, 0x18, 0x30, 0xbc, 0xc3, 0xda, 0xf7,
  0x1c, 0xef, 0x1d, 0xd4, 0x2d, 0xe7, 0xe3, 0xfb, 0xd2, 0xe4, 0x0f, 0x05,
  0xff, 0xbc, 0xd4, 0x56, 0x02, 0x12, 0x30, 0xda, 0xf9, 0xf2, 0xfc, 0x13,
  0x09, 0xdd, 0x05, 0x25, 0x26, 0xca, 0xd0, 0xf8, 0x1d, 0x04, 0x1b, 0x2c,
  0xd3, 0x30, 0x1f, 0xab, 0xfa, 0xd4, 0x41, 0xf9, 0xf3, 0xea, 0x37, 0x3a,
  0x2e, 0xe5, 0xd6, 0x1c, 0xdf, 0x04, 0x1a, 0xd7, 0xcd, 0x31, 0xe3, 0xd8,
  0xdf, 0xca, 0x09, 0x04, 0x04, 0xe5, 0x3e, 0x37, 0xd6, 0x1b, 0x2d, 0xee,
  0xe6, 0x2a, 0xf1, 0x05, 0x2a, 0xee, 0x28, 0xeb, 0xda, 0xe0, 0xd9, 0xd5,
  0x17, 0xce, 0xd4, 0xcd, 0xea, 0x18, 0x2d, 0xc9, 0x0f, 0x22, 0xe6, 0xb9,
  0x10, 0x3b, 0xdf, 0x20, 0xd1, 0xd7, 0xfa, 0x35, 0x11, 0x1e, 0x04, 0x2c,
  0xe3, 0xe0, 0x0b, 0xfb, 0x20, 0xec, 0xb1, 0xf8, 0xf8, 0xe6, 0xe0, 0x38,
  0xe1, 0xca, 0x47, 0x10, 0xe3, 0xe2, 0xe8, 0xf7, 0xc7, 0xf6, 0x24, 0xb4,
  0x44, 0x07, 0xdd, 0xed, 0xbf, 0xad, 0xe4, 0x09, 0xce, 0x17, 0x01, 0xc9,
  0xda, 0xd6, 0x1e, 0xfc, 0xf0, 0x15, 0xd1, 0xbf, 0xfd, 0xb0, 0x11, 0x1c,
  0xc1, 0xc8, 0x3d, 0x01, 0x20, 0x20, 0x0e, 0x14, 0xe9, 0x0f, 0xf0, 0x26,
  0x1d, 0x26, 0xe7, 0x2e, 0x32, 0x13, 0x4f, 0x09, 0xef, 0xf4, 0xfa, 0xc6,
  0xde, 0xac, 0x11, 0xc0, 0x03, 0xd8, 0xec, 0x18, 0xf6, 0xd6, 0xf8, 0xc9,
  0x07, 0x1a, 0xe4, 0xc2, 0x39, 0xdf, 0x04, 0x21, 0xd3, 0xfb, 0xd3, 0xd5,
  0x1f, 0xf3, 0xec, 0xe2, 0xc3, 0xcc, 0x32, 0x0c, 0x05, 0x16, 0xd8, 0x2e,
  0xff, 0xeb, 0x3a, 0xfa, 0x1a, 0xce, 0x4b, 0x0b, 0xd8, 0x36, 0xc5, 0xe5,
  0xcd, 0xed, 0xe1, 0xce, 0xf0, 0x37, 0x28, 0xe4, 0xfd, 0x12, 0x2b, 0xab,
  0xdc, 0x24, 0x07, 0x38, 0xd7, 0x3c, 0x38, 0x0b, 0xe8, 0xd2, 0xf7, 0x05,
  0xeb, 0x02, 0xf3, 0x1b, 0xe0, 0xe1, 0x24, 0x2b, 0x13, 0x1c, 0x29, 0x1b,
  0x36, 0x29, 0x13, 0x35, 0x35, 0xee, 0xed, 0x2e, 0xc3, 0xd3, 0xd4, 0xdc,
  0xdc, 0xd0, 0xef, 0xce, 0x13, 0xff, 0x0a, 0xcf, 0xc8, 0x03, 0xf2, 0xdd,
  0xe8, 0xc4, 0x3a, 0xeb, 0xfd, 0x02, 0xd9, 0x1a, 0xed, 0x35, 0xea, 0xd0,
  0x26, 0xf0, 0xd4, 0xd4, 0xd1, 0xf6, 0x11, 0x04, 0x3f, 0x31, 0xf7, 0x3a,
  0x0d, 0xd2, 0xdd, 0xd4, 0xc7, 0xc8, 0x0c, 0x3b, 0x1d, 0x10, 0xf4, 0x3d,
  0xe1, 0x2e, 0xef, 0xe8, 0x34, 0x31, 0xfa, 0xd8, 0xee, 0xd2, 0x3b, 0xc7,
  0xd2, 0x32, 0x36, 0x15, 0x21, 0x03, 0xe6, 0x1c, 0x04, 0x11, 0xe0, 0xaa,
  0x2a, 0xc6, 0xea, 0xfb, 0x42, 0x1e, 0x61, 0xe2, 0x31, 0xd8, 0xe7, 0xcb,
  0x40, 0xe4, 0x05, 0x68, 0xcb, 0xcc, 0xfa, 0xce, 0xe9, 0x1c, 0x0a, 0x20,
  0xc3, 0xa9, 0x81, 0xfe, 0x20, 0xe6, 0x25, 0xd6, 0x60, 0xe1, 0xed, 0x38,
  0x25, 0xc0, 0xd3, 0x11, 0x01, 0xe4, 0xc8, 0x31, 0xde, 0xf3, 0xfa, 0x32,
  0x3c, 0x04, 0x13, 0xf0, 0x04, 0x33, 0xfd, 0xd3, 0x3f, 0x14, 0xeb, 0xb3,
  0xdd, 0xfd, 0x2c, 0xda, 0x03, 0x25, 0x28, 0xd1, 0x38, 0xdc, 0xbb, 0x35,
  0xfd, 0xeb, 0xbf, 0xef, 0xbb, 0xc9, 0xc1, 0xe5, 0x1a, 0xe2, 0x20, 0x00,
  0x32, 0x34, 0x46, 0x16, 0x1b, 0x11, 0xcb, 0xf7, 0xed, 0xf8, 0x18, 0xfe,
  0xea, 0xc4, 0xec, 0x0e, 0xb0, 0xb1, 0x18, 0xcd, 0x05, 0xa7, 0xb7, 0xc3,
  0xf3, 0xb2, 0xe1, 0x3a, 0x15, 0xb8, 0xc6, 0xd5, 0x10, 0xbf, 0x32, 0xfb,
  0xd7, 0xca, 0xb1, 0xc9, 0x38, 0xf9, 0xd9, 0x18, 0xe7, 0x1a, 0x34, 0x12,
  0x02, 0x16, 0x08, 0xbb, 0xf4, 0xee, 0xd8, 0xf6, 0xfd, 0xcd, 0x19, 0x26,
  0xda, 0xcd, 0x2d, 0x06, 0x31, 0xf2, 0xdc, 0x1a, 0x20, 0xff, 0x1d, 0x15,
  0x0d, 0xff, 0xc8, 0x1a, 0xfe, 0x36, 0x15, 0x16, 0x26, 0xd6, 0x17, 0xe8,
  0xcf, 0x2f, 0xfd, 0x0f, 0xd7, 0xea, 0x0a, 0xf4, 0xe9, 0xce, 0x31, 0x35,
  0x1e, 0xf6, 0xec, 0xf1, 0x1d, 0x22, 0xe3, 0x21, 0xfe, 0xe7, 0x2a, 0xd9,
  0xd3, 0x37, 0x19, 0xd4, 0xf1, 0xf0, 0x39, 0x1e, 0x16, 0x1c, 0xe2, 0x18,
  0xe5, 0xc9, 0x12, 0xce, 0xfc, 0xe1, 0xd4, 0xbf, 0xd5, 0xc6, 0x11, 0xc1,
  0x22, 0xf9, 0xe8, 0x03, 0x32, 0x2c, 0xfd, 0x13, 0xb7, 0xd7, 0xfb, 0x2b,
  0xf8, 0x08, 0x44, 0x23, 0x13, 0x23, 0x19, 0x07, 0x20, 0x11, 0x28, 0xef,
  0xf5, 0x03, 0x17, 0x03, 0x04, 0xb6, 0xe7, 0x2a, 0xcb, 0xe1, 0xc9, 0xfb,
  0x1a, 0xed, 0x4a, 0x16, 0xe8, 0xce, 0xc7, 0xb6, 0x10, 0xd6, 0x2c, 0xc0,
  0xe8, 0xb8, 0x20, 0x04, 0xe1, 0xf1, 0x1f, 0x15, 0xe6, 0xd3, 0xd6, 0x03,
  0x05, 0xcd, 0x12, 0xea, 0x33, 0x04, 0xe7, 0xe8, 0x19, 0xee, 0x19, 0x31,
  0xd8, 0x22, 0x1d, 0xff, 0xe8, 0x42, 0x26, 0xde, 0x09, 0xd7, 0xf9, 0xe9,
  0x06, 0x14, 0xcb, 0x11, 0xed, 0xb7, 0xf3, 0xeb, 0xe1, 0x31, 0x43, 0x22,
  0x04, 0xd7, 0x2d, 0x32, 0x3b, 0x32, 0xfd, 0xc8, 0x18, 0x2b, 0xd2, 0xbf,
  0xbf, 0x2f, 0x2c, 0xae, 0x23, 0x37, 0xe9, 0x08, 0xc6, 0x18, 0xfd, 0xe7,
  0x0d, 0x4e, 0xfc, 0x12, 0xbb, 0xe0, 0xef, 0xe2, 0xc2, 0x08, 0x32, 0x2c,
  0x2a, 0xe7, 0x31, 0xca, 0x1e, 0xea, 0xb3, 0x12, 0xc9, 0x2e, 0x0b, 0x01,
  0x35, 0xee, 0xe0, 0x07, 0xd2, 0x07, 0x01, 0x25, 0x0b, 0x0c, 0xc7, 0xd8,
  0x1e, 0x14, 0xc4, 0x2a, 0x23, 0xdf, 0xea, 0xcb, 0xce, 0x14, 0x12, 0xe8,
  0xfe, 0x12, 0xc3, 0x1b, 0x04, 0x22, 0x48, 0x2c, 0xd9, 0xe2, 0xd2, 0xf1,
  0xcf, 0xee, 0xeb, 0xe2, 0x5f, 0x50, 0x37, 0x37, 0xd7, 0x2b, 0x2e, 0x04,
  0xea, 0x1e, 0x29, 0x43, 0xed, 0xc6, 0x21, 0xaf, 0x04, 0xc2, 0x5a, 0xf2,
  0x54, 0x12, 0x0e, 0x30, 0xca, 0xce, 0x35, 0xdf, 0x33, 0xdd, 0x23, 0x19,
  0xe7, 0x4d, 0x26, 0xfc, 0x20, 0xee, 0x1f, 0xf8, 0x29, 0xe3, 0x01, 0xce,
  0x19, 0xe4, 0xe3, 0x3d, 0xf8, 0x02, 0x14, 0xf3, 0x1d, 0xed, 0xed, 0xcc,
  0xc5, 0x22, 0xd4, 0xc9, 0x50, 0x0a, 0x15, 0xcc, 0xcf, 0xe9, 0x25, 0x1d,
  0xdb, 0xf4, 0xf2, 0x60, 0x2c, 0x10, 0x20, 0xf3, 0xc9, 0x1e, 0xe6, 0xe5,
  0x57, 0x4e, 0x43, 0xf1, 0xde, 0x1c, 0xe1, 0x10, 0xb2, 0x33, 0x35, 0x26,
  0xcd, 0x37, 0x49, 0x0e, 0xe9, 0x41, 0x0d, 0x48, 0x0c, 0x24, 0x40, 0x21,
  0x31, 0xc2, 0x1f, 0x0f, 0x35, 0x15, 0x1b, 0xf7, 0x18, 0x3f, 0x1a, 0xdf,
  0x05, 0x07, 0xfa, 0xe3, 0xdd, 0x05, 0x14, 0xfc, 0x1e, 0xf2, 0x35, 0xc0,
  0xe3, 0x3a, 0xe7, 0xef, 0xe7, 0xd4, 0xfc, 0xf7, 0xc6, 0xe1, 0xf3, 0x02,
  0xd9, 0xc3, 0xee, 0xed, 0x09, 0xdb, 0xdb, 0x0f, 0x1e, 0x00, 0x0f, 0xc9,
  0x30, 0xf1, 0x12, 0x25, 0xf8, 0x4b, 0x2b, 0x2e, 0x10, 0xc5, 0xf8, 0x0e,
  0x2f, 0x2a, 0xff, 0x08, 0xd6, 0xda, 0xcc, 0x31, 0xee, 0xec, 0x17, 0x11,
  0x21, 0xfa, 0xfa, 0x1c, 0xe2, 0x05, 0x11, 0x3c, 0x31, 0xed, 0x34, 0xcb,
  0x34, 0xfe, 0x23, 0xe5, 0xf8, 0x2d, 0x43, 0x13, 0x20, 0xfa, 0x02, 0xdf,
  0x26, 0xfe, 0xd4, 0xf0, 0x26, 0x11, 0x36, 0x10, 0xde, 0xdb, 0x42, 0xff,
  0xd0, 0x21, 0x21, 0x1e, 0xfe, 0xed, 0xf1, 0xd4, 0xde, 0xd4, 0xca, 0xef,
  0x06, 0x0f, 0x12, 0xcf, 0x04, 0xf3, 0xfc, 0x27, 0x26, 0x35, 0x4b, 0x2b,
  0x20, 0x12, 0xf0, 0x43, 0x0f, 0xc6, 0x02, 0x09, 0xf5, 0xf3, 0xbb, 0xcf,
  0xdb, 0xb0, 0xcb, 0x0e, 0xf5, 0xff, 0xee, 0xf5, 0xfa, 0x1d, 0x0d, 0xfa,
  0x03, 0xd5, 0x38, 0x33, 0xdb, 0x14, 0x2a, 0x30, 0xe2, 0x21, 0x35, 0x23,
  0x07, 0x2b, 0xe0, 0xe9, 0x07, 0xea, 0x0c, 0xc2, 0x03, 0xc5, 0xf6, 0xcd,
  0x08, 0x3e, 0x2e, 0xd6, 0xf2, 0xf8, 0x04, 0xb5, 0xbf, 0x12, 0xf9, 0x23,
  0x28, 0x05, 0xdd, 0xea, 0xc1, 0x12, 0xf6, 0xfa, 0xec, 0xe6, 0x3b, 0x4d,
  0xf0, 0x08, 0xe8, 0xf5, 0x38, 0x1d, 0x21, 0x12, 0x2b, 0xf9, 0x50, 0x27,
  0xdf, 0x0f, 0x2a, 0x28, 0xda, 0xc2, 0xbf, 0xac, 0xc1, 0x0c, 0x3d, 0xfc,
  0x02, 0xe4, 0x27, 0x13, 0x38, 0x07, 0xf1, 0xe5, 0xe1, 0xff, 0x20, 0x07,
  0x1f, 0x36, 0x3c, 0x2f, 0xd3, 0xfa, 0x0f, 0x11, 0xfa, 0xd6, 0xf8, 0x05,
  0xd9, 0xdd, 0x14, 0x1f, 0xe3, 0x27, 0x09, 0xf9, 0xc3, 0xb8, 0x02, 0xd8,
  0xe3, 0x17, 0xd6, 0x2f, 0xce, 0x2e, 0xbb, 0x27, 0xde, 0xfa, 0xf7, 0x2e,
  0xd2, 0x08, 0xf6, 0xf3, 0xe7, 0x33, 0x39, 0x0c, 0xde, 0x1e, 0xe0, 0xcb,
  0x1c, 0xfa, 0xd1, 0xe8, 0x0c, 0xda, 0xe1, 0xd5, 0xf2, 0xce, 0x13, 0xff,
  0xdb, 0xcb, 0xd4, 0xdf, 0x1f, 0x05, 0xcf, 0xea, 0xdb, 0x36, 0x23, 0xc8,
  0x3b, 0x28, 0x3b, 0xf3, 0x37, 0xf4, 0x18, 0xeb, 0xed, 0xee, 0x10, 0xe1,
  0x17, 0x01, 0x0c, 0x26, 0xcc, 0xce, 0xf2, 0x00, 0x23, 0x1a, 0xe0, 0xe3,
  0x0a, 0xff, 0x07, 0x0e, 0x08, 0xec, 0x0d, 0x24, 0xe2, 0x18, 0x03, 0xd0,
  0xe1, 0x25, 0x06, 0xe6, 0x46, 0xe5, 0x1f, 0xd7, 0xe4, 0x23, 0xe6, 0xf2,
  0xb5, 0x41, 0xf2, 0xf4, 0xea, 0x1e, 0xd2, 0xd6, 0xce, 0x04, 0xd8, 0xf7,
  0x04, 0x19, 0x0d, 0xdf, 0xc6, 0x1e, 0x08, 0x3a, 0x3c, 0xda, 0x21, 0x17,
  0xc5, 0x14, 0xc5, 0xd9, 0x21, 0x00, 0xfb, 0xd7, 0xe3, 0x2d, 0xf1, 0xf4,
  0x0e, 0xea, 0xcf, 0x40, 0x0c, 0xe2, 0xf9, 0xdb, 0xfe, 0x10, 0xc8, 0xee,
  0xee, 0x39, 0xd9, 0xd3, 0xcf, 0xdb, 0x2c, 0x02, 0x2a, 0xe9, 0xff, 0x1d,
  0x2f, 0xe2, 0x1b, 0x2c, 0xf1, 0x16, 0x15, 0xd3, 0xd6, 0x02, 0xfd, 0x1c,
  0xdc, 0x20, 0x22, 0x0e, 0xec, 0xc1, 0x39, 0x29, 0x24, 0xfa, 0xc0, 0x17,
  0x00, 0xb9, 0xb5, 0x2b, 0x0f, 0xb8, 0x0c, 0xf8, 0xfc, 0xe4, 0xfe, 0xbf,
  0xcd, 0xe6, 0x13, 0xef, 0x25, 0xd3, 0x30, 0xee, 0xd7, 0x23, 0xeb, 0xcb,
  0x14, 0x1a, 0x0c, 0x06, 0xee, 0xfe, 0x27, 0xde, 0x26, 0xd9, 0xf5, 0xca,
  0xfe, 0xe8, 0xd7, 0xe3, 0xf2, 0x1a, 0xfe, 0x08, 0x24, 0xc2, 0xf0, 0x26,
  0x0e, 0x1b, 0xeb, 0xc9, 0xe9, 0xf4, 0x06, 0x28, 0x3a, 0xf9, 0xfe, 0x37,
  0xfa, 0xaa, 0xdd, 0x2f, 0xc3, 0x0d, 0x1f, 0xe1, 0x1c, 0xed, 0xda, 0xff,
  0x20, 0x03, 0x1d, 0x11, 0x05, 0x33, 0x75, 0x12, 0x26, 0xff, 0x11, 0x1c,
  0xf9, 0x21, 0x24, 0xfa, 0x4b, 0x36, 0x24, 0xf2, 0x21, 0x1e, 0xcb, 0x3a,
  0x5b, 0xe2, 0x10, 0xfa, 0x0d, 0x5d, 0xc4, 0xef, 0x32, 0x07, 0xfb, 0x2f,
  0xf3, 0x34, 0x41, 0x30, 0xff, 0xdb, 0xe5, 0xd3, 0xfc, 0x17, 0x0f, 0xc2,
  0xfb, 0x0e, 0xc5, 0x06, 0x4b, 0xfa, 0xf8, 0x1e, 0x29, 0x33, 0xe7, 0xf0,
  0x33, 0x0d, 0x34, 0xcc, 0x00, 0x02, 0x1a, 0xe5, 0x55, 0xea, 0xd2, 0xb7,
  0x08, 0xea, 0x18, 0xe5, 0x23, 0x15, 0x10, 0x1c, 0xe0, 0xf3, 0xe6, 0xf4,
  0x24, 0xba, 0xe0, 0x24, 0x07, 0xcc, 0x20, 0x07, 0xee, 0xbe, 0xd3, 0x29,
  0xf0, 0x23, 0xe4, 0xf5, 0xcc, 0xca, 0xf8, 0x0b, 0xdc, 0xcd, 0xf1, 0x08,
  0xd8, 0xfd, 0xf3, 0xda, 0x2f, 0x10, 0xc6, 0x30, 0xe6, 0x09, 0x11, 0x30,
  0x0c, 0xcc, 0xcd, 0x1e, 0x2c, 0x09, 0x3d, 0xc6, 0x19, 0x3a, 0xc0, 0x21,
  0xe0, 0xf1, 0x3c, 0x35, 0xf4, 0xfa, 0x07, 0xe6, 0xc9, 0xd9, 0x35, 0xde,
  0xf4, 0x3b, 0x2e, 0x1b, 0x61, 0x3a, 0x47, 0xee, 0xec, 0xfe, 0x30, 0xe2,
  0xe7, 0xe0, 0x2a, 0xd9, 0x40, 0x07, 0x11, 0xd0, 0x3c, 0x24, 0xe0, 0x22,
  0xce, 0x22, 0x34, 0x49, 0x11, 0x11, 0x0c, 0x18, 0xd1, 0xf8, 0xd8, 0x1c,
  0xe4, 0xfb, 0x1b, 0xfa, 0xe3, 0x38, 0xcd, 0x07, 0x20, 0xeb, 0xd8, 0x1f,
  0xf3, 0xe5, 0x4c, 0xcf, 0x1c, 0xfa, 0xdd, 0x31, 0x2a, 0xcf, 0x12, 0xd4,
  0x39, 0xd3, 0xf4, 0x0a, 0xe9, 0x27, 0xd9, 0xc0, 0x10, 0x06, 0x18, 0x29,
  0xef, 0x13, 0x31, 0x1b, 0xfe, 0xe1, 0xd1, 0xda, 0xe9, 0x1c, 0xec, 0xc3,
  0xe7, 0xc2, 0x1b, 0xfb, 0xf1, 0x29, 0xf7, 0x28, 0x04, 0xf3, 0xcd, 0xf3,
  0xda, 0xe7, 0xec, 0xd6, 0xca, 0x35, 0x00, 0x34, 0xea, 0xf8, 0x2b, 0xdd,
  0x3a, 0xef, 0xda, 0xf9, 0x37, 0x38, 0x3a, 0xd3, 0xd8, 0xdc, 0x00, 0x2d,
  0x40, 0xf9, 0xd0, 0xde, 0x19, 0x37, 0xf0, 0x11, 0xe0, 0x27, 0x1f, 0xe0,
  0xda, 0x31, 0x29, 0x10, 0x08, 0xfc, 0x15, 0x03, 0xf9, 0x25, 0xf8, 0x39,
  0xee, 0xcb, 0xca, 0xcd, 0x16, 0xe9, 0xe1, 0x23, 0xfd, 0x3e, 0x36, 0xce,
  0xf2, 0x0e, 0x37, 0x0b, 0xc1, 0x18, 0x15, 0x26, 0xcb, 0x1c, 0x04, 0xd1,
  0xf7, 0x21, 0xf2, 0xe4, 0xe0, 0xe3, 0xfb, 0xea, 0x0f, 0x0b, 0xdd, 0x10,
  0x32, 0xeb, 0xef, 0x2e, 0xd7, 0xf8, 0x27, 0x21, 0x1a, 0x3f, 0x33, 0x39,
  0x38, 0x3f, 0xba, 0x13, 0xef, 0x1b, 0x2b, 0x01, 0x33, 0x2a, 0xcd, 0x11,
  0xf1, 0x05, 0x08, 0xc8, 0xee, 0x43, 0xdd, 0xfe, 0x35, 0x36, 0xfd, 0x07,
  0xfc, 0x25, 0x0e, 0x27, 0xfa, 0x39, 0xe1, 0x31, 0x34, 0x0f, 0x19, 0x0b,
  0x0b, 0x02, 0x05, 0xe6, 0xee, 0xe8, 0xdc, 0xf0, 0x2a, 0x17, 0xfc, 0xee,
  0x24, 0xec, 0xe9, 0xe3, 0x30, 0xcc, 0xe5, 0xe8, 0xf9, 0xf4, 0x32, 0x2d,
  0xc9, 0x2e, 0xd0, 0xdf, 0x1a, 0xe5, 0xf8, 0xf7, 0x04, 0xf8, 0x39, 0xca,
  0xf5, 0x06, 0xcb, 0xd3, 0xfb, 0xf8, 0x22, 0xd4, 0x06, 0xde, 0x1c, 0x1a,
  0x28, 0x00, 0x0b, 0xf5, 0x1d, 0x2e, 0x1e, 0x12, 0xe4, 0x0e, 0x04, 0xeb,
  0xee, 0x04, 0xe5, 0xf3, 0x27, 0x39, 0xee, 0xe4, 0xdd, 0x34, 0xdb, 0xf9,
  0xee, 0x34, 0xf9, 0x3a, 0xff, 0x23, 0x29, 0xc9, 0xf4, 0xf0, 0xcf, 0x31,
  0x2b, 0xfd, 0x13, 0x10, 0x0d, 0x4a, 0x0e, 0xc8, 0xf4, 0x1d, 0x35, 0x1d,
  0xea, 0x34, 0x49, 0xea, 0xa8, 0xc5, 0x28, 0x0e, 0xea, 0x35, 0x11, 0x33,
  0xfd, 0xf0, 0x39, 0x18, 0x00, 0x39, 0x22, 0xfb, 0x0b, 0x25, 0xcc, 0x1b,
  0x10, 0xe3, 0xed, 0x1d, 0x2c, 0x17, 0xe2, 0x10, 0xdf, 0xec, 0x17, 0x15,
  0xdc, 0xc6, 0x23, 0xcf, 0x1c, 0x12, 0xc7, 0xe8, 0x2e, 0x1d, 0xcb, 0xc2,
  0xd0, 0x21, 0xca, 0x39, 0xe8, 0x0c, 0xd0, 0xd0, 0xe2, 0x3c, 0xea, 0xc6,
  0x08, 0x07, 0xe8, 0x27, 0x39, 0x17, 0xd2, 0x0c, 0xdc, 0xed, 0x23, 0xfd,
  0xe2, 0xd9, 0x14, 0xd4, 0x02, 0xe1, 0x2c, 0x37, 0x21, 0xf5, 0x3c, 0xdd,
  0xc6, 0xeb, 0xd1, 0x13, 0x33, 0xdb, 0xe9, 0x19, 0xf5, 0x0c, 0x06, 0x1b,
  0x1e, 0x1c, 0x6c, 0xf7, 0x1d, 0xce, 0xf0, 0x34, 0xe8, 0xd8, 0x0e, 0xe4,
  0x34, 0x06, 0xf3, 0x2c, 0xd1, 0xc1, 0xd1, 0x05, 0x36, 0x2a, 0xd0, 0x00,
  0x0d, 0x3c, 0x27, 0xd7, 0xc9, 0x24, 0x28, 0xd3, 0x0d, 0x2f, 0xcf, 0x36,
  0x18, 0xd4, 0xf5, 0xd7, 0x01, 0xd7, 0x0b, 0xd8, 0x30, 0x0f, 0x39, 0xfb,
  0xbf, 0x05, 0x07, 0x38, 0xbd, 0x24, 0xe6, 0x0d, 0x16, 0xf6, 0x01, 0xfa,
  0xfc, 0xba, 0x3c, 0xd9, 0xd5, 0x13, 0xfc, 0x43, 0x32, 0x1c, 0x57, 0x29,
  0x2e, 0xd0, 0x17, 0x0d, 0x1f, 0x20, 0xea, 0x30, 0xe9, 0x2e, 0x25, 0x3f,
  0xd0, 0x51, 0xd7, 0xee, 0x16, 0xff, 0xd9, 0xc6, 0xc9, 0x1b, 0xfa, 0xe6,
  0x23, 0xbd, 0x42, 0x38, 0xbc, 0xd6, 0x24, 0x22, 0x09, 0xe7, 0x08, 0xc5,
  0xfc, 0xc4, 0xba, 0x62, 0x21, 0x2c, 0xf8, 0xeb, 0xb0, 0xc6, 0x03, 0x30,
  0xe3, 0xdf, 0x2a, 0xfb, 0x96, 0xfb, 0xff, 0xff, 0x04, 0x00, 0x00, 0x00,
  0x78, 0x00, 0x00, 0x00, 0xdd, 0xff, 0xff, 0xff, 0x21, 0x00, 0x00, 0x00,
  0x06, 0x00, 0x00, 0x00, 0x5b, 0x00, 0x00, 0x00, 0xf0, 0xff, 0xff, 0xff,
  0xa8, 0x00, 0x00, 0x00, 0x92, 0xff, 0xff, 0xff, 0xea, 0xff, 0xff, 0xff,
  0xf4, 0xff, 0xff, 0xff, 0xa4, 0xff, 0xff, 0xff, 0x01, 0x00, 0x00, 0x00,
  0xe0, 0xff, 0xff, 0xff, 0x07, 0x00, 0x00, 0x00, 0x32, 0x00, 0x00, 0x00,
  0x72, 0x00, 0x00, 0x00, 0xd0, 0xff, 0xff, 0xff, 0x2c, 0x00, 0x00, 0x00,
  0x6e, 0x00, 0x00, 0x00, 0xe0, 0xff, 0xff, 0xff, 0xfe, 0xff, 0xff, 0xff,
  0xc8, 0xff, 0xff, 0xff, 0x46, 0x00, 0x00, 0x00, 0x1e, 0x00, 0x00, 0x00,
  0x12, 0x00, 0x00, 0x00, 0xd3, 0xff, 0xff, 0xff, 0x3d, 0x00, 0x00, 0x00,
  0xf6, 0xff, 0xff, 0xff, 0x1c, 0x00, 0x00, 0x00, 0xfe, 0xff, 0xff, 0xff,
  0xa4, 0x00, 0x00, 0x00, 0x1a, 0xfc, 0xff, 0xff, 0x04, 0x00, 0x00, 0x00,
  0x58, 0x02, 0x00, 0x00, 0x25, 0xd2, 0x5f, 0x4f, 0xf3, 0x1e, 0x31, 0x27,
  0xf0, 0xd9, 0x39, 0x38, 0xcd, 0x2a, 0xd0, 0x2b, 0xc4, 0x4f, 0xe0, 0x34,
  0x38, 0xd9, 0xfe, 0x23, 0xf0, 0xd4, 0xf8, 0x04, 0x08, 0xa4, 0xd4, 0x31,
  0x39, 0xd1, 0xb3, 0xd6, 0x2d, 0x33, 0xb0, 0xdf, 0x07, 0xaa, 0x59, 0xc7,
  0xd8, 0x47, 0xcf, 0x02, 0xe1, 0x38, 0x1b, 0xf9, 0xb4, 0x33, 0x4a, 0xb5,
  0xe8, 0x08, 0x33, 0x39, 0xe5, 0xf2, 0xe7, 0xd4, 0xe2, 0x16, 0xe3, 0xf8,
  0x0f, 0xa6, 0xe6, 0xe9, 0x71, 0xd0, 0x17, 0x00, 0xd3, 0xfe, 0xef, 0xbe,
  0x30, 0x44, 0x3d, 0xa4, 0x47, 0xd7, 0x49, 0x3c, 0xd9, 0x2d, 0x22, 0x51,
  0xec, 0xd3, 0xef, 0x60, 0xc6, 0xfa, 0x10, 0x6e, 0x55, 0xd5, 0x13, 0x19,
  0xfc, 0x32, 0x53, 0x24, 0xc8, 0x22, 0xdc, 0xfb, 0xa7, 0x16, 0xb4, 0x51,
  0xda, 0xbe, 0xde, 0xd5, 0xe6, 0xaf, 0xbd, 0xf2, 0xdb, 0x57, 0xea, 0x13,
  0x0b, 0x37, 0xa0, 0x4c, 0xed, 0xef, 0x08, 0x24, 0xbb, 0x34, 0xbb, 0xe0,
  0xd5, 0x4d, 0xe0, 0xf2, 0x5b, 0xb2, 0x3a, 0x13, 0xe5, 0x04, 0xba, 0xc5,
  0xdb, 0xfc, 0x8c, 0x35, 0xe3, 0xee, 0xb3, 0xc8, 0xac, 0x27, 0xed, 0xf1,
  0x2c, 0x8d, 0xf4, 0x18, 0xc3, 0x17, 0x42, 0xb9, 0xad, 0xa3, 0xcd, 0x40,
  0xe1, 0x44, 0x3d, 0x19, 0x3b, 0xc4, 0x39, 0x07, 0xf3, 0x34, 0xda, 0x07,
  0x63, 0x06, 0xf0, 0x08, 0x2f, 0xd5, 0x9d, 0xd6, 0xf4, 0x34, 0x22, 0x4a,
  0x21, 0xf5, 0xce, 0x46, 0xc2, 0x29, 0x46, 0xf2, 0x9e, 0xeb, 0xf3, 0x1b,
  0xf1, 0x3b, 0x53, 0xbc, 0x2c, 0xb4, 0x3f, 0x01, 0x02, 0xc4, 0x2f, 0xe1,
  0xb6, 0xdd, 0x46, 0xaa, 0x0d, 0x3c, 0x47, 0x23, 0xc3, 0xc3, 0x30, 0xa6,
  0xf0, 0xa7, 0x3e, 0xc9, 0x2e, 0x29, 0x5f, 0x93, 0xe9, 0x59, 0x01, 0xe6,
  0x93, 0xe4, 0x14, 0x18, 0x7f, 0x25, 0x24, 0xca, 0xfc, 0xa4, 0x26, 0xda,
  0xa6, 0xd0, 0x2e, 0x3b, 0x34, 0x15, 0xfa, 0xff, 0xfb, 0x1f, 0x1e, 0x00,
  0x5a, 0xf4, 0x36, 0xf1, 0xb4, 0x2b, 0xbf, 0xfb, 0x67, 0xbf, 0x4a, 0xd3,
  0x21, 0x17, 0xd3, 0xc2, 0xff, 0x03, 0x3f, 0xf3, 0x98, 0xd8, 0xf0, 0xe0,
  0x4b, 0x1e, 0xc4, 0xd4, 0xc9, 0xfa, 0x04, 0xad, 0xde, 0x0b, 0x53, 0xc1,
  0x0b, 0x0f, 0xb7, 0x0f, 0x1f, 0x45, 0x28, 0x47, 0xc1, 0xc5, 0xfe, 0xc8,
  0x15, 0x00, 0xb4, 0x36, 0x3c, 0xb9, 0x54, 0xb0, 0xdd, 0x37, 0xb4, 0x40,
  0xdc, 0xbe, 0x37, 0xde, 0x19, 0x44, 0x1a, 0xe9, 0xd8, 0x37, 0x28, 0xd6,
  0xce, 0x05, 0xbb, 0xff, 0x25, 0x02, 0x4b, 0x3b, 0x0b, 0xe9, 0x2e, 0x42,
  0xf5, 0x26, 0x0c, 0xbe, 0xb5, 0x4f, 0xd2, 0x27, 0x01, 0x2f, 0xbb, 0xcc,
  0xa5, 0xb4, 0x46, 0x8f, 0xe0, 0x2a, 0x54, 0x3c, 0x2a, 0x2e, 0x09, 0x1a,
  0xb5, 0x7d, 0x37, 0x8e, 0x17, 0xe8, 0x59, 0x00, 0xf9, 0x0a, 0x07, 0xfc,
  0x57, 0xd6, 0x33, 0x36, 0xb7, 0xdb, 0xb2, 0x47, 0x3d, 0xdf, 0xd1, 0x07,
  0x36, 0x37, 0x37, 0xf1, 0x35, 0xf9, 0x04, 0xcb, 0x22, 0x40, 0x00, 0xfc,
  0x16, 0x42, 0xc1, 0x1d, 0x30, 0xe0, 0x40, 0x16, 0x3b, 0x41, 0x1a, 0xb5,
  0x7e, 0x36, 0x05, 0xc4, 0xac, 0x31, 0xc5, 0x36, 0x2e, 0x4c, 0xbd, 0xf5,
  0xdb, 0x0f, 0xa2, 0x22, 0x0e, 0x00, 0xf0, 0x30, 0x21, 0xf9, 0x4b, 0x22,
  0x95, 0x54, 0xe7, 0x2c, 0x3e, 0xcf, 0x23, 0xee, 0x48, 0xf0, 0x0f, 0x04,
  0xcd, 0x48, 0xa6, 0x3a, 0x0d, 0x42, 0xcb, 0x1d, 0x6a, 0xa6, 0x1e, 0xfd,
  0x35, 0xaf, 0xea, 0x28, 0x10, 0xcd, 0x31, 0xf2, 0x0e, 0x2f, 0xce, 0xf3,
  0x2e, 0xe9, 0xf4, 0xc8, 0x0d, 0x4a, 0x37, 0x32, 0xf7, 0x09, 0xf7, 0x97,
  0x5e, 0x68, 0x0c, 0x45, 0xbb, 0xdb, 0x33, 0xea, 0xb1, 0x69, 0x41, 0x30,
  0x59, 0x9a, 0xe1, 0x55, 0xf6, 0x26, 0xd0, 0x46, 0x26, 0xcb, 0x67, 0x4a,
  0xea, 0xe6, 0xb1, 0xb1, 0x50, 0x06, 0x2c, 0xae, 0xb4, 0xcc, 0xd6, 0xd5,
  0xc5, 0xac, 0xe9, 0x2a, 0x1d, 0x1e, 0x36, 0xe2, 0x10, 0x2d, 0xac, 0x4b,
  0x1c, 0xf2, 0xbc, 0x33, 0xf6, 0xa8, 0xef, 0x48, 0xfe, 0xbd, 0x5e, 0x6f,
  0xd3, 0xd9, 0x0e, 0x52, 0x3c, 0x3e, 0xb0, 0x26, 0x4b, 0x4b, 0xb0, 0xf8,
  0x45, 0x00, 0xc0, 0x24, 0xda, 0xf4, 0x59, 0x3b, 0xb0, 0x09, 0xdb, 0xff,
  0xce, 0xd2, 0xd7, 0x56, 0xfd, 0x2e, 0x1f, 0xb0, 0x3c, 0x55, 0xee, 0xd5,
  0x0b, 0x43, 0xbe, 0x58, 0x7e, 0xfe, 0xff, 0xff, 0x04, 0x00, 0x00, 0x00,
  0x50, 0x00, 0x00, 0x00, 0x9e, 0xff, 0xff, 0xff, 0x0a, 0x00, 0x00, 0x00,
  0x0d, 0x00, 0x00, 0x00, 0x0d, 0x00, 0x00, 0x00, 0xe0, 0xff, 0xff, 0xff,
  0x1c, 0x00, 0x00, 0x00, 0xde, 0xff, 0xff, 0xff, 0xbc, 0xff, 0xff, 0xff,
  0xef, 0xff, 0xff, 0xff, 0x84, 0x00, 0x00, 0x00, 0xf2, 0xff, 0xff, 0xff,
  0x28, 0x00, 0x00, 0x00, 0x9d, 0x00, 0x00, 0x00, 0xb5, 0xff, 0xff, 0xff,
  0x68, 0x00, 0x00, 0x00, 0x5d, 0x00, 0x00, 0x00, 0x88, 0x00, 0x00, 0x00,
  0xab, 0xff, 0xff, 0xff, 0x39, 0x00, 0x00, 0x00, 0x44, 0x00, 0x00, 0x00,
  0xda, 0xfe, 0xff, 0xff, 0x04, 0x00, 0x00, 0x00, 0x64, 0x00, 0x00, 0x00,
  0x2b, 0xde, 0xbc, 0x39, 0xbf, 0xef, 0x4a, 0xb7, 0x39, 0x0c, 0x04, 0xc0,
  0x96, 0x3f, 0xe4, 0x9f, 0x25, 0xff, 0x32, 0x21, 0x31, 0x63, 0xfc, 0xfa,
  0xa4, 0x61, 0xdd, 0x28, 0x4d, 0x3d, 0xa2, 0xfb, 0x26, 0x53, 0xae, 0xec,
  0xb9, 0x35, 0x38, 0xff, 0xb6, 0xf5, 0xf2, 0xa6, 0xbe, 0x45, 0x47, 0x07,
  0x16, 0x20, 0x5a, 0x0d, 0x53, 0x0e, 0xb3, 0x79, 0x54, 0xb0, 0x09, 0x47,
  0x10, 0x48, 0x87, 0x52, 0xdf, 0xef, 0xc0, 0xcb, 0xdd, 0xba, 0xf1, 0x32,
  0x6d, 0x2e, 0x22, 0x40, 0x3f, 0xb1, 0x8f, 0xbd, 0x3a, 0xb3, 0xb6, 0xfd,
  0x81, 0x1a, 0x16, 0xa4, 0xe3, 0x2f, 0x02, 0x58, 0xe7, 0x11, 0xa3, 0x3c,
  0x8d, 0xfa, 0xc5, 0x09, 0x4a, 0xff, 0xff, 0xff, 0x04, 0x00, 0x00, 0x00,
  0x14, 0x00, 0x00, 0x00, 0x1f, 0x00, 0x00, 0x00, 0x96, 0xff, 0xff, 0xff,
  0xb4, 0x00, 0x00, 0x00, 0x47, 0x00, 0x00, 0x00, 0xcd, 0xfe, 0xff, 0xff,
  0x38, 0xff, 0xff, 0xff, 0x3c, 0xff, 0xff, 0xff, 0x0f, 0x00, 0x00, 0x00,
  0x4d, 0x4c, 0x49, 0x52, 0x20, 0x43, 0x6f, 0x6e, 0x76, 0x65, 0x72, 0x74,
  0x65, 0x64, 0x2e, 0x00, 0x01, 0x00, 0x00, 0x00, 0x14, 0x00, 0x00, 0x00,
  0x00, 0x00, 0x0e, 0x00, 0x18, 0x00, 0x14, 0x00, 0x10, 0x00, 0x0c, 0x00,
  0x08, 0x00, 0x04, 0x00, 0x0e, 0x00, 0x00, 0x00, 0x14, 0x00, 0x00, 0x00,
  0x1c, 0x00, 0x00, 0x00, 0x28, 0x01, 0x00, 0x00, 0x2c, 0x01, 0x00, 0x00,
  0x30, 0x01, 0x00, 0x00, 0x04, 0x00, 0x00, 0x00, 0x6d, 0x61, 0x69, 0x6e,
  0x00, 0x00, 0x00, 0x00, 0x04, 0x00, 0x00, 0x00, 0xd0, 0x00, 0x00, 0x00,
  0x88, 0x00, 0x00, 0x00, 0x50, 0x00, 0x00, 0x00, 0x14, 0x00, 0x00, 0x00,
  0x00, 0x00, 0x0e, 0x00, 0x1a, 0x00, 0x14, 0x00, 0x10, 0x00, 0x0c, 0x00,
  0x0b, 0x00, 0x04, 0x00, 0x0e, 0x00, 0x00, 0x00, 0x1c, 0x00, 0x00, 0x00,
  0x00, 0x00, 0x00, 0x09, 0x1c, 0x00, 0x00, 0x00, 0x20, 0x00, 0x00, 0x00,
  0x01, 0x00, 0x00, 0x00, 0x00, 0x00, 0x06, 0x00, 0x08, 0x00, 0x04, 0x00,
  0x06, 0x00, 0x00, 0x00, 0x00, 0x00, 0x80, 0x3f, 0x01, 0x00, 0x00, 0x00,
  0x0a, 0x00, 0x00, 0x00, 0x01, 0x00, 0x00, 0x00, 0x09, 0x00, 0x00, 0x00,
  0x96, 0xff, 0xff, 0xff, 0x14, 0x00, 0x00, 0x00, 0x00, 0x00, 0x00, 0x08,
  0x10, 0x00, 0x00, 0x00, 0x14, 0x00, 0x00, 0x00, 0x04, 0x00, 0x04, 0x00,
  0x04, 0x00, 0x00, 0x00, 0x01, 0x00, 0x00, 0x00, 0x09, 0x00, 0x00, 0x00,
  0x03, 0x00, 0x00, 0x00, 0x08, 0x00, 0x00, 0x00, 0x02, 0x00, 0x00, 0x00,
  0x01, 0x00, 0x00, 0x00, 0xca, 0xff, 0xff, 0xff, 0x10, 0x00, 0x00, 0x00,
  0x00, 0x00, 0x00, 0x08, 0x10, 0x00, 0x00, 0x00, 0x14, 0x00, 0x00, 0x00,
  0xba, 0xff, 0xff, 0xff, 0x00, 0x00, 0x00, 0x01, 0x01, 0x00, 0x00, 0x00,
  0x08, 0x00, 0x00, 0x00, 0x03, 0x00, 0x00, 0x00, 0x07, 0x00, 0x00, 0x00,
  0x04, 0x00, 0x00, 0x00, 0x03, 0x00, 0x00, 0x00, 0x00, 0x00, 0x0e, 0x00,
  0x16, 0x00, 0x00, 0x00, 0x10, 0x00, 0x0c, 0x00, 0x0b, 0x00, 0x04, 0x00,
  0x0e, 0x00, 0x00, 0x00, 0x18, 0x00, 0x00, 0x00, 0x00, 0x00, 0x00, 0x08,
  0x18, 0x00, 0x00, 0x00, 0x1c, 0x00, 0x00, 0x00, 0x00, 0x00, 0x06, 0x00,
  0x08, 0x00, 0x07, 0x00, 0x06, 0x00, 0x00, 0x00, 0x00, 0x00, 0x00, 0x01,
  0x01, 0x00, 0x00, 0x00, 0x07, 0x00, 0x00, 0x00, 0x03, 0x00, 0x00, 0x00,
  0x00, 0x00, 0x00, 0x00, 0x06, 0x00, 0x00, 0x00, 0x05, 0x00, 0x00, 0x00,
  0x01, 0x00, 0x00, 0x00, 0x0a, 0x00, 0x00, 0x00, 0x01, 0x00, 0x00, 0x00,
  0x00, 0x00, 0x00, 0x00, 0x0b, 0x00, 0x00, 0x00, 0xf8, 0x04, 0x00, 0x00,
  0x68, 0x04, 0x00, 0x00, 0xfc, 0x03, 0x00, 0x00, 0x80, 0x03, 0x00, 0x00,
  0x14, 0x03, 0x00, 0x00, 0xa0, 0x02, 0x00, 0x00, 0x34, 0x02, 0x00, 0x00,
  0x98, 0x01, 0x00, 0x00, 0xf4, 0x00, 0x00, 0x00, 0x70, 0x00, 0x00, 0x00,
  0x04, 0x00, 0x00, 0x00, 0x4a, 0xfb, 0xff, 0xff, 0x00, 0x00, 0x00, 0x01,
  0x14, 0x00, 0x00, 0x00, 0x30, 0x00, 0x00, 0x00, 0x0b, 0x00, 0x00, 0x00,
  0x00, 0x00, 0x00, 0x09, 0x44, 0x00, 0x00, 0x00, 0x34, 0xfb, 0xff, 0xff,
  0x08, 0x00, 0x00, 0x00, 0x10, 0x00, 0x00, 0x00, 0x01, 0x00, 0x00, 0x00,
  0x80, 0xff, 0xff, 0xff, 0xff, 0xff, 0xff, 0xff, 0x01, 0x00, 0x00, 0x00,
  0x00, 0x00, 0x80, 0x3b, 0x19, 0x00, 0x00, 0x00, 0x53, 0x74, 0x61, 0x74,
  0x65, 0x66, 0x75, 0x6c, 0x50, 0x61, 0x72, 0x74, 0x69, 0x74, 0x69, 0x6f,
  0x6e, 0x65, 0x64, 0x43, 0x61, 0x6c, 0x6c, 0x3a, 0x30, 0x00, 0x00, 0x00,
  0x02, 0x00, 0x00, 0x00, 0x01, 0x00, 0x00, 0x00, 0x05, 0x00, 0x00, 0x00,
  0xb2, 0xfb, 0xff, 0xff, 0x00, 0x00, 0x00, 0x01, 0x14, 0x00, 0x00, 0x00,
  0x30, 0x00, 0x00, 0x00, 0x0a, 0x00, 0x00, 0x00, 0x00, 0x00, 0x00, 0x09,
  0x5c, 0x00, 0x00, 0x00, 0x9c, 0xfb, 0xff, 0xff, 0x08, 0x00, 0x00, 0x00,
  0x10, 0x00, 0x00, 0x00, 0x01, 0x00, 0x00, 0x00, 0xe7, 0xff, 0xff, 0xff,
  0xff, 0xff, 0xff, 0xff, 0x01, 0x00, 0x00, 0x00, 0x41, 0x11, 0x89, 0x3d,
  0x32, 0x00, 0x00, 0x00, 0x73, 0x65, 0x71, 0x75, 0x65, 0x6e, 0x74, 0x69,
  0x61, 0x6c, 0x2f, 0x79, 0x5f, 0x70, 0x72, 0x65, 0x64, 0x2f, 0x4d, 0x61,
  0x74, 0x4d, 0x75, 0x6c, 0x3b, 0x73, 0x65, 0x71, 0x75, 0x65, 0x6e, 0x74,
  0x69, 0x61, 0x6c, 0x2f, 0x79, 0x5f, 0x70, 0x72, 0x65, 0x64, 0x2f, 0x42,
  0x69, 0x61, 0x73, 0x41, 0x64, 0x64, 0x00, 0x00, 0x02, 0x00, 0x00, 0x00,
  0x01, 0x00, 0x00, 0x00, 0x05, 0x00, 0x00, 0x00, 0x32, 0xfc, 0xff, 0xff,
  0x00, 0x00, 0x00, 0x01, 0x14, 0x00, 0x00, 0x00, 0x34, 0x00, 0x00, 0x00,
  0x09, 0x00, 0x00, 0x00, 0x00, 0x00, 0x00, 0x09, 0x7c, 0x00, 0x00, 0x00,
  0x1c, 0xfc, 0xff, 0xff, 0x08, 0x00, 0x00, 0x00, 0x14, 0x00, 0x00, 0x00,
  0x01, 0x00, 0x00, 0x00, 0x80, 0xff, 0xff, 0xff, 0xff, 0xff, 0xff, 0xff,
  0x00, 0x00, 0x00, 0x00, 0x01, 0x00, 0x00, 0x00, 0x84, 0x8b, 0x67, 0x3d,
  0x4c, 0x00, 0x00, 0x00, 0x73, 0x65, 0x71, 0x75, 0x65, 0x6e, 0x74, 0x69,
  0x61, 0x6c, 0x2f, 0x64, 0x65, 0x6e, 0x73, 0x65, 0x5f, 0x31, 0x2f, 0x4d,
  0x61, 0x74, 0x4d, 0x75, 0x6c, 0x3b, 0x73, 0x65, 0x71, 0x75, 0x65, 0x6e,
  0x74, 0x69, 0x61, 0x6c, 0x2f, 0x64, 0x65, 0x6e, 0x73, 0x65, 0x5f, 0x31,
  0x2f, 0x52, 0x65, 0x6c, 0x75, 0x3b, 0x73, 0x65, 0x71, 0x75, 0x65, 0x6e,
  0x74, 0x69, 0x61, 0x6c, 0x2f, 0x64, 0x65, 0x6e, 0x73, 0x65, 0x5f, 0x31,
  0x2f, 0x42, 0x69, 0x61, 0x73, 0x41, 0x64, 0x64, 0x00, 0x00, 0x00, 0x00,
  0x02, 0x00, 0x00, 0x00, 0x01, 0x00, 0x00, 0x00, 0x14, 0x00, 0x00, 0x00,
  0xd2, 0xfc, 0xff, 0xff, 0x00, 0x00, 0x00, 0x01, 0x14, 0x00, 0x00, 0x00,
  0x34, 0x00, 0x00, 0x00, 0x08, 0x00, 0x00, 0x00, 0x00, 0x00, 0x00, 0x09,
  0x74, 0x00, 0x00, 0x00, 0xbc, 0xfc, 0xff, 0xff, 0x08, 0x00, 0x00, 0x00,
  0x14, 0x00, 0x00, 0x00, 0x01, 0x00, 0x00, 0x00, 0x80, 0xff, 0xff, 0xff,
  0xff, 0xff, 0xff, 0xff, 0x00, 0x00, 0x00, 0x00, 0x01, 0x00, 0x00, 0x00,
  0x9a, 0x08, 0xdc, 0x3d, 0x46, 0x00, 0x00, 0x00, 0x73, 0x65, 0x71, 0x75,
  0x65, 0x6e, 0x74, 0x69, 0x61, 0x6c, 0x2f, 0x64, 0x65, 0x6e, 0x73, 0x65,
  0x2f, 0x4d, 0x61, 0x74, 0x4d, 0x75, 0x6c, 0x3b, 0x73, 0x65, 0x71, 0x75,
  0x65, 0x6e, 0x74, 0x69, 0x61, 0x6c, 0x2f, 0x64, 0x65, 0x6e, 0x73, 0x65,
  0x2f, 0x52, 0x65, 0x6c, 0x75, 0x3b, 0x73, 0x65, 0x71, 0x75, 0x65, 0x6e,
  0x74, 0x69, 0x61, 0x6c, 0x2f, 0x64, 0x65, 0x6e, 0x73, 0x65, 0x2f, 0x42,
  0x69, 0x61, 0x73, 0x41, 0x64, 0x64, 0x00, 0x00, 0x02, 0x00, 0x00, 0x00,
  0x01, 0x00, 0x00, 0x00, 0x1e, 0x00, 0x00, 0x00, 0x6a, 0xfd, 0xff, 0xff,
  0x00, 0x00, 0x00, 0x01, 0x14, 0x00, 0x00, 0x00, 0x34, 0x00, 0x00, 0x00,
  0x07, 0x00, 0x00, 0x00, 0x00, 0x00, 0x00, 0x09, 0x44, 0x00, 0x00, 0x00,
  0x54, 0xfd, 0xff, 0xff, 0x08, 0x00, 0x00, 0x00, 0x14, 0x00, 0x00, 0x00,
  0x01, 0x00, 0x00, 0x00, 0x00, 0x00, 0x00, 0x00, 0x00, 0x00, 0x00, 0x00,
  0x00, 0x00, 0x00, 0x00, 0x01, 0x00, 0x00, 0x00, 0x2e, 0x79, 0x7d, 0x3b,
  0x17, 0x00, 0x00, 0x00, 0x73, 0x65, 0x71, 0x75, 0x65, 0x6e, 0x74, 0x69,
  0x61, 0x6c, 0x2f, 0x64, 0x65, 0x6e, 0x73, 0x65, 0x2f, 0x4d, 0x61, 0x74,
  0x4d, 0x75, 0x6c, 0x00, 0x02, 0x00, 0x00, 0x00, 0x1e, 0x00, 0x00, 0x00,
  0x4e, 0x00, 0x00, 0x00, 0xd2, 0xfd, 0xff, 0xff, 0x00, 0x00, 0x00, 0x01,
  0x14, 0x00, 0x00, 0x00, 0x30, 0x00, 0x00, 0x00, 0x06, 0x00, 0x00, 0x00,
  0x00, 0x00, 0x00, 0x02, 0x50, 0x00, 0x00, 0x00, 0xbc, 0xfd, 0xff, 0xff,
  0x08, 0x00, 0x00, 0x00, 0x10, 0x00, 0x00, 0x00, 0x01, 0x00, 0x00, 0x00,
  0x00, 0x00, 0x00, 0x00, 0x00, 0x00, 0x00, 0x00, 0x01, 0x00, 0x00, 0x00,
  0xff, 0x58, 0x05, 0x3a, 0x27, 0x00, 0x00, 0x00, 0x73, 0x65, 0x71, 0x75,
  0x65, 0x6e, 0x74, 0x69, 0x61, 0x6c, 0x2f, 0x64, 0x65, 0x6e, 0x73, 0x65,
  0x2f, 0x42, 0x69, 0x61, 0x73, 0x41, 0x64, 0x64, 0x2f, 0x52, 0x65, 0x61,
  0x64, 0x56, 0x61, 0x72, 0x69, 0x61, 0x62, 0x6c, 0x65, 0x4f, 0x70, 0x00,
  0x01, 0x00, 0x00, 0x00, 0x1e, 0x00, 0x00, 0x00, 0x42, 0xfe, 0xff, 0xff,
  0x00, 0x00, 0x00, 0x01, 0x14, 0x00, 0x00, 0x00, 0x30, 0x00, 0x00, 0x00,
  0x05, 0x00, 0x00, 0x00, 0x00, 0x00, 0x00, 0x09, 0x44, 0x00, 0x00, 0x00,
  0x2c, 0xfe, 0xff, 0xff, 0x08, 0x00, 0x00, 0x00, 0x10, 0x00, 0x00, 0x00,
  0x01, 0x00, 0x00, 0x00, 0x00, 0x00, 0x00, 0x00, 0x00, 0x00, 0x00, 0x00,
  0x01, 0x00, 0x00, 0x00, 0x1d, 0xf4, 0x7e, 0x3b, 0x19, 0x00, 0x00, 0x00,
  0x73, 0x65, 0x71, 0x75, 0x65, 0x6e, 0x74, 0x69, 0x61, 0x6c, 0x2f, 0x64,
  0x65, 0x6e, 0x73, 0x65, 0x5f, 0x31, 0x2f, 0x4d, 0x61, 0x74, 0x4d, 0x75,
  0x6c, 0x00, 0x00, 0x00, 0x02, 0x00, 0x00, 0x00, 0x14, 0x00, 0x00, 0x00,
  0x1e, 0x00, 0x00, 0x00, 0xaa, 0xfe, 0xff, 0xff, 0x00, 0x00, 0x00, 0x01,
  0x14, 0x00, 0x00, 0x00, 0x34, 0x00, 0x00, 0x00, 0x04, 0x00, 0x00, 0x00,
  0x00, 0x00, 0x00, 0x02, 0x58, 0x00, 0x00, 0x00, 0x94, 0xfe, 0xff, 0xff,
  0x08, 0x00, 0x00, 0x00, 0x14, 0x00, 0x00, 0x00, 0x01, 0x00, 0x00, 0x00,
  0x00, 0x00, 0x00, 0x00, 0x00, 0x00, 0x00, 0x00, 0x00, 0x00, 0x00, 0x00,
  0x01, 0x00, 0x00, 0x00, 0x5a, 0x22, 0xdb, 0x39, 0x29, 0x00, 0x00, 0x00,
  0x73, 0x65, 0x71, 0x75, 0x65, 0x6e, 0x74, 0x69, 0x61, 0x6c, 0x2f, 0x64,
  0x65, 0x6e, 0x73, 0x65, 0x5f, 0x31, 0x2f, 0x42, 0x69, 0x61, 0x73, 0x41,
  0x64, 0x64, 0x2f, 0x52, 0x65, 0x61, 0x64, 0x56, 0x61, 0x72, 0x69, 0x61,
  0x62, 0x6c, 0x65, 0x4f, 0x70, 0x00, 0x00, 0x00, 0x01, 0x00, 0x00, 0x00,
  0x14, 0x00, 0x00, 0x00, 0x22, 0xff, 0xff, 0xff, 0x00, 0x00, 0x00, 0x01,
  0x14, 0x00, 0x00, 0x00, 0x30, 0x00, 0x00, 0x00, 0x03, 0x00, 0x00, 0x00,
  0x00, 0x00, 0x00, 0x09, 0x44, 0x00, 0x00, 0x00, 0x0c, 0xff, 0xff, 0xff,
  0x08, 0x00, 0x00, 0x00, 0x10, 0x00, 0x00, 0x00, 0x01, 0x00, 0x00, 0x00,
  0x00, 0x00, 0x00, 0x00, 0x00, 0x00, 0x00, 0x00, 0x01, 0x00, 0x00, 0x00,
  0xdd, 0x0f, 0xab, 0x3b, 0x18, 0x00, 0x00, 0x00, 0x73, 0x65, 0x71, 0x75,
  0x65, 0x6e, 0x74, 0x69, 0x61, 0x6c, 0x2f, 0x79, 0x5f, 0x70, 0x72, 0x65,
  0x64, 0x2f, 0x4d, 0x61, 0x74, 0x4d, 0x75, 0x6c, 0x00, 0x00, 0x00, 0x00,
  0x02, 0x00, 0x00, 0x00, 0x05, 0x00, 0x00, 0x00, 0x14, 0x00, 0x00, 0x00,
  0x8a, 0xff, 0xff, 0xff, 0x00, 0x00, 0x00, 0x01, 0x14, 0x00, 0x00, 0x00,
  0x30, 0x00, 0x00, 0x00, 0x02, 0x00, 0x00, 0x00, 0x00, 0x00, 0x00, 0x02,
  0x54, 0x00, 0x00, 0x00, 0x74, 0xff, 0xff, 0xff, 0x08, 0x00, 0x00, 0x00,
  0x10, 0x00, 0x00, 0x00, 0x01, 0x00, 0x00, 0x00, 0x00, 0x00, 0x00, 0x00,
  0x00, 0x00, 0x00, 0x00, 0x01, 0x00, 0x00, 0x00, 0x8a, 0xb8, 0x9a, 0x39,
  0x28, 0x00, 0x00, 0x00, 0x73, 0x65, 0x71, 0x75, 0x65, 0x6e, 0x74, 0x69,
  0x61, 0x6c, 0x2f, 0x79, 0x5f, 0x70, 0x72, 0x65, 0x64, 0x2f, 0x42, 0x69,
  0x61, 0x73, 0x41, 0x64, 0x64, 0x2f, 0x52, 0x65, 0x61, 0x64, 0x56, 0x61,
  0x72, 0x69, 0x61, 0x62, 0x6c, 0x65, 0x4f, 0x70, 0x00, 0x00, 0x00, 0x00,
  0x01, 0x00, 0x00, 0x00, 0x05, 0x00, 0x00, 0x00, 0x00, 0x00, 0x16, 0x00,
  0x1c, 0x00, 0x18, 0x00, 0x17, 0x00, 0x10, 0x00, 0x0c, 0x00, 0x08, 0x00,
  0x00, 0x00, 0x00, 0x00, 0x00, 0x00, 0x07, 0x00, 0x16, 0x00, 0x00, 0x00,
  0x00, 0x00, 0x00, 0x01, 0x20, 0x00, 0x00, 0x00, 0x40, 0x00, 0x00, 0x00,
  0x01, 0x00, 0x00, 0x00, 0x00, 0x00, 0x00, 0x09, 0x4c, 0x00, 0x00, 0x00,
  0x0c, 0x00, 0x0c, 0x00, 0x00, 0x00, 0x00, 0x00, 0x08, 0x00, 0x04, 0x00,
  0x0c, 0x00, 0x00, 0x00, 0x08, 0x00, 0x00, 0x00, 0x14, 0x00, 0x00, 0x00,
  0x01, 0x00, 0x00, 0x00, 0xb9, 0xff, 0xff, 0xff, 0xff, 0xff, 0xff, 0xff,
  0x00, 0x00, 0x00, 0x00, 0x01, 0x00, 0x00, 0x00, 0x47, 0xad, 0x06, 0x3e,
  0x13, 0x00, 0x00, 0x00, 0x73, 0x65, 0x72, 0x76, 0x69, 0x6e, 0x67, 0x5f,
  0x64, 0x65, 0x66, 0x61, 0x75, 0x6c, 0x74, 0x5f, 0x78, 0x3a, 0x30, 0x00,
  0x02, 0x00, 0x00, 0x00, 0x01, 0x00, 0x00, 0x00, 0x4e, 0x00, 0x00, 0x00,
  0x02, 0x00, 0x00, 0x00, 0x24, 0x00, 0x00, 0x00, 0x04, 0x00, 0x00, 0x00,
  0xf0, 0xff, 0xff, 0xff, 0x19, 0x00, 0x00, 0x00, 0x02, 0x00, 0x00, 0x00,
  0x00, 0x00, 0x00, 0x19, 0x0c, 0x00, 0x10, 0x00, 0x0f, 0x00, 0x00, 0x00,
  0x08, 0x00, 0x04, 0x00, 0x0c, 0x00, 0x00, 0x00, 0x09, 0x00, 0x00, 0x00,
  0x04, 0x00, 0x00, 0x00, 0x00, 0x00, 0x00, 0x09
};
unsigned int tflite_learn_5_len = 5624;
#endif // _EI_CLASSIFIER_TFLITE_LEARN_5_H_
