/*
 * Copyright (c) 2024 EdgeImpulse Inc.
 *
 * Generated by Edge Impulse and licensed under the applicable Edge Impulse
 * Terms of Service. Community and Professional Terms of Service
 * (https://docs.edgeimpulse.com/page/terms-of-service) or Enterprise Terms of
 * Service (https://docs.edgeimpulse.com/page/enterprise-terms-of-service),
 * according to your product plan subscription (the “License”).
 *
 * This software, documentation and other associated files (collectively referred
 * to as the “Software”) is a single SDK variation generated by the Edge Impulse
 * platform and requires an active paid Edge Impulse subscription to use this
 * Software for any purpose.
 *
 * You may NOT use this Software unless you have an active Edge Impulse subscription
 * that meets the eligibility requirements for the applicable License, subject to
 * your full and continued compliance with the terms and conditions of the License,
 * including without limitation any usage restrictions under the applicable License.
 *
 * If you do not have an active Edge Impulse product plan subscription, or if use
 * of this Software exceeds the usage limitations of your Edge Impulse product plan
 * subscription, you are not permitted to use this Software and must immediately
 * delete and erase all copies of this Software within your control or possession.
 * Edge Impulse reserves all rights and remedies available to enforce its rights.
 *
 * Unless required by applicable law or agreed to in writing, the Software is
 * distributed on an "AS IS" BASIS, WITHOUT WARRANTIES OR CONDITIONS OF ANY KIND,
 * either express or implied. See the License for the specific language governing
 * permissions, disclaimers and limitations under the License.
 */

#ifndef _EI_CLASSIFIER_TFLITE_LEARN_5_H_
#define _EI_CLASSIFIER_TFLITE_LEARN_5_H_

#define EI_CLASSIFIER_TFLITE_LEARN_5_ARENA_SIZE     3020
const size_t tflite_learn_5_arena_size = 3020;

#ifdef EI_CLASSIFIER_TFLITE_ARENA_SIZE
#if EI_CLASSIFIER_TFLITE_ARENA_SIZE < EI_CLASSIFIER_TFLITE_LEARN_5_ARENA_SIZE
#undef EI_CLASSIFIER_TFLITE_ARENA_SIZE
#define EI_CLASSIFIER_TFLITE_ARENA_SIZE EI_CLASSIFIER_TFLITE_LEARN_5_ARENA_SIZE
#endif // #if EI_CLASSIFIER_TFLITE_ARENA_SIZE < EI_CLASSIFIER_TFLITE_LEARN_5_ARENA_SIZE
#else
#define EI_CLASSIFIER_TFLITE_ARENA_SIZE EI_CLASSIFIER_TFLITE_LEARN_5_ARENA_SIZE
#endif // #ifdef EI_CLASSIFIER_TFLITE_ARENA_SIZE

#if defined __GNUC__
#define ALIGN(X) __attribute__((aligned(X)))
#elif defined _MSC_VER
#define ALIGN(X) __declspec(align(X))
#elif defined __TASKING__
#define ALIGN(X) __align(X)
#else
#define ALIGN(X)
#endif

ALIGN(16) const unsigned char tflite_learn_5[] = {
  0x1c, 0x00, 0x00, 0x00, 0x54, 0x46, 0x4c, 0x33, 0x14, 0x00, 0x20, 0x00,
  0x1c, 0x00, 0x18, 0x00, 0x14, 0x00, 0x10, 0x00, 0x0c, 0x00, 0x00, 0x00,
  0x08, 0x00, 0x04, 0x00, 0x14, 0x00, 0x00, 0x00, 0x1c, 0x00, 0x00, 0x00,
  0x8c, 0x00, 0x00, 0x00, 0xe4, 0x00, 0x00, 0x00, 0xb8, 0x0e, 0x00, 0x00,
  0xc8, 0x0e, 0x00, 0x00, 0x8c, 0x15, 0x00, 0x00, 0x03, 0x00, 0x00, 0x00,
  0x01, 0x00, 0x00, 0x00, 0x10, 0x00, 0x00, 0x00, 0x00, 0x00, 0x0a, 0x00,
  0x10, 0x00, 0x0c, 0x00, 0x08, 0x00, 0x04, 0x00, 0x0a, 0x00, 0x00, 0x00,
  0x0c, 0x00, 0x00, 0x00, 0x1c, 0x00, 0x00, 0x00, 0x3c, 0x00, 0x00, 0x00,
  0x0f, 0x00, 0x00, 0x00, 0x73, 0x65, 0x72, 0x76, 0x69, 0x6e, 0x67, 0x5f,
  0x64, 0x65, 0x66, 0x61, 0x75, 0x6c, 0x74, 0x00, 0x01, 0x00, 0x00, 0x00,
  0x04, 0x00, 0x00, 0x00, 0x9c, 0xff, 0xff, 0xff, 0x0a, 0x00, 0x00, 0x00,
  0x04, 0x00, 0x00, 0x00, 0x08, 0x00, 0x00, 0x00, 0x6f, 0x75, 0x74, 0x70,
  0x75, 0x74, 0x5f, 0x30, 0x00, 0x00, 0x00, 0x00, 0x01, 0x00, 0x00, 0x00,
  0x04, 0x00, 0x00, 0x00, 0x2e, 0xf1, 0xff, 0xff, 0x04, 0x00, 0x00, 0x00,
  0x01, 0x00, 0x00, 0x00, 0x78, 0x00, 0x00, 0x00, 0x02, 0x00, 0x00, 0x00,
  0x34, 0x00, 0x00, 0x00, 0x04, 0x00, 0x00, 0x00, 0xdc, 0xff, 0xff, 0xff,
  0x0d, 0x00, 0x00, 0x00, 0x04, 0x00, 0x00, 0x00, 0x13, 0x00, 0x00, 0x00,
  0x43, 0x4f, 0x4e, 0x56, 0x45, 0x52, 0x53, 0x49, 0x4f, 0x4e, 0x5f, 0x4d,
  0x45, 0x54, 0x41, 0x44, 0x41, 0x54, 0x41, 0x00, 0x08, 0x00, 0x0c, 0x00,
  0x08, 0x00, 0x04, 0x00, 0x08, 0x00, 0x00, 0x00, 0x0c, 0x00, 0x00, 0x00,
  0x04, 0x00, 0x00, 0x00, 0x13, 0x00, 0x00, 0x00, 0x6d, 0x69, 0x6e, 0x5f,
  0x72, 0x75, 0x6e, 0x74, 0x69, 0x6d, 0x65, 0x5f, 0x76, 0x65, 0x72, 0x73,
  0x69, 0x6f, 0x6e, 0x00, 0x0e, 0x00, 0x00, 0x00, 0xd0, 0x0d, 0x00, 0x00,
  0xc8, 0x0d, 0x00, 0x00, 0xa4, 0x0d, 0x00, 0x00, 0x30, 0x0d, 0x00, 0x00,
  0xd0, 0x0c, 0x00, 0x00, 0x68, 0x0a, 0x00, 0x00, 0xe0, 0x09, 0x00, 0x00,
  0xac, 0x00, 0x00, 0x00, 0xa4, 0x00, 0x00, 0x00, 0x9c, 0x00, 0x00, 0x00,
  0x94, 0x00, 0x00, 0x00, 0x8c, 0x00, 0x00, 0x00, 0x6c, 0x00, 0x00, 0x00,
  0x04, 0x00, 0x00, 0x00, 0xd6, 0xf1, 0xff, 0xff, 0x04, 0x00, 0x00, 0x00,
  0x58, 0x00, 0x00, 0x00, 0x0c, 0x00, 0x00, 0x00, 0x08, 0x00, 0x0e, 0x00,
  0x08, 0x00, 0x04, 0x00, 0x08, 0x00, 0x00, 0x00, 0x10, 0x00, 0x00, 0x00,
  0x28, 0x00, 0x00, 0x00, 0x00, 0x00, 0x06, 0x00, 0x08, 0x00, 0x04, 0x00,
  0x06, 0x00, 0x00, 0x00, 0x04, 0x00, 0x00, 0x00, 0x01, 0x00, 0x00, 0x00,
  0xeb, 0x03, 0x00, 0x00, 0x00, 0x00, 0x0a, 0x00, 0x10, 0x00, 0x0c, 0x00,
  0x08, 0x00, 0x04, 0x00, 0x0a, 0x00, 0x00, 0x00, 0x03, 0x00, 0x00, 0x00,
  0x02, 0x00, 0x00, 0x00, 0x04, 0x00, 0x00, 0x00, 0x06, 0x00, 0x00, 0x00,
  0x32, 0x2e, 0x31, 0x31, 0x2e, 0x31, 0x00, 0x00, 0x3a, 0xf2, 0xff, 0xff,
  0x04, 0x00, 0x00, 0x00, 0x10, 0x00, 0x00, 0x00, 0x31, 0x2e, 0x31, 0x34,
  0x2e, 0x30, 0x00, 0x00, 0x00, 0x00, 0x00, 0x00, 0x00, 0x00, 0x00, 0x00,
  0x24, 0xf2, 0xff, 0xff, 0x28, 0xf2, 0xff, 0xff, 0x2c, 0xf2, 0xff, 0xff,
  0x30, 0xf2, 0xff, 0xff, 0x66, 0xf2, 0xff, 0xff, 0x04, 0x00, 0x00, 0x00,
  0x24, 0x09, 0x00, 0x00, 0xf3, 0x0f, 0x2d, 0xe6, 0x22, 0x0c, 0xdd, 0xba,
  0xba, 0xa3, 0x0c, 0xc5, 0xc3, 0x0e, 0x0a, 0xec, 0xdc, 0x0f, 0xcb, 0x13,
  0x32, 0xd5, 0xc5, 0x38, 0xc5, 0xdf, 0xbe, 0xfd, 0xff, 0xe6, 0x1d, 0xfd,
  0xc4, 0x0e, 0x8e, 0xd5, 0xa8, 0x1d, 0x1f, 0xe0, 0x15, 0x11, 0xf9, 0x31,
  0xe8, 0xfc, 0xe2, 0x19, 0xca, 0xdd, 0xe0, 0xff, 0xf6, 0x27, 0xf4, 0x15,
  0x0a, 0x18, 0x05, 0xec, 0x09, 0x35, 0x33, 0xfc, 0x3f, 0xf0, 0x45, 0x1b,
  0x0c, 0x22, 0xcd, 0xf6, 0xd0, 0xf4, 0xfc, 0x04, 0xd9, 0xfe, 0xc9, 0x07,
  0x10, 0xd7, 0x23, 0xc9, 0x4a, 0x27, 0x05, 0x65, 0xd5, 0xfa, 0x32, 0x0e,
  0x01, 0x30, 0x13, 0x01, 0x49, 0x36, 0xe6, 0x12, 0x5b, 0x12, 0xc3, 0xfb,
  0xee, 0x14, 0x15, 0x03, 0xea, 0x06, 0xe6, 0xe7, 0x1d, 0x2e, 0x0a, 0x11,
  0x11, 0x16, 0xeb, 0x03, 0xf5, 0x21, 0x33, 0xf8, 0xf5, 0xd7, 0x2c, 0xe8,
  0x29, 0x07, 0xf4, 0xfa, 0xc2, 0xcf, 0x0b, 0xd0, 0xc7, 0xf3, 0x0c, 0xcc,
  0xfd, 0x01, 0xdc, 0x1c, 0xab, 0x0e, 0xff, 0x21, 0x1e, 0x02, 0xf6, 0xd2,
  0xc7, 0x02, 0xe5, 0xd2, 0x33, 0xe1, 0xcd, 0x37, 0x1e, 0xd0, 0x1a, 0xfe,
  0xcb, 0xe8, 0x00, 0xe5, 0xef, 0xfb, 0xd1, 0xcc, 0x13, 0xfb, 0xfa, 0x1e,
  0xfa, 0x23, 0xdf, 0x13, 0xc6, 0xd2, 0xbb, 0x07, 0xfd, 0xe5, 0x03, 0x3f,
  0x10, 0x43, 0x02, 0xb9, 0x04, 0xab, 0xf1, 0xcd, 0x16, 0xee, 0x24, 0x0c,
  0x01, 0x00, 0xe5, 0xfe, 0xf3, 0x0a, 0xbd, 0xd4, 0xec, 0xef, 0xea, 0x3d,
  0x15, 0x1c, 0x07, 0x0b, 0xd2, 0x27, 0xe4, 0xd5, 0x11, 0xfb, 0x1d, 0xc4,
  0xf4, 0x1d, 0xd8, 0xfa, 0x0a, 0xf7, 0x0d, 0xeb, 0xc8, 0xff, 0xd0, 0xb3,
  0x24, 0x31, 0x20, 0x39, 0xb1, 0xfa, 0x1d, 0x2d, 0x14, 0xdd, 0x23, 0xe8,
  0x1e, 0x0d, 0x20, 0xcf, 0x2a, 0x01, 0xe0, 0xb0, 0xd1, 0xf5, 0x33, 0x0f,
  0x38, 0x28, 0xef, 0xde, 0xcf, 0xd0, 0x0e, 0x0a, 0xc6, 0xc4, 0x02, 0xfe,
  0xcc, 0x35, 0x32, 0xe4, 0x18, 0x1c, 0x10, 0x22, 0xbe, 0xba, 0xd7, 0xf9,
  0x19, 0xec, 0x17, 0xc2, 0x11, 0xeb, 0xf3, 0x08, 0xdf, 0xeb, 0x13, 0x0f,
  0x0a, 0xcb, 0xde, 0x3f, 0x1a, 0x0a, 0x1d, 0xc5, 0xfc, 0xf6, 0xf5, 0x19,
  0x07, 0xec, 0x11, 0x1e, 0x18, 0xbe, 0xdd, 0xff, 0x25, 0xfe, 0xed, 0x04,
  0xd5, 0x1d, 0x0f, 0xaf, 0xf7, 0xe1, 0x3b, 0xf6, 0xee, 0xe7, 0x43, 0x3e,
  0x37, 0xef, 0xd6, 0x22, 0x03, 0x2b, 0x24, 0xd7, 0xd5, 0x28, 0xd2, 0xd9,
  0xe9, 0xd1, 0xe4, 0x02, 0x0d, 0x0e, 0x44, 0x41, 0xdb, 0x11, 0x1c, 0xe9,
  0xe2, 0x1f, 0xe0, 0xf0, 0x13, 0xf4, 0x27, 0xf1, 0xee, 0xeb, 0xcb, 0xdb,
  0x1d, 0xd3, 0xd4, 0xc0, 0xe2, 0x15, 0x29, 0xd2, 0x11, 0x34, 0x13, 0xb5,
  0x12, 0x29, 0xea, 0x26, 0xcd, 0xe0, 0xf0, 0x2e, 0x19, 0x28, 0x0c, 0x57,
  0xf7, 0xea, 0xfb, 0xf5, 0x41, 0x0b, 0xbb, 0xe8, 0xec, 0xeb, 0xd4, 0x32,
  0xd3, 0xa3, 0x38, 0x0a, 0xcd, 0xd8, 0xf0, 0x06, 0xee, 0xe3, 0x23, 0xad,
  0x3a, 0x38, 0xfd, 0xe3, 0xbd, 0xd6, 0xf1, 0x2f, 0x1f, 0x35, 0x19, 0xc8,
  0xf2, 0xd3, 0xf4, 0x03, 0x06, 0x2e, 0xd9, 0xc5, 0x0e, 0xcb, 0x16, 0x0c,
  0xbc, 0xc7, 0x2a, 0xf4, 0x06, 0x1c, 0xfe, 0x09, 0xeb, 0x16, 0xf2, 0x18,
  0x0f, 0x1a, 0xdf, 0x21, 0x02, 0x13, 0x48, 0x0b, 0xeb, 0xf8, 0x0a, 0xc8,
  0xe3, 0xab, 0x02, 0xc0, 0x15, 0xf3, 0xc9, 0x25, 0xe5, 0xfe, 0x26, 0xde,
  0xf7, 0x15, 0xd8, 0xd3, 0x2a, 0xe2, 0x1d, 0x22, 0xf2, 0x10, 0xd9, 0xe1,
  0x21, 0xe0, 0xe1, 0xd6, 0x9d, 0xb7, 0x29, 0xed, 0x00, 0x30, 0xe9, 0x12,
  0xef, 0xd3, 0xfb, 0xe4, 0xf4, 0xb3, 0x16, 0x10, 0xd6, 0x4c, 0xf0, 0xe9,
  0xc9, 0xda, 0xca, 0xbc, 0xdc, 0x26, 0x1c, 0xda, 0x28, 0x0d, 0x26, 0xc6,
  0xf6, 0x30, 0x28, 0x40, 0xe2, 0x3d, 0x3b, 0x16, 0xf2, 0xd3, 0x2c, 0x07,
  0xff, 0x08, 0xe2, 0x0c, 0xd6, 0xda, 0x07, 0x13, 0x12, 0x14, 0x2b, 0x15,
  0x33, 0x29, 0xf9, 0x11, 0x3d, 0xf6, 0xe8, 0x13, 0xd1, 0xe6, 0xc9, 0xdf,
  0xd5, 0xf3, 0x06, 0xdd, 0xf2, 0xfa, 0xf0, 0xce, 0xba, 0xfc, 0xe0, 0xa5,
  0xf0, 0xd6, 0x3a, 0x13, 0x19, 0x00, 0xe0, 0x1b, 0xec, 0x27, 0xe9, 0xcb,
  0x22, 0xf3, 0x12, 0xd7, 0xcc, 0xec, 0x07, 0xf9, 0x35, 0x26, 0xef, 0x2c,
  0x02, 0xd5, 0xef, 0xb8, 0x81, 0xd8, 0x15, 0x37, 0x19, 0x0a, 0xee, 0x2b,
  0xe0, 0x24, 0xea, 0xef, 0x4c, 0x23, 0xfb, 0xb6, 0xee, 0xce, 0x26, 0xba,
  0xc3, 0x23, 0x28, 0x0f, 0x2c, 0xdb, 0xe0, 0x27, 0x04, 0x00, 0xda, 0xbd,
  0x0d, 0xc4, 0x13, 0x02, 0x3b, 0x1c, 0x40, 0xe1, 0x30, 0xdc, 0xcb, 0xca,
  0x2a, 0xdd, 0xf3, 0x5c, 0x08, 0x08, 0x22, 0xbe, 0xe8, 0x24, 0x0f, 0x1a,
  0xf0, 0xe5, 0xa9, 0x21, 0x4b, 0x1f, 0x67, 0x05, 0x2b, 0xdf, 0xe9, 0x1b,
  0x11, 0xc3, 0xdb, 0x17, 0xff, 0xe4, 0xd3, 0x43, 0xf8, 0xec, 0xec, 0x30,
  0x24, 0xfb, 0x14, 0xec, 0xf5, 0x26, 0xfb, 0xd6, 0x2b, 0x34, 0xfb, 0x91,
  0xf4, 0x09, 0x20, 0xe7, 0xfe, 0x18, 0x26, 0xe3, 0x3a, 0xdd, 0xc4, 0x3e,
  0xd2, 0xf8, 0xc0, 0xf9, 0xd3, 0xcd, 0xbc, 0xd4, 0x12, 0xde, 0x1d, 0x0f,
  0x0c, 0x42, 0x34, 0x08, 0xf7, 0x00, 0xf7, 0x16, 0x04, 0x15, 0x17, 0x0d,
  0xf4, 0xce, 0x02, 0x09, 0xca, 0xcf, 0x31, 0x01, 0x09, 0xcd, 0xd6, 0xdf,
  0x06, 0xc5, 0x9e, 0x1d, 0x33, 0xef, 0xc8, 0xd5, 0x10, 0xc9, 0x27, 0xfd,
  0xdd, 0xd1, 0xbd, 0xe6, 0x3b, 0xe9, 0xc1, 0x12, 0xf1, 0x16, 0x2e, 0x14,
  0x10, 0x1e, 0x14, 0xbf, 0x20, 0xd0, 0xd7, 0xff, 0xef, 0xd8, 0x14, 0x24,
  0xd8, 0xcd, 0x34, 0x16, 0x23, 0xe8, 0xd2, 0x10, 0x24, 0x00, 0x26, 0x0f,
  0x08, 0xfa, 0xbb, 0x1a, 0x0c, 0x35, 0x21, 0x1e, 0x1b, 0xcd, 0x1b, 0xd7,
  0xcd, 0x3c, 0x07, 0x0f, 0xca, 0xe2, 0x03, 0xfd, 0x02, 0xd6, 0x28, 0x38,
  0x08, 0xdc, 0xd7, 0xef, 0x1e, 0x16, 0xc4, 0x1d, 0xed, 0xee, 0x27, 0xe1,
  0xde, 0x31, 0x0a, 0xcd, 0xf7, 0xfe, 0x37, 0x0b, 0x09, 0x0a, 0xc4, 0x0d,
  0xf0, 0xcf, 0x09, 0xd3, 0xff, 0xe3, 0xdf, 0xce, 0xe6, 0xbc, 0x24, 0xc8,
  0x13, 0xea, 0xea, 0x02, 0x2c, 0x2b, 0xf1, 0x05, 0xbf, 0xe5, 0x03, 0x50,
  0xea, 0x10, 0x29, 0x26, 0x24, 0x33, 0x3c, 0x0b, 0x20, 0xfa, 0x16, 0xf4,
  0xe6, 0xf9, 0x0a, 0xe7, 0x0f, 0xd2, 0xfa, 0x2c, 0xe4, 0xde, 0xc0, 0xff,
  0x06, 0xec, 0x35, 0x24, 0x0c, 0xda, 0xba, 0xc1, 0x0b, 0xcd, 0x09, 0xb6,
  0xd5, 0xb3, 0x3a, 0x05, 0x00, 0x12, 0x16, 0x09, 0xeb, 0xda, 0xd8, 0xf7,
  0x05, 0xdc, 0x0f, 0x03, 0x2d, 0x0b, 0xf8, 0xef, 0x22, 0xff, 0x21, 0x39,
  0xe1, 0x28, 0x28, 0xfa, 0x1f, 0x5a, 0x34, 0xf8, 0x03, 0xde, 0x01, 0xec,
  0x0e, 0x0b, 0xc4, 0x07, 0x03, 0xcc, 0xce, 0xf3, 0xee, 0x4e, 0x64, 0x43,
  0x18, 0x03, 0x36, 0x36, 0x36, 0x36, 0x2a, 0xbf, 0x09, 0x0d, 0xd4, 0xcf,
  0xe7, 0x3f, 0x5a, 0xc9, 0x22, 0x02, 0xd7, 0x22, 0xfe, 0x09, 0xee, 0xed,
  0x09, 0x3d, 0x1b, 0x16, 0xd2, 0xd4, 0xf4, 0xe1, 0xd5, 0x12, 0x3c, 0x39,
  0x30, 0xf3, 0x39, 0xe8, 0x27, 0xe9, 0xb6, 0x0f, 0xd0, 0x1b, 0x0b, 0x02,
  0x26, 0xf3, 0xe9, 0x11, 0xe1, 0x07, 0x01, 0x21, 0x09, 0x0f, 0xa9, 0xbb,
  0x1d, 0x20, 0xcf, 0x2d, 0x2e, 0xe6, 0xf8, 0xd0, 0xd0, 0x10, 0xfd, 0xbf,
  0xed, 0x1a, 0xd9, 0xf9, 0xec, 0x03, 0x2c, 0x08, 0xc9, 0xea, 0xd6, 0xf3,
  0xbd, 0x00, 0xef, 0xe2, 0x6b, 0x46, 0x47, 0x4e, 0xe3, 0x3b, 0x35, 0x40,
  0x04, 0x1f, 0x21, 0x46, 0xdc, 0xf5, 0x3b, 0xe4, 0x04, 0xe4, 0x64, 0x0e,
  0x47, 0x20, 0x14, 0x1e, 0xdb, 0xdb, 0x33, 0xe6, 0x2a, 0xd3, 0x23, 0x23,
  0xf9, 0x46, 0x21, 0x1b, 0x19, 0xf0, 0x28, 0xf4, 0x23, 0xdf, 0xf7, 0xd3,
  0x1a, 0xe8, 0xee, 0x2a, 0x16, 0xec, 0x05, 0xd3, 0x12, 0xee, 0xe2, 0xd1,
  0xbb, 0x15, 0xdc, 0xdb, 0x2d, 0xd9, 0x07, 0xc6, 0xe1, 0xc3, 0x06, 0xe9,
  0xe4, 0x03, 0x03, 0x37, 0x1b, 0x04, 0x27, 0xda, 0xc4, 0x0a, 0xdc, 0xe1,
  0x43, 0x53, 0x32, 0xff, 0xcb, 0x2e, 0xe7, 0x2b, 0x9c, 0x26, 0x23, 0x1f,
  0xc9, 0x29, 0x16, 0xfb, 0x02, 0x44, 0xfb, 0x42, 0x19, 0x44, 0x1f, 0x19,
  0x2e, 0xd6, 0x22, 0x08, 0x32, 0x2a, 0x24, 0xfc, 0xf4, 0x0c, 0x2b, 0xcd,
  0xfd, 0x01, 0xe8, 0xdc, 0xe3, 0x0e, 0x20, 0xfe, 0x32, 0xd8, 0x33, 0xf6,
  0xdb, 0x36, 0xe4, 0xe8, 0xda, 0xdd, 0xfd, 0xf8, 0xcd, 0xec, 0xe8, 0x2f,
  0xe8, 0xc4, 0x03, 0xd4, 0x03, 0xc6, 0xbc, 0x20, 0x06, 0x00, 0xe9, 0xd8,
  0x2e, 0x00, 0x0d, 0x1c, 0xfb, 0x43, 0x34, 0x2b, 0x1b, 0xea, 0xfc, 0x1f,
  0x2e, 0x19, 0x09, 0x12, 0xea, 0xde, 0xb3, 0x20, 0xda, 0xef, 0x1b, 0x15,
  0x16, 0x09, 0xf4, 0x01, 0xd9, 0xfc, 0x10, 0x35, 0x2c, 0xe5, 0x33, 0xde,
  0x37, 0xf7, 0x15, 0xbc, 0xd4, 0x25, 0x42, 0x16, 0x09, 0xee, 0xfa, 0xe0,
  0x22, 0xfd, 0xde, 0xec, 0x1d, 0x1f, 0x1f, 0x02, 0xe7, 0xde, 0x32, 0xfa,
  0xd3, 0x1a, 0x20, 0x19, 0xf5, 0xdc, 0x06, 0xce, 0xed, 0xc7, 0xae, 0xd5,
  0xf6, 0x0a, 0x00, 0xd6, 0x16, 0x07, 0xdd, 0x1a, 0x2d, 0x51, 0x5e, 0x27,
  0x37, 0x17, 0xf2, 0x55, 0x18, 0xf1, 0x18, 0x06, 0xe5, 0xf5, 0xc8, 0xd8,
  0xed, 0xcf, 0xcb, 0x24, 0x15, 0x31, 0x12, 0x0f, 0xf7, 0x02, 0xf8, 0xf7,
  0xf8, 0xd1, 0x1d, 0x16, 0xd4, 0x1a, 0x2b, 0x2b, 0xf2, 0x24, 0x3f, 0x12,
  0x03, 0x18, 0xd3, 0xd4, 0xf6, 0xe9, 0x06, 0xc8, 0x09, 0xe1, 0x02, 0xe2,
  0xfc, 0x29, 0x27, 0xdf, 0xe8, 0xf5, 0xfa, 0xc0, 0xce, 0x20, 0xf1, 0xfc,
  0x28, 0x0e, 0xf8, 0xe0, 0xe2, 0x14, 0xee, 0xea, 0xfa, 0xf4, 0x41, 0x3a,
  0xde, 0x0f, 0xfc, 0x19, 0x2a, 0x04, 0x06, 0x0f, 0x0c, 0xf2, 0x41, 0x44,
  0xe8, 0xfe, 0x23, 0x23, 0xe1, 0xb8, 0xce, 0xd0, 0xaf, 0x08, 0x21, 0xef,
  0xeb, 0xe5, 0x37, 0xfb, 0x1c, 0xf6, 0xe8, 0xde, 0xe1, 0xef, 0x1b, 0x0b,
  0x1e, 0x2c, 0x33, 0x30, 0xd3, 0xfa, 0x17, 0x11, 0x02, 0xdb, 0xf7, 0x09,
  0xe7, 0xe6, 0x16, 0x09, 0xe4, 0x2b, 0xfb, 0xe5, 0xc1, 0xc5, 0xf8, 0xde,
  0xde, 0x1c, 0xe3, 0x2f, 0xd8, 0x33, 0x0e, 0x17, 0xd6, 0x1b, 0xd2, 0x2b,
  0xf0, 0x2d, 0xf6, 0xc7, 0xdb, 0x2f, 0x4e, 0x22, 0xc0, 0xed, 0x1f, 0xf1,
  0x1b, 0xe5, 0xce, 0xd6, 0x0e, 0xcf, 0xcc, 0x04, 0x0a, 0xcb, 0xdf, 0x00,
  0xc3, 0xab, 0xbb, 0xa4, 0xf9, 0xee, 0xca, 0xdd, 0xc1, 0x46, 0x41, 0x00,
  0x3f, 0x2a, 0x29, 0xeb, 0x22, 0xe6, 0x09, 0xe2, 0xf4, 0xd2, 0x0a, 0xf4,
  0x2c, 0x0e, 0xfb, 0x1d, 0xd5, 0xd4, 0xed, 0xfa, 0x17, 0x2d, 0xf1, 0xff,
  0x11, 0x05, 0x1f, 0x07, 0x0f, 0xf0, 0x11, 0x14, 0xd8, 0x06, 0x08, 0xe2,
  0xfc, 0x27, 0x1f, 0xf2, 0x40, 0xe5, 0x34, 0xf2, 0xde, 0x28, 0xe9, 0xf9,
  0xdc, 0x58, 0xe8, 0xe9, 0xe9, 0x1b, 0xd8, 0xc4, 0xe5, 0xfb, 0xc4, 0xe6,
  0xef, 0x0f, 0x05, 0xf1, 0xe7, 0x16, 0xe8, 0x12, 0x1a, 0xc1, 0x00, 0x03,
  0xb2, 0x0c, 0xdf, 0xd4, 0x19, 0xf5, 0xfc, 0xd4, 0xdf, 0x20, 0xf1, 0xf2,
  0x10, 0xe3, 0xc3, 0x20, 0xf2, 0xdb, 0xe8, 0xd9, 0xf4, 0x14, 0xd3, 0xef,
  0xf4, 0x35, 0xe2, 0xba, 0x02, 0xf3, 0x1c, 0x06, 0x10, 0xd5, 0xf5, 0x15,
  0x1f, 0xd7, 0x0e, 0x2c, 0x17, 0x22, 0x23, 0xfc, 0xdf, 0x1a, 0x07, 0x23,
  0xf4, 0x40, 0x4b, 0x20, 0xf7, 0xce, 0x2a, 0x32, 0x25, 0xd6, 0xad, 0x0f,
  0xf1, 0xb6, 0xca, 0x26, 0x47, 0xdc, 0x22, 0xef, 0x0a, 0xf0, 0xfd, 0xc8,
  0xeb, 0xf5, 0x40, 0x03, 0x18, 0xde, 0x4d, 0xf5, 0xf0, 0x35, 0x09, 0xd6,
  0x03, 0x13, 0x0c, 0x0e, 0xed, 0xeb, 0x09, 0xdc, 0x37, 0xf4, 0xf9, 0xe6,
  0x00, 0xe6, 0xd3, 0xe1, 0xf5, 0x17, 0xf6, 0xfc, 0x0e, 0xee, 0xf8, 0x23,
  0x26, 0x22, 0xe8, 0xc9, 0xe6, 0xf2, 0x17, 0x32, 0x36, 0xea, 0xf1, 0x21,
  0x0f, 0xb9, 0x01, 0x11, 0xad, 0xbb, 0x08, 0x35, 0x1b, 0xea, 0xc7, 0x0d,
  0x28, 0xfb, 0x10, 0xfe, 0x27, 0x2d, 0x61, 0x39, 0x53, 0x13, 0x0a, 0x2c,
  0xfb, 0x32, 0x2d, 0xdd, 0x3c, 0x29, 0x22, 0x2c, 0x0c, 0x38, 0xdb, 0x1b,
  0x3c, 0xda, 0x11, 0xb8, 0xe9, 0x0a, 0xca, 0xf1, 0x2e, 0xf2, 0x04, 0x38,
  0xf9, 0x27, 0x1c, 0xf4, 0xf1, 0xf1, 0x32, 0xcf, 0xef, 0x0e, 0x0f, 0xd2,
  0x01, 0x0a, 0xe8, 0xe9, 0x25, 0xfd, 0xef, 0x2a, 0x1e, 0x30, 0xe5, 0xf6,
  0x3c, 0x13, 0x30, 0xd5, 0x09, 0xfe, 0x08, 0xd9, 0x22, 0xe8, 0xd0, 0xd7,
  0x18, 0xf2, 0x39, 0xf4, 0x29, 0x0e, 0x33, 0x09, 0xe9, 0xf1, 0xcc, 0xec,
  0xf9, 0xa6, 0xd6, 0x17, 0x19, 0xd3, 0x2d, 0x11, 0xea, 0xe8, 0xf8, 0x02,
  0xea, 0x10, 0xda, 0x07, 0xee, 0xe6, 0x19, 0x1f, 0xc5, 0xcc, 0x02, 0x27,
  0xd6, 0xfe, 0xf4, 0xda, 0x25, 0x08, 0xc5, 0x2d, 0xf4, 0xcc, 0x00, 0x22,
  0xf4, 0xd0, 0xcd, 0x16, 0x2b, 0x03, 0x33, 0xc4, 0x0a, 0x4c, 0xc2, 0x1e,
  0xe5, 0xfd, 0x3b, 0x30, 0xf3, 0x02, 0x0e, 0xfa, 0xda, 0xda, 0x28, 0xe0,
  0xd1, 0x2a, 0x0a, 0x1a, 0x36, 0x54, 0x2c, 0xeb, 0xc4, 0xe1, 0x23, 0xec,
  0xef, 0xe4, 0x29, 0xf9, 0x58, 0x38, 0x44, 0xd6, 0x43, 0x35, 0xea, 0x44,
  0xe4, 0x2d, 0x3b, 0x40, 0x19, 0x1a, 0x2b, 0x21, 0xd1, 0xe3, 0xf6, 0x3e,
  0xf9, 0x05, 0x15, 0xfb, 0xed, 0x2c, 0xcc, 0x02, 0x10, 0xe6, 0xc9, 0x13,
  0xfc, 0xf3, 0x4a, 0xf0, 0x29, 0xfd, 0xf0, 0x1f, 0x18, 0xd0, 0x0f, 0xd9,
  0x27, 0xd6, 0xf8, 0x20, 0x1b, 0x08, 0xec, 0xc9, 0x0b, 0x08, 0x23, 0x26,
  0xfa, 0x00, 0x27, 0x21, 0x03, 0xe2, 0xd1, 0xda, 0xf3, 0x1d, 0xf3, 0xce,
  0xed, 0xcf, 0x23, 0x09, 0xf6, 0x25, 0xf0, 0x22, 0xfb, 0xf4, 0xd2, 0xf4,
  0xe0, 0xe9, 0xf0, 0xdd, 0xd0, 0x2e, 0xfe, 0x2b, 0xec, 0xf0, 0x23, 0xe2,
  0x28, 0xfa, 0xda, 0xf9, 0x36, 0x33, 0x31, 0xda, 0xda, 0xdb, 0xfb, 0x29,
  0x3b, 0xfc, 0xd7, 0xe5, 0x18, 0x34, 0xf4, 0x13, 0xe3, 0x1a, 0x16, 0xdf,
  0xdf, 0x2d, 0x28, 0x10, 0x07, 0xfd, 0x15, 0x04, 0xfa, 0x23, 0xf3, 0x2c,
  0xeb, 0xd5, 0xd2, 0xd5, 0x16, 0xee, 0xe6, 0x22, 0x00, 0x3a, 0x28, 0xd8,
  0xee, 0x0f, 0x36, 0x14, 0xce, 0x15, 0x19, 0x19, 0xcf, 0x18, 0x05, 0xcf,
  0xfb, 0x18, 0xf2, 0xe8, 0xe6, 0xe2, 0xfa, 0xed, 0x0c, 0x0c, 0xe1, 0x0e,
  0x25, 0xe6, 0xf1, 0x26, 0xd8, 0xf2, 0x22, 0x16, 0x12, 0x2e, 0x20, 0x2f,
  0x1e, 0x2d, 0xcd, 0x0a, 0xf1, 0x16, 0x2b, 0x05, 0x32, 0x2c, 0xd8, 0x16,
  0xfa, 0x0c, 0x00, 0xda, 0xe5, 0x33, 0xd7, 0x05, 0x35, 0x36, 0x04, 0x0b,
  0x02, 0x26, 0x11, 0x1d, 0xf9, 0x2f, 0xe1, 0x25, 0x34, 0x15, 0x1e, 0x10,
  0x10, 0x0a, 0x0a, 0xee, 0x09, 0xf7, 0xe2, 0xff, 0x34, 0x1e, 0x00, 0xe2,
  0x14, 0xe1, 0x0f, 0xf1, 0x44, 0xc9, 0x16, 0xfb, 0xfe, 0xf8, 0x49, 0x13,
  0x8b, 0x24, 0x9e, 0xba, 0x08, 0xc5, 0x0f, 0xc6, 0xde, 0x12, 0x51, 0xc2,
  0xf6, 0xef, 0xdf, 0xd2, 0x0f, 0xd9, 0x21, 0xf5, 0xe6, 0xed, 0x19, 0x0d,
  0x21, 0xff, 0x05, 0xf3, 0x15, 0x28, 0x0a, 0x10, 0xfc, 0x03, 0x10, 0xfb,
  0xfc, 0x05, 0xdd, 0xde, 0x1a, 0x23, 0xf1, 0xdb, 0xd0, 0x4f, 0xd4, 0x09,
  0xf8, 0x34, 0x07, 0x37, 0xee, 0x1e, 0x24, 0xd4, 0x02, 0xf8, 0xe2, 0x4b,
  0x2d, 0x01, 0x16, 0x01, 0xef, 0x2f, 0x13, 0xd3, 0x02, 0x1a, 0x29, 0x1e,
  0xc5, 0x13, 0x55, 0x0a, 0x98, 0xc4, 0x1c, 0x03, 0xe9, 0x36, 0x25, 0x30,
  0x05, 0xf8, 0x2d, 0x12, 0x07, 0x2a, 0x2f, 0x00, 0x29, 0x33, 0xe5, 0x31,
  0x30, 0xe9, 0x08, 0x22, 0x1f, 0x08, 0xdc, 0x0f, 0xe9, 0xfb, 0x17, 0x09,
  0xd8, 0xd6, 0x26, 0xdd, 0x2a, 0x16, 0xc5, 0xdd, 0x20, 0x0e, 0xca, 0xc1,
  0xc7, 0x0e, 0xc1, 0x50, 0xbf, 0x08, 0xe8, 0xf5, 0xe7, 0x33, 0xeb, 0xc7,
  0x13, 0x11, 0xe6, 0x19, 0x34, 0x68, 0xeb, 0xf5, 0xbc, 0x09, 0x17, 0x01,
  0x03, 0xfe, 0x2f, 0xee, 0x15, 0xda, 0x03, 0x28, 0x18, 0xf8, 0x46, 0xe8,
  0xc6, 0xc2, 0xb5, 0xfb, 0x21, 0xbd, 0xe3, 0x25, 0xe3, 0x11, 0xee, 0x1d,
  0x07, 0xfb, 0x48, 0xe2, 0x0f, 0xcb, 0xd5, 0x1d, 0xf7, 0xde, 0x03, 0xdc,
  0x39, 0x0a, 0xf1, 0x1e, 0xdb, 0xc6, 0xd0, 0xfc, 0x25, 0x01, 0x9f, 0x06,
  0x1f, 0x36, 0x18, 0xdf, 0xd7, 0x1d, 0x20, 0xd8, 0x0f, 0x2e, 0xd9, 0x43,
  0x05, 0xc9, 0x04, 0xd3, 0x05, 0xe1, 0x0c, 0xdb, 0x24, 0x09, 0x32, 0xf6,
  0xd0, 0xff, 0x0e, 0x1a, 0xc2, 0x23, 0xf7, 0x2b, 0x38, 0xff, 0xf8, 0xed,
  0x1f, 0xbd, 0x3b, 0xf0, 0xc5, 0x12, 0xd5, 0x2c, 0x34, 0x25, 0x65, 0x21,
  0x31, 0xcc, 0xff, 0x0c, 0x22, 0xfc, 0xf1, 0x2f, 0x0b, 0x43, 0x35, 0x43,
  0x01, 0x4d, 0xe7, 0xc6, 0x00, 0xf4, 0xe2, 0xde, 0xed, 0x33, 0x10, 0xf4,
  0x27, 0xd8, 0x36, 0x20, 0xdc, 0xd4, 0x0c, 0x22, 0x0a, 0xeb, 0x0b, 0xcd,
  0xf9, 0xc3, 0xb5, 0x63, 0xf3, 0x1d, 0xff, 0xfc, 0xce, 0xd7, 0x0b, 0x35,
  0xfc, 0xfd, 0x30, 0xf3, 0x96, 0xfb, 0xff, 0xff, 0x04, 0x00, 0x00, 0x00,
  0x78, 0x00, 0x00, 0x00, 0xdf, 0xff, 0xff, 0xff, 0x42, 0x00, 0x00, 0x00,
  0x28, 0x00, 0x00, 0x00, 0x2c, 0x00, 0x00, 0x00, 0x4c, 0x00, 0x00, 0x00,
  0xe4, 0x00, 0x00, 0x00, 0x8f, 0xff, 0xff, 0xff, 0x28, 0x00, 0x00, 0x00,
  0x83, 0x00, 0x00, 0x00, 0x81, 0xff, 0xff, 0xff, 0xcc, 0xff, 0xff, 0xff,
  0x88, 0xff, 0xff, 0xff, 0xd0, 0xff, 0xff, 0xff, 0x7b, 0x00, 0x00, 0x00,
  0x65, 0x00, 0x00, 0x00, 0xd1, 0xff, 0xff, 0xff, 0xd1, 0x00, 0x00, 0x00,
  0x78, 0x00, 0x00, 0x00, 0xdd, 0xff, 0xff, 0xff, 0xb7, 0xff, 0xff, 0xff,
  0x4c, 0x00, 0x00, 0x00, 0xfe, 0xff, 0xff, 0xff, 0x66, 0x00, 0x00, 0x00,
  0x92, 0x00, 0x00, 0x00, 0xa8, 0xff, 0xff, 0xff, 0x00, 0x00, 0x00, 0x00,
  0x61, 0x00, 0x00, 0x00, 0x8e, 0x00, 0x00, 0x00, 0xd9, 0xff, 0xff, 0xff,
  0xd5, 0x00, 0x00, 0x00, 0x1a, 0xfc, 0xff, 0xff, 0x04, 0x00, 0x00, 0x00,
  0x58, 0x02, 0x00, 0x00, 0x24, 0xde, 0x44, 0x33, 0xe5, 0x16, 0x31, 0x48,
  0xe5, 0xe3, 0x2c, 0x2f, 0xdb, 0x1d, 0xe6, 0x1e, 0xc8, 0x3c, 0xe4, 0x47,
  0x0b, 0xdf, 0xf9, 0x0d, 0xff, 0xe0, 0xf4, 0xfb, 0x04, 0xbb, 0xc2, 0x31,
  0x2d, 0xd8, 0xc4, 0xf4, 0x0c, 0x41, 0xcd, 0xd9, 0x08, 0xd6, 0x42, 0xd1,
  0xe7, 0x34, 0xe0, 0x09, 0xec, 0x2a, 0x0b, 0x33, 0xbe, 0x06, 0x32, 0xcd,
  0x13, 0x0d, 0x36, 0x30, 0xdf, 0xf3, 0xf6, 0xe5, 0xe8, 0x1b, 0xca, 0xfc,
  0x24, 0xb0, 0xed, 0xfd, 0x4a, 0xdd, 0xe7, 0xed, 0xd8, 0x03, 0x14, 0xd4,
  0x36, 0x08, 0x37, 0xbd, 0x33, 0xea, 0x3a, 0x36, 0x07, 0x1c, 0x31, 0x47,
  0xec, 0xea, 0xef, 0x3b, 0xee, 0x0c, 0xe7, 0x4a, 0x3a, 0xe6, 0x17, 0x19,
  0x17, 0x34, 0x2d, 0x22, 0xb1, 0x37, 0xc1, 0x31, 0xcf, 0x0d, 0xd5, 0x21,
  0xd7, 0xd6, 0xd1, 0xe2, 0xfe, 0xd3, 0xc7, 0xf7, 0xc8, 0x37, 0x05, 0xf0,
  0xfa, 0x2b, 0xb3, 0x3a, 0xd8, 0xf3, 0x10, 0x18, 0xd9, 0x27, 0x0b, 0xe4,
  0xfc, 0x39, 0xe3, 0xfa, 0x32, 0xe7, 0x30, 0x10, 0x00, 0x02, 0xc5, 0xdf,
  0xfb, 0xf1, 0xc6, 0x33, 0xc0, 0xf2, 0xe8, 0xb9, 0xcf, 0x1e, 0x05, 0xf6,
  0xfb, 0xbb, 0xfb, 0x15, 0x09, 0xf6, 0x49, 0xbe, 0xd5, 0xc9, 0xe6, 0x2a,
  0xed, 0x3a, 0x44, 0x1c, 0x4b, 0xd3, 0x21, 0x04, 0xff, 0x21, 0xf6, 0xfa,
  0x3c, 0x11, 0xfa, 0x11, 0x22, 0xe5, 0xad, 0xd6, 0xfc, 0x20, 0xf9, 0x2b,
  0x00, 0xc4, 0xfe, 0x48, 0xdf, 0x28, 0x04, 0x01, 0xaf, 0xf5, 0xfa, 0x1b,
  0xfa, 0x41, 0x47, 0xdf, 0x1d, 0xb9, 0x37, 0xfa, 0x07, 0xe8, 0x1a, 0xe6,
  0xd7, 0xd8, 0x27, 0xc7, 0x25, 0x27, 0x40, 0xf9, 0xe6, 0xe4, 0x20, 0xca,
  0x05, 0xcb, 0x2f, 0xe1, 0x18, 0x0f, 0x3d, 0xb0, 0xe6, 0x3e, 0xdc, 0xef,
  0xc3, 0xe0, 0x0c, 0x1b, 0x5b, 0x15, 0x01, 0xd3, 0xf3, 0xc8, 0x15, 0xd2,
  0xbb, 0xb5, 0x0f, 0x27, 0x24, 0x11, 0xd2, 0x03, 0x07, 0x0b, 0x11, 0xf6,
  0x3b, 0xe6, 0x28, 0xf0, 0xbb, 0x35, 0xff, 0xf2, 0x43, 0xcc, 0x35, 0xdf,
  0x01, 0xf7, 0xe9, 0xd5, 0x26, 0xf5, 0x48, 0xf0, 0xd1, 0xe1, 0xf7, 0xfe,
  0x34, 0x14, 0xfb, 0xe1, 0xf4, 0xf5, 0x0d, 0xd9, 0xef, 0x10, 0x42, 0xf5,
  0xfd, 0x06, 0xd3, 0x0d, 0x1c, 0x27, 0x31, 0x26, 0xd0, 0xc8, 0x07, 0xf1,
  0x10, 0xde, 0x01, 0x0f, 0x28, 0xd9, 0x3c, 0xcc, 0xe9, 0x29, 0xcc, 0x20,
  0xdd, 0xcd, 0x11, 0xf0, 0x2c, 0x4a, 0x2b, 0x01, 0xe6, 0x21, 0x1d, 0xe2,
  0xfa, 0x01, 0xc6, 0xfd, 0x1b, 0x10, 0x39, 0x1c, 0x03, 0xf2, 0x25, 0x19,
  0xe3, 0x16, 0x12, 0xf8, 0xa9, 0x3e, 0xe5, 0x12, 0x10, 0x24, 0xbe, 0x07,
  0xdd, 0xc7, 0x2c, 0xaa, 0xe4, 0x12, 0x44, 0x23, 0x25, 0x1b, 0x1b, 0xfe,
  0xe7, 0x70, 0x2e, 0xa7, 0x07, 0xe5, 0x7a, 0x06, 0x04, 0x16, 0xfd, 0x09,
  0x38, 0xde, 0x18, 0x23, 0xc1, 0xeb, 0xc8, 0x23, 0x2c, 0xe7, 0xe9, 0x05,
  0x28, 0x30, 0x1f, 0xfd, 0x32, 0x02, 0xfb, 0xf4, 0x09, 0x16, 0x04, 0x05,
  0xfe, 0x2d, 0xd5, 0x0d, 0x1a, 0xff, 0x1f, 0x14, 0x2c, 0x1b, 0x1c, 0xc9,
  0x3b, 0x2f, 0x02, 0xc4, 0xd0, 0x30, 0xf7, 0x33, 0x28, 0x38, 0xa6, 0x02,
  0xd1, 0x38, 0xba, 0x23, 0x03, 0xf7, 0xda, 0x2a, 0xef, 0x02, 0x22, 0x20,
  0xba, 0x37, 0xf3, 0x19, 0x31, 0xfe, 0x28, 0xff, 0x28, 0x05, 0x05, 0x00,
  0xbf, 0x2a, 0xbd, 0x23, 0x26, 0x22, 0xfd, 0xe7, 0x3a, 0xd1, 0xfa, 0xf9,
  0x54, 0xc6, 0xfb, 0x1d, 0x20, 0xe1, 0x20, 0x06, 0x1b, 0x18, 0xfc, 0xd8,
  0x1d, 0x0c, 0xfb, 0xcd, 0x07, 0x40, 0x27, 0x1f, 0x0a, 0xff, 0xed, 0xbd,
  0x46, 0x1e, 0x04, 0x47, 0xca, 0xf4, 0x0d, 0xfe, 0xbc, 0x4d, 0x2c, 0x21,
  0x3e, 0xb8, 0xdf, 0x42, 0xe2, 0x31, 0xea, 0x1b, 0x1f, 0xe8, 0x48, 0x30,
  0xeb, 0xea, 0xc6, 0xd5, 0x3b, 0x03, 0x1c, 0xd8, 0xd0, 0xd3, 0xe7, 0xcf,
  0xd9, 0xc9, 0x00, 0x18, 0x0f, 0x0b, 0x14, 0xe7, 0x03, 0x11, 0x9f, 0x1d,
  0x21, 0xda, 0xcc, 0x1d, 0xe2, 0xc1, 0xe5, 0x14, 0xff, 0xd1, 0x53, 0x3c,
  0x00, 0xc5, 0x1d, 0x22, 0x28, 0x39, 0xb0, 0x1b, 0x3c, 0x2b, 0xe4, 0xe9,
  0x2f, 0x00, 0xd8, 0x1b, 0xd9, 0xcb, 0x40, 0x2c, 0xca, 0x11, 0xe1, 0xfc,
  0xb1, 0xca, 0xe8, 0x32, 0xff, 0x0d, 0x2c, 0x81, 0x30, 0x53, 0xf8, 0xef,
  0xe4, 0x31, 0xd6, 0x33, 0x7e, 0xfe, 0xff, 0xff, 0x04, 0x00, 0x00, 0x00,
  0x50, 0x00, 0x00, 0x00, 0x75, 0xff, 0xff, 0xff, 0x49, 0x00, 0x00, 0x00,
  0x24, 0x00, 0x00, 0x00, 0x11, 0x00, 0x00, 0x00, 0xfa, 0xff, 0xff, 0xff,
  0x63, 0x00, 0x00, 0x00, 0x26, 0x00, 0x00, 0x00, 0x0f, 0x00, 0x00, 0x00,
  0xde, 0xff, 0xff, 0xff, 0x3f, 0x00, 0x00, 0x00, 0x48, 0x00, 0x00, 0x00,
  0x4b, 0x00, 0x00, 0x00, 0xb3, 0x00, 0x00, 0x00, 0xc7, 0xff, 0xff, 0xff,
  0x9f, 0x00, 0x00, 0x00, 0xe7, 0xff, 0xff, 0xff, 0x11, 0x01, 0x00, 0x00,
  0xa0, 0xff, 0xff, 0xff, 0xf9, 0xff, 0xff, 0xff, 0x30, 0x00, 0x00, 0x00,
  0xda, 0xfe, 0xff, 0xff, 0x04, 0x00, 0x00, 0x00, 0x64, 0x00, 0x00, 0x00,
  0x31, 0xd1, 0xc7, 0x3b, 0xbe, 0xe6, 0x37, 0xbd, 0x2f, 0x05, 0xf8, 0xbf,
  0xa8, 0x31, 0xf3, 0xb5, 0x1a, 0xfc, 0x0c, 0x1a, 0x25, 0x6f, 0x0d, 0xf6,
  0xa1, 0x60, 0xe7, 0x3a, 0x41, 0x37, 0x91, 0x10, 0x1d, 0x3e, 0xb5, 0xf0,
  0xc7, 0x32, 0x34, 0xfc, 0xb7, 0xdf, 0xf9, 0xb0, 0xe4, 0x40, 0x3a, 0xf2,
  0x07, 0x1f, 0x5d, 0xeb, 0x3f, 0x0f, 0xca, 0x4e, 0x49, 0xbf, 0x22, 0x3f,
  0xfc, 0x39, 0xa6, 0x46, 0xd1, 0xce, 0xca, 0xc1, 0xd7, 0xb9, 0xe1, 0x13,
  0x60, 0x28, 0x1c, 0x2a, 0x31, 0xb4, 0x81, 0xc6, 0x37, 0xbb, 0x9f, 0xfe,
  0xb7, 0xff, 0x2b, 0xc4, 0xf0, 0x15, 0x23, 0x59, 0xcb, 0xef, 0xa5, 0x5a,
  0x87, 0x06, 0xc7, 0xfe, 0x4a, 0xff, 0xff, 0xff, 0x04, 0x00, 0x00, 0x00,
  0x14, 0x00, 0x00, 0x00, 0x2d, 0x00, 0x00, 0x00, 0x9e, 0xff, 0xff, 0xff,
  0x78, 0x00, 0x00, 0x00, 0x41, 0x00, 0x00, 0x00, 0x00, 0xff, 0xff, 0xff,
  0x38, 0xff, 0xff, 0xff, 0x3c, 0xff, 0xff, 0xff, 0x0f, 0x00, 0x00, 0x00,
  0x4d, 0x4c, 0x49, 0x52, 0x20, 0x43, 0x6f, 0x6e, 0x76, 0x65, 0x72, 0x74,
  0x65, 0x64, 0x2e, 0x00, 0x01, 0x00, 0x00, 0x00, 0x14, 0x00, 0x00, 0x00,
  0x00, 0x00, 0x0e, 0x00, 0x18, 0x00, 0x14, 0x00, 0x10, 0x00, 0x0c, 0x00,
  0x08, 0x00, 0x04, 0x00, 0x0e, 0x00, 0x00, 0x00, 0x14, 0x00, 0x00, 0x00,
  0x1c, 0x00, 0x00, 0x00, 0x28, 0x01, 0x00, 0x00, 0x2c, 0x01, 0x00, 0x00,
  0x30, 0x01, 0x00, 0x00, 0x04, 0x00, 0x00, 0x00, 0x6d, 0x61, 0x69, 0x6e,
  0x00, 0x00, 0x00, 0x00, 0x04, 0x00, 0x00, 0x00, 0xd0, 0x00, 0x00, 0x00,
  0x88, 0x00, 0x00, 0x00, 0x50, 0x00, 0x00, 0x00, 0x14, 0x00, 0x00, 0x00,
  0x00, 0x00, 0x0e, 0x00, 0x1a, 0x00, 0x14, 0x00, 0x10, 0x00, 0x0c, 0x00,
  0x0b, 0x00, 0x04, 0x00, 0x0e, 0x00, 0x00, 0x00, 0x1c, 0x00, 0x00, 0x00,
  0x00, 0x00, 0x00, 0x09, 0x1c, 0x00, 0x00, 0x00, 0x20, 0x00, 0x00, 0x00,
  0x01, 0x00, 0x00, 0x00, 0x00, 0x00, 0x06, 0x00, 0x08, 0x00, 0x04, 0x00,
  0x06, 0x00, 0x00, 0x00, 0x00, 0x00, 0x80, 0x3f, 0x01, 0x00, 0x00, 0x00,
  0x0a, 0x00, 0x00, 0x00, 0x01, 0x00, 0x00, 0x00, 0x09, 0x00, 0x00, 0x00,
  0x96, 0xff, 0xff, 0xff, 0x14, 0x00, 0x00, 0x00, 0x00, 0x00, 0x00, 0x08,
  0x10, 0x00, 0x00, 0x00, 0x14, 0x00, 0x00, 0x00, 0x04, 0x00, 0x04, 0x00,
  0x04, 0x00, 0x00, 0x00, 0x01, 0x00, 0x00, 0x00, 0x09, 0x00, 0x00, 0x00,
  0x03, 0x00, 0x00, 0x00, 0x08, 0x00, 0x00, 0x00, 0x02, 0x00, 0x00, 0x00,
  0x01, 0x00, 0x00, 0x00, 0xca, 0xff, 0xff, 0xff, 0x10, 0x00, 0x00, 0x00,
  0x00, 0x00, 0x00, 0x08, 0x10, 0x00, 0x00, 0x00, 0x14, 0x00, 0x00, 0x00,
  0xba, 0xff, 0xff, 0xff, 0x00, 0x00, 0x00, 0x01, 0x01, 0x00, 0x00, 0x00,
  0x08, 0x00, 0x00, 0x00, 0x03, 0x00, 0x00, 0x00, 0x07, 0x00, 0x00, 0x00,
  0x04, 0x00, 0x00, 0x00, 0x03, 0x00, 0x00, 0x00, 0x00, 0x00, 0x0e, 0x00,
  0x16, 0x00, 0x00, 0x00, 0x10, 0x00, 0x0c, 0x00, 0x0b, 0x00, 0x04, 0x00,
  0x0e, 0x00, 0x00, 0x00, 0x18, 0x00, 0x00, 0x00, 0x00, 0x00, 0x00, 0x08,
  0x18, 0x00, 0x00, 0x00, 0x1c, 0x00, 0x00, 0x00, 0x00, 0x00, 0x06, 0x00,
  0x08, 0x00, 0x07, 0x00, 0x06, 0x00, 0x00, 0x00, 0x00, 0x00, 0x00, 0x01,
  0x01, 0x00, 0x00, 0x00, 0x07, 0x00, 0x00, 0x00, 0x03, 0x00, 0x00, 0x00,
  0x00, 0x00, 0x00, 0x00, 0x06, 0x00, 0x00, 0x00, 0x05, 0x00, 0x00, 0x00,
  0x01, 0x00, 0x00, 0x00, 0x0a, 0x00, 0x00, 0x00, 0x01, 0x00, 0x00, 0x00,
  0x00, 0x00, 0x00, 0x00, 0x0b, 0x00, 0x00, 0x00, 0xf8, 0x04, 0x00, 0x00,
  0x68, 0x04, 0x00, 0x00, 0xfc, 0x03, 0x00, 0x00, 0x80, 0x03, 0x00, 0x00,
  0x14, 0x03, 0x00, 0x00, 0xa0, 0x02, 0x00, 0x00, 0x34, 0x02, 0x00, 0x00,
  0x98, 0x01, 0x00, 0x00, 0xf4, 0x00, 0x00, 0x00, 0x70, 0x00, 0x00, 0x00,
  0x04, 0x00, 0x00, 0x00, 0x4a, 0xfb, 0xff, 0xff, 0x00, 0x00, 0x00, 0x01,
  0x14, 0x00, 0x00, 0x00, 0x30, 0x00, 0x00, 0x00, 0x0b, 0x00, 0x00, 0x00,
  0x00, 0x00, 0x00, 0x09, 0x44, 0x00, 0x00, 0x00, 0x34, 0xfb, 0xff, 0xff,
  0x08, 0x00, 0x00, 0x00, 0x10, 0x00, 0x00, 0x00, 0x01, 0x00, 0x00, 0x00,
  0x80, 0xff, 0xff, 0xff, 0xff, 0xff, 0xff, 0xff, 0x01, 0x00, 0x00, 0x00,
  0x00, 0x00, 0x80, 0x3b, 0x19, 0x00, 0x00, 0x00, 0x53, 0x74, 0x61, 0x74,
  0x65, 0x66, 0x75, 0x6c, 0x50, 0x61, 0x72, 0x74, 0x69, 0x74, 0x69, 0x6f,
  0x6e, 0x65, 0x64, 0x43, 0x61, 0x6c, 0x6c, 0x3a, 0x30, 0x00, 0x00, 0x00,
  0x02, 0x00, 0x00, 0x00, 0x01, 0x00, 0x00, 0x00, 0x05, 0x00, 0x00, 0x00,
  0xb2, 0xfb, 0xff, 0xff, 0x00, 0x00, 0x00, 0x01, 0x14, 0x00, 0x00, 0x00,
  0x30, 0x00, 0x00, 0x00, 0x0a, 0x00, 0x00, 0x00, 0x00, 0x00, 0x00, 0x09,
  0x5c, 0x00, 0x00, 0x00, 0x9c, 0xfb, 0xff, 0xff, 0x08, 0x00, 0x00, 0x00,
  0x10, 0x00, 0x00, 0x00, 0x01, 0x00, 0x00, 0x00, 0xfd, 0xff, 0xff, 0xff,
  0xff, 0xff, 0xff, 0xff, 0x01, 0x00, 0x00, 0x00, 0x4f, 0x1d, 0xbd, 0x3d,
  0x32, 0x00, 0x00, 0x00, 0x73, 0x65, 0x71, 0x75, 0x65, 0x6e, 0x74, 0x69,
  0x61, 0x6c, 0x2f, 0x79, 0x5f, 0x70, 0x72, 0x65, 0x64, 0x2f, 0x4d, 0x61,
  0x74, 0x4d, 0x75, 0x6c, 0x3b, 0x73, 0x65, 0x71, 0x75, 0x65, 0x6e, 0x74,
  0x69, 0x61, 0x6c, 0x2f, 0x79, 0x5f, 0x70, 0x72, 0x65, 0x64, 0x2f, 0x42,
  0x69, 0x61, 0x73, 0x41, 0x64, 0x64, 0x00, 0x00, 0x02, 0x00, 0x00, 0x00,
  0x01, 0x00, 0x00, 0x00, 0x05, 0x00, 0x00, 0x00, 0x32, 0xfc, 0xff, 0xff,
  0x00, 0x00, 0x00, 0x01, 0x14, 0x00, 0x00, 0x00, 0x34, 0x00, 0x00, 0x00,
  0x09, 0x00, 0x00, 0x00, 0x00, 0x00, 0x00, 0x09, 0x7c, 0x00, 0x00, 0x00,
  0x1c, 0xfc, 0xff, 0xff, 0x08, 0x00, 0x00, 0x00, 0x14, 0x00, 0x00, 0x00,
  0x01, 0x00, 0x00, 0x00, 0x80, 0xff, 0xff, 0xff, 0xff, 0xff, 0xff, 0xff,
  0x00, 0x00, 0x00, 0x00, 0x01, 0x00, 0x00, 0x00, 0x59, 0xba, 0x9d, 0x3d,
  0x4c, 0x00, 0x00, 0x00, 0x73, 0x65, 0x71, 0x75, 0x65, 0x6e, 0x74, 0x69,
  0x61, 0x6c, 0x2f, 0x64, 0x65, 0x6e, 0x73, 0x65, 0x5f, 0x31, 0x2f, 0x4d,
  0x61, 0x74, 0x4d, 0x75, 0x6c, 0x3b, 0x73, 0x65, 0x71, 0x75, 0x65, 0x6e,
  0x74, 0x69, 0x61, 0x6c, 0x2f, 0x64, 0x65, 0x6e, 0x73, 0x65, 0x5f, 0x31,
  0x2f, 0x52, 0x65, 0x6c, 0x75, 0x3b, 0x73, 0x65, 0x71, 0x75, 0x65, 0x6e,
  0x74, 0x69, 0x61, 0x6c, 0x2f, 0x64, 0x65, 0x6e, 0x73, 0x65, 0x5f, 0x31,
  0x2f, 0x42, 0x69, 0x61, 0x73, 0x41, 0x64, 0x64, 0x00, 0x00, 0x00, 0x00,
  0x02, 0x00, 0x00, 0x00, 0x01, 0x00, 0x00, 0x00, 0x14, 0x00, 0x00, 0x00,
  0xd2, 0xfc, 0xff, 0xff, 0x00, 0x00, 0x00, 0x01, 0x14, 0x00, 0x00, 0x00,
  0x34, 0x00, 0x00, 0x00, 0x08, 0x00, 0x00, 0x00, 0x00, 0x00, 0x00, 0x09,
  0x74, 0x00, 0x00, 0x00, 0xbc, 0xfc, 0xff, 0xff, 0x08, 0x00, 0x00, 0x00,
  0x14, 0x00, 0x00, 0x00, 0x01, 0x00, 0x00, 0x00, 0x80, 0xff, 0xff, 0xff,
  0xff, 0xff, 0xff, 0xff, 0x00, 0x00, 0x00, 0x00, 0x01, 0x00, 0x00, 0x00,
  0x94, 0x64, 0x93, 0x3d, 0x46, 0x00, 0x00, 0x00, 0x73, 0x65, 0x71, 0x75,
  0x65, 0x6e, 0x74, 0x69, 0x61, 0x6c, 0x2f, 0x64, 0x65, 0x6e, 0x73, 0x65,
  0x2f, 0x4d, 0x61, 0x74, 0x4d, 0x75, 0x6c, 0x3b, 0x73, 0x65, 0x71, 0x75,
  0x65, 0x6e, 0x74, 0x69, 0x61, 0x6c, 0x2f, 0x64, 0x65, 0x6e, 0x73, 0x65,
  0x2f, 0x52, 0x65, 0x6c, 0x75, 0x3b, 0x73, 0x65, 0x71, 0x75, 0x65, 0x6e,
  0x74, 0x69, 0x61, 0x6c, 0x2f, 0x64, 0x65, 0x6e, 0x73, 0x65, 0x2f, 0x42,
  0x69, 0x61, 0x73, 0x41, 0x64, 0x64, 0x00, 0x00, 0x02, 0x00, 0x00, 0x00,
  0x01, 0x00, 0x00, 0x00, 0x1e, 0x00, 0x00, 0x00, 0x6a, 0xfd, 0xff, 0xff,
  0x00, 0x00, 0x00, 0x01, 0x14, 0x00, 0x00, 0x00, 0x34, 0x00, 0x00, 0x00,
  0x07, 0x00, 0x00, 0x00, 0x00, 0x00, 0x00, 0x09, 0x44, 0x00, 0x00, 0x00,
  0x54, 0xfd, 0xff, 0xff, 0x08, 0x00, 0x00, 0x00, 0x14, 0x00, 0x00, 0x00,
  0x01, 0x00, 0x00, 0x00, 0x00, 0x00, 0x00, 0x00, 0x00, 0x00, 0x00, 0x00,
  0x00, 0x00, 0x00, 0x00, 0x01, 0x00, 0x00, 0x00, 0x17, 0xc4, 0x8d, 0x3b,
  0x17, 0x00, 0x00, 0x00, 0x73, 0x65, 0x71, 0x75, 0x65, 0x6e, 0x74, 0x69,
  0x61, 0x6c, 0x2f, 0x64, 0x65, 0x6e, 0x73, 0x65, 0x2f, 0x4d, 0x61, 0x74,
  0x4d, 0x75, 0x6c, 0x00, 0x02, 0x00, 0x00, 0x00, 0x1e, 0x00, 0x00, 0x00,
  0x4e, 0x00, 0x00, 0x00, 0xd2, 0xfd, 0xff, 0xff, 0x00, 0x00, 0x00, 0x01,
  0x14, 0x00, 0x00, 0x00, 0x30, 0x00, 0x00, 0x00, 0x06, 0x00, 0x00, 0x00,
  0x00, 0x00, 0x00, 0x02, 0x50, 0x00, 0x00, 0x00, 0xbc, 0xfd, 0xff, 0xff,
  0x08, 0x00, 0x00, 0x00, 0x10, 0x00, 0x00, 0x00, 0x01, 0x00, 0x00, 0x00,
  0x00, 0x00, 0x00, 0x00, 0x00, 0x00, 0x00, 0x00, 0x01, 0x00, 0x00, 0x00,
  0xcd, 0xd5, 0xc0, 0x39, 0x27, 0x00, 0x00, 0x00, 0x73, 0x65, 0x71, 0x75,
  0x65, 0x6e, 0x74, 0x69, 0x61, 0x6c, 0x2f, 0x64, 0x65, 0x6e, 0x73, 0x65,
  0x2f, 0x42, 0x69, 0x61, 0x73, 0x41, 0x64, 0x64, 0x2f, 0x52, 0x65, 0x61,
  0x64, 0x56, 0x61, 0x72, 0x69, 0x61, 0x62, 0x6c, 0x65, 0x4f, 0x70, 0x00,
  0x01, 0x00, 0x00, 0x00, 0x1e, 0x00, 0x00, 0x00, 0x42, 0xfe, 0xff, 0xff,
  0x00, 0x00, 0x00, 0x01, 0x14, 0x00, 0x00, 0x00, 0x30, 0x00, 0x00, 0x00,
  0x05, 0x00, 0x00, 0x00, 0x00, 0x00, 0x00, 0x09, 0x44, 0x00, 0x00, 0x00,
  0x2c, 0xfe, 0xff, 0xff, 0x08, 0x00, 0x00, 0x00, 0x10, 0x00, 0x00, 0x00,
  0x01, 0x00, 0x00, 0x00, 0x00, 0x00, 0x00, 0x00, 0x00, 0x00, 0x00, 0x00,
  0x01, 0x00, 0x00, 0x00, 0x8a, 0x7a, 0xc1, 0x3b, 0x19, 0x00, 0x00, 0x00,
  0x73, 0x65, 0x71, 0x75, 0x65, 0x6e, 0x74, 0x69, 0x61, 0x6c, 0x2f, 0x64,
  0x65, 0x6e, 0x73, 0x65, 0x5f, 0x31, 0x2f, 0x4d, 0x61, 0x74, 0x4d, 0x75,
  0x6c, 0x00, 0x00, 0x00, 0x02, 0x00, 0x00, 0x00, 0x14, 0x00, 0x00, 0x00,
  0x1e, 0x00, 0x00, 0x00, 0xaa, 0xfe, 0xff, 0xff, 0x00, 0x00, 0x00, 0x01,
  0x14, 0x00, 0x00, 0x00, 0x34, 0x00, 0x00, 0x00, 0x04, 0x00, 0x00, 0x00,
  0x00, 0x00, 0x00, 0x02, 0x58, 0x00, 0x00, 0x00, 0x94, 0xfe, 0xff, 0xff,
  0x08, 0x00, 0x00, 0x00, 0x14, 0x00, 0x00, 0x00, 0x01, 0x00, 0x00, 0x00,
  0x00, 0x00, 0x00, 0x00, 0x00, 0x00, 0x00, 0x00, 0x00, 0x00, 0x00, 0x00,
  0x01, 0x00, 0x00, 0x00, 0xc2, 0xca, 0xde, 0x39, 0x29, 0x00, 0x00, 0x00,
  0x73, 0x65, 0x71, 0x75, 0x65, 0x6e, 0x74, 0x69, 0x61, 0x6c, 0x2f, 0x64,
  0x65, 0x6e, 0x73, 0x65, 0x5f, 0x31, 0x2f, 0x42, 0x69, 0x61, 0x73, 0x41,
  0x64, 0x64, 0x2f, 0x52, 0x65, 0x61, 0x64, 0x56, 0x61, 0x72, 0x69, 0x61,
  0x62, 0x6c, 0x65, 0x4f, 0x70, 0x00, 0x00, 0x00, 0x01, 0x00, 0x00, 0x00,
  0x14, 0x00, 0x00, 0x00, 0x22, 0xff, 0xff, 0xff, 0x00, 0x00, 0x00, 0x01,
  0x14, 0x00, 0x00, 0x00, 0x30, 0x00, 0x00, 0x00, 0x03, 0x00, 0x00, 0x00,
  0x00, 0x00, 0x00, 0x09, 0x44, 0x00, 0x00, 0x00, 0x0c, 0xff, 0xff, 0xff,
  0x08, 0x00, 0x00, 0x00, 0x10, 0x00, 0x00, 0x00, 0x01, 0x00, 0x00, 0x00,
  0x00, 0x00, 0x00, 0x00, 0x00, 0x00, 0x00, 0x00, 0x01, 0x00, 0x00, 0x00,
  0x08, 0x28, 0xde, 0x3b, 0x18, 0x00, 0x00, 0x00, 0x73, 0x65, 0x71, 0x75,
  0x65, 0x6e, 0x74, 0x69, 0x61, 0x6c, 0x2f, 0x79, 0x5f, 0x70, 0x72, 0x65,
  0x64, 0x2f, 0x4d, 0x61, 0x74, 0x4d, 0x75, 0x6c, 0x00, 0x00, 0x00, 0x00,
  0x02, 0x00, 0x00, 0x00, 0x05, 0x00, 0x00, 0x00, 0x14, 0x00, 0x00, 0x00,
  0x8a, 0xff, 0xff, 0xff, 0x00, 0x00, 0x00, 0x01, 0x14, 0x00, 0x00, 0x00,
  0x30, 0x00, 0x00, 0x00, 0x02, 0x00, 0x00, 0x00, 0x00, 0x00, 0x00, 0x02,
  0x54, 0x00, 0x00, 0x00, 0x74, 0xff, 0xff, 0xff, 0x08, 0x00, 0x00, 0x00,
  0x10, 0x00, 0x00, 0x00, 0x01, 0x00, 0x00, 0x00, 0x00, 0x00, 0x00, 0x00,
  0x00, 0x00, 0x00, 0x00, 0x01, 0x00, 0x00, 0x00, 0x43, 0xe0, 0x08, 0x3a,
  0x28, 0x00, 0x00, 0x00, 0x73, 0x65, 0x71, 0x75, 0x65, 0x6e, 0x74, 0x69,
  0x61, 0x6c, 0x2f, 0x79, 0x5f, 0x70, 0x72, 0x65, 0x64, 0x2f, 0x42, 0x69,
  0x61, 0x73, 0x41, 0x64, 0x64, 0x2f, 0x52, 0x65, 0x61, 0x64, 0x56, 0x61,
  0x72, 0x69, 0x61, 0x62, 0x6c, 0x65, 0x4f, 0x70, 0x00, 0x00, 0x00, 0x00,
  0x01, 0x00, 0x00, 0x00, 0x05, 0x00, 0x00, 0x00, 0x00, 0x00, 0x16, 0x00,
  0x1c, 0x00, 0x18, 0x00, 0x17, 0x00, 0x10, 0x00, 0x0c, 0x00, 0x08, 0x00,
  0x00, 0x00, 0x00, 0x00, 0x00, 0x00, 0x07, 0x00, 0x16, 0x00, 0x00, 0x00,
  0x00, 0x00, 0x00, 0x01, 0x20, 0x00, 0x00, 0x00, 0x40, 0x00, 0x00, 0x00,
  0x01, 0x00, 0x00, 0x00, 0x00, 0x00, 0x00, 0x09, 0x4c, 0x00, 0x00, 0x00,
  0x0c, 0x00, 0x0c, 0x00, 0x00, 0x00, 0x00, 0x00, 0x08, 0x00, 0x04, 0x00,
  0x0c, 0x00, 0x00, 0x00, 0x08, 0x00, 0x00, 0x00, 0x14, 0x00, 0x00, 0x00,
  0x01, 0x00, 0x00, 0x00, 0xdc, 0xff, 0xff, 0xff, 0xff, 0xff, 0xff, 0xff,
  0x00, 0x00, 0x00, 0x00, 0x01, 0x00, 0x00, 0x00, 0x35, 0x1c, 0xae, 0x3d,
  0x13, 0x00, 0x00, 0x00, 0x73, 0x65, 0x72, 0x76, 0x69, 0x6e, 0x67, 0x5f,
  0x64, 0x65, 0x66, 0x61, 0x75, 0x6c, 0x74, 0x5f, 0x78, 0x3a, 0x30, 0x00,
  0x02, 0x00, 0x00, 0x00, 0x01, 0x00, 0x00, 0x00, 0x4e, 0x00, 0x00, 0x00,
  0x02, 0x00, 0x00, 0x00, 0x24, 0x00, 0x00, 0x00, 0x04, 0x00, 0x00, 0x00,
  0xf0, 0xff, 0xff, 0xff, 0x19, 0x00, 0x00, 0x00, 0x02, 0x00, 0x00, 0x00,
  0x00, 0x00, 0x00, 0x19, 0x0c, 0x00, 0x10, 0x00, 0x0f, 0x00, 0x00, 0x00,
  0x08, 0x00, 0x04, 0x00, 0x0c, 0x00, 0x00, 0x00, 0x09, 0x00, 0x00, 0x00,
  0x04, 0x00, 0x00, 0x00, 0x00, 0x00, 0x00, 0x09
};
unsigned int tflite_learn_5_len = 5624;
#endif // _EI_CLASSIFIER_TFLITE_LEARN_5_H_
