/*
 * Copyright (c) 2025 EdgeImpulse Inc.
 *
 * Generated by Edge Impulse and licensed under the applicable Edge Impulse
 * Terms of Service. Community and Professional Terms of Service
 * (https://docs.edgeimpulse.com/page/terms-of-service) or Enterprise Terms of
 * Service (https://docs.edgeimpulse.com/page/enterprise-terms-of-service),
 * according to your product plan subscription (the “License”).
 *
 * This software, documentation and other associated files (collectively referred
 * to as the “Software”) is a single SDK variation generated by the Edge Impulse
 * platform and requires an active paid Edge Impulse subscription to use this
 * Software for any purpose.
 *
 * You may NOT use this Software unless you have an active Edge Impulse subscription
 * that meets the eligibility requirements for the applicable License, subject to
 * your full and continued compliance with the terms and conditions of the License,
 * including without limitation any usage restrictions under the applicable License.
 *
 * If you do not have an active Edge Impulse product plan subscription, or if use
 * of this Software exceeds the usage limitations of your Edge Impulse product plan
 * subscription, you are not permitted to use this Software and must immediately
 * delete and erase all copies of this Software within your control or possession.
 * Edge Impulse reserves all rights and remedies available to enforce its rights.
 *
 * Unless required by applicable law or agreed to in writing, the Software is
 * distributed on an "AS IS" BASIS, WITHOUT WARRANTIES OR CONDITIONS OF ANY KIND,
 * either express or implied. See the License for the specific language governing
 * permissions, disclaimers and limitations under the License.
 */

#ifndef _EI_CLASSIFIER_TFLITE_LEARN_5_H_
#define _EI_CLASSIFIER_TFLITE_LEARN_5_H_

#define EI_CLASSIFIER_TFLITE_LEARN_5_ARENA_SIZE     3001
const size_t tflite_learn_5_440960_arena_size = 3001;

#if defined __GNUC__
#define ALIGN(X) __attribute__((aligned(X)))
#elif defined _MSC_VER
#define ALIGN(X) __declspec(align(X))
#elif defined __TASKING__
#define ALIGN(X) __align(X)
#else
#define ALIGN(X)
#endif

#if defined(EI_MODEL_SECTION) && (defined(__GNUC__) || defined(__clang__))
#define STRINGIZE(x) #x
#define STRINGIZE_VALUE_OF(x) STRINGIZE(x)
#define MODEL_SECTION(X) __attribute__((section(STRINGIZE_VALUE_OF(X))))
#else
#define MODEL_SECTION(X)
#endif


MODEL_SECTION(EI_MODEL_SECTION) ALIGN(16) const unsigned char tflite_learn_5_440960[] = {
  0x20, 0x00, 0x00, 0x00, 0x54, 0x46, 0x4c, 0x33, 0x00, 0x00, 0x00, 0x00,
  0x14, 0x00, 0x20, 0x00, 0x1c, 0x00, 0x18, 0x00, 0x14, 0x00, 0x10, 0x00,
  0x0c, 0x00, 0x00, 0x00, 0x08, 0x00, 0x04, 0x00, 0x14, 0x00, 0x00, 0x00,
  0x1c, 0x00, 0x00, 0x00, 0x8c, 0x00, 0x00, 0x00, 0xe4, 0x00, 0x00, 0x00,
  0x9c, 0x0c, 0x00, 0x00, 0xac, 0x0c, 0x00, 0x00, 0x70, 0x13, 0x00, 0x00,
  0x03, 0x00, 0x00, 0x00, 0x01, 0x00, 0x00, 0x00, 0x10, 0x00, 0x00, 0x00,
  0x00, 0x00, 0x0a, 0x00, 0x10, 0x00, 0x0c, 0x00, 0x08, 0x00, 0x04, 0x00,
  0x0a, 0x00, 0x00, 0x00, 0x0c, 0x00, 0x00, 0x00, 0x1c, 0x00, 0x00, 0x00,
  0x3c, 0x00, 0x00, 0x00, 0x0f, 0x00, 0x00, 0x00, 0x73, 0x65, 0x72, 0x76,
  0x69, 0x6e, 0x67, 0x5f, 0x64, 0x65, 0x66, 0x61, 0x75, 0x6c, 0x74, 0x00,
  0x01, 0x00, 0x00, 0x00, 0x04, 0x00, 0x00, 0x00, 0x9c, 0xff, 0xff, 0xff,
  0x0a, 0x00, 0x00, 0x00, 0x04, 0x00, 0x00, 0x00, 0x08, 0x00, 0x00, 0x00,
  0x6f, 0x75, 0x74, 0x70, 0x75, 0x74, 0x5f, 0x30, 0x00, 0x00, 0x00, 0x00,
  0x01, 0x00, 0x00, 0x00, 0x04, 0x00, 0x00, 0x00, 0x4a, 0xf3, 0xff, 0xff,
  0x04, 0x00, 0x00, 0x00, 0x01, 0x00, 0x00, 0x00, 0x78, 0x00, 0x00, 0x00,
  0x02, 0x00, 0x00, 0x00, 0x34, 0x00, 0x00, 0x00, 0x04, 0x00, 0x00, 0x00,
  0xdc, 0xff, 0xff, 0xff, 0x0d, 0x00, 0x00, 0x00, 0x04, 0x00, 0x00, 0x00,
  0x13, 0x00, 0x00, 0x00, 0x43, 0x4f, 0x4e, 0x56, 0x45, 0x52, 0x53, 0x49,
  0x4f, 0x4e, 0x5f, 0x4d, 0x45, 0x54, 0x41, 0x44, 0x41, 0x54, 0x41, 0x00,
  0x08, 0x00, 0x0c, 0x00, 0x08, 0x00, 0x04, 0x00, 0x08, 0x00, 0x00, 0x00,
  0x0c, 0x00, 0x00, 0x00, 0x04, 0x00, 0x00, 0x00, 0x13, 0x00, 0x00, 0x00,
  0x6d, 0x69, 0x6e, 0x5f, 0x72, 0x75, 0x6e, 0x74, 0x69, 0x6d, 0x65, 0x5f,
  0x76, 0x65, 0x72, 0x73, 0x69, 0x6f, 0x6e, 0x00, 0x0e, 0x00, 0x00, 0x00,
  0xb4, 0x0b, 0x00, 0x00, 0xac, 0x0b, 0x00, 0x00, 0x88, 0x0b, 0x00, 0x00,
  0x14, 0x0b, 0x00, 0x00, 0xb4, 0x0a, 0x00, 0x00, 0x4c, 0x08, 0x00, 0x00,
  0xc4, 0x07, 0x00, 0x00, 0xac, 0x00, 0x00, 0x00, 0xa4, 0x00, 0x00, 0x00,
  0x9c, 0x00, 0x00, 0x00, 0x94, 0x00, 0x00, 0x00, 0x8c, 0x00, 0x00, 0x00,
  0x6c, 0x00, 0x00, 0x00, 0x04, 0x00, 0x00, 0x00, 0xf2, 0xf3, 0xff, 0xff,
  0x04, 0x00, 0x00, 0x00, 0x58, 0x00, 0x00, 0x00, 0x0c, 0x00, 0x00, 0x00,
  0x08, 0x00, 0x0e, 0x00, 0x08, 0x00, 0x04, 0x00, 0x08, 0x00, 0x00, 0x00,
  0x10, 0x00, 0x00, 0x00, 0x28, 0x00, 0x00, 0x00, 0x00, 0x00, 0x06, 0x00,
  0x08, 0x00, 0x04, 0x00, 0x06, 0x00, 0x00, 0x00, 0x04, 0x00, 0x00, 0x00,
  0x01, 0x00, 0x00, 0x00, 0xeb, 0x03, 0x00, 0x00, 0x00, 0x00, 0x0a, 0x00,
  0x10, 0x00, 0x0c, 0x00, 0x08, 0x00, 0x04, 0x00, 0x0a, 0x00, 0x00, 0x00,
  0x03, 0x00, 0x00, 0x00, 0x02, 0x00, 0x00, 0x00, 0x04, 0x00, 0x00, 0x00,
  0x06, 0x00, 0x00, 0x00, 0x32, 0x2e, 0x31, 0x31, 0x2e, 0x31, 0x00, 0x00,
  0x56, 0xf4, 0xff, 0xff, 0x04, 0x00, 0x00, 0x00, 0x10, 0x00, 0x00, 0x00,
  0x31, 0x2e, 0x31, 0x34, 0x2e, 0x30, 0x00, 0x00, 0x00, 0x00, 0x00, 0x00,
  0x00, 0x00, 0x00, 0x00, 0x40, 0xf4, 0xff, 0xff, 0x44, 0xf4, 0xff, 0xff,
  0x48, 0xf4, 0xff, 0xff, 0x4c, 0xf4, 0xff, 0xff, 0x82, 0xf4, 0xff, 0xff,
  0x04, 0x00, 0x00, 0x00, 0x08, 0x07, 0x00, 0x00, 0xe8, 0x1c, 0x34, 0xc7,
  0x1d, 0xe4, 0x98, 0xaa, 0x8e, 0xbf, 0x47, 0xde, 0xe8, 0x0f, 0x00, 0xc0,
  0xb9, 0xea, 0xe0, 0x2e, 0x0f, 0xb8, 0xdc, 0x42, 0xea, 0xb9, 0xd0, 0x20,
  0xd0, 0xe3, 0x53, 0x00, 0xee, 0x25, 0xe5, 0xf8, 0xd4, 0x47, 0x49, 0x17,
  0xf7, 0xf3, 0xbf, 0x14, 0x1c, 0x08, 0xea, 0x1f, 0xc7, 0xd7, 0xbb, 0x20,
  0x0a, 0x39, 0xf4, 0x00, 0xd5, 0x19, 0xea, 0xd5, 0xc6, 0x1d, 0x0e, 0xc5,
  0x2c, 0xf8, 0x52, 0x4d, 0x31, 0x63, 0xce, 0xfc, 0x33, 0xfe, 0xfc, 0x3e,
  0x21, 0x19, 0x27, 0x3c, 0xed, 0x01, 0x32, 0x06, 0xbf, 0x0b, 0xda, 0x18,
  0x3d, 0xf8, 0xd6, 0xfd, 0xf6, 0xe4, 0xd4, 0x15, 0xfd, 0x25, 0x31, 0x0e,
  0xf2, 0x2e, 0xf0, 0x2e, 0x29, 0xf1, 0xeb, 0xce, 0x2a, 0xda, 0x3b, 0x1c,
  0x12, 0x10, 0xd6, 0xd0, 0x34, 0xcb, 0xd7, 0x09, 0x20, 0xcb, 0xd8, 0x31,
  0x3f, 0x8f, 0xec, 0xc5, 0xd1, 0x14, 0x30, 0x08, 0xe0, 0xf9, 0xc0, 0xe2,
  0x10, 0xf5, 0x37, 0x4e, 0xd8, 0xf8, 0xd3, 0x3d, 0xe4, 0xcf, 0xc9, 0xf8,
  0xc8, 0xe7, 0xf4, 0x7f, 0x0c, 0x43, 0xf2, 0xb8, 0x1c, 0xc4, 0x27, 0xfc,
  0x2a, 0xc2, 0x17, 0x12, 0x15, 0xe9, 0xc4, 0xe8, 0xe4, 0x0f, 0xb7, 0xee,
  0xe8, 0xc8, 0xd1, 0x13, 0xed, 0x29, 0xe7, 0xf2, 0xbe, 0xb1, 0x34, 0x3b,
  0xe7, 0x36, 0xb8, 0x07, 0x11, 0x06, 0xdc, 0xca, 0x1a, 0xdb, 0x0b, 0xe7,
  0x10, 0xa2, 0x14, 0xe5, 0xde, 0xb8, 0xea, 0xde, 0x2d, 0xfa, 0x2c, 0x41,
  0xfe, 0xc0, 0xc7, 0xf8, 0x38, 0x2d, 0x0a, 0xc5, 0x06, 0xdb, 0xb2, 0x1a,
  0x3f, 0xf8, 0x34, 0x32, 0x35, 0x36, 0xc1, 0xc2, 0xd7, 0xf1, 0x00, 0xec,
  0x1e, 0xd1, 0x1c, 0xdf, 0xe5, 0x04, 0xde, 0xf5, 0x45, 0xd1, 0xde, 0x04,
  0x4e, 0x2f, 0x3a, 0x4d, 0x02, 0x73, 0x20, 0xc3, 0xd5, 0xc9, 0x48, 0xde,
  0xe7, 0xd6, 0x2c, 0x2d, 0x19, 0xcd, 0xb6, 0xed, 0xde, 0x08, 0x23, 0xb5,
  0xc3, 0x32, 0xca, 0x07, 0xe6, 0xd3, 0x23, 0x10, 0xeb, 0xcf, 0x2a, 0x40,
  0xc5, 0x37, 0x3f, 0x00, 0xcf, 0x23, 0xe5, 0xfe, 0x25, 0xe0, 0x1e, 0xc7,
  0xdd, 0x10, 0xe9, 0xd4, 0x24, 0xd0, 0xd2, 0xd3, 0xea, 0x44, 0xec, 0xc4,
  0x17, 0x08, 0x05, 0x10, 0xae, 0x34, 0xfb, 0xff, 0xf7, 0x1c, 0xb3, 0xd4,
  0x2f, 0xf6, 0xfc, 0x12, 0xf1, 0xe8, 0xd3, 0xf1, 0x13, 0xb8, 0x3c, 0x25,
  0xcf, 0xdb, 0xb0, 0xae, 0x14, 0x29, 0xea, 0x2f, 0x1f, 0xd3, 0xf4, 0xc6,
  0x0a, 0xd7, 0xef, 0x0d, 0xe7, 0xc3, 0x14, 0xb3, 0x2c, 0x41, 0xd4, 0x00,
  0x2a, 0x20, 0x2d, 0x0a, 0xf3, 0x39, 0xfd, 0x30, 0x26, 0xd2, 0xef, 0x31,
  0xeb, 0xe4, 0x09, 0xc3, 0x07, 0x24, 0xf7, 0xe2, 0x43, 0xd7, 0xfd, 0x05,
  0xcc, 0xcd, 0xa9, 0xba, 0x2e, 0xfb, 0x01, 0xd2, 0xb9, 0xc1, 0x3f, 0xfc,
  0xf8, 0x31, 0xc8, 0x3b, 0x05, 0xdb, 0x39, 0xf1, 0x0e, 0xaf, 0x2c, 0x26,
  0xcc, 0x4e, 0xe5, 0xd7, 0xde, 0xeb, 0xdb, 0xbf, 0xe2, 0x34, 0x10, 0xe5,
  0x2d, 0x01, 0x2a, 0xa3, 0xc6, 0x29, 0x0c, 0x3e, 0x49, 0x47, 0x53, 0x45,
  0x39, 0x4e, 0x5a, 0xee, 0x04, 0x59, 0xc1, 0xf6, 0xd2, 0xf9, 0xe0, 0xd6,
  0xf7, 0xe8, 0x26, 0xe9, 0x19, 0xd9, 0x9f, 0x1e, 0xf7, 0xe6, 0xf6, 0xcf,
  0x54, 0xfa, 0xfc, 0x1c, 0xf6, 0x29, 0xe9, 0x3a, 0xe3, 0xba, 0x1b, 0xef,
  0xe2, 0xc8, 0xe1, 0xf8, 0xed, 0xda, 0x2b, 0x2b, 0xf2, 0x33, 0x1b, 0x9a,
  0xd8, 0xdb, 0xac, 0xb4, 0x0c, 0x2e, 0x0b, 0x12, 0x26, 0xf7, 0xf5, 0x2b,
  0xe5, 0xf2, 0xe6, 0xc6, 0xfd, 0xb1, 0xe0, 0xf0, 0x49, 0x29, 0x32, 0xd4,
  0x28, 0xc4, 0xf4, 0xbd, 0x31, 0xda, 0x17, 0x50, 0xbc, 0xe0, 0x14, 0xdc,
  0xc9, 0x23, 0x1f, 0x35, 0xf0, 0xd7, 0xc3, 0x16, 0x17, 0xc5, 0x1a, 0xde,
  0x3e, 0xda, 0xd9, 0x21, 0x24, 0xd1, 0xe8, 0x30, 0x18, 0xe7, 0xcf, 0x42,
  0xdf, 0x1c, 0xbf, 0x3e, 0x28, 0xff, 0x0e, 0xe8, 0xd2, 0x49, 0xee, 0xf9,
  0xc6, 0x02, 0xbb, 0xdc, 0xc8, 0x10, 0x47, 0xb3, 0x3f, 0x21, 0x3a, 0x42,
  0x4f, 0x14, 0x28, 0x20, 0xef, 0xed, 0x26, 0x0d, 0x2c, 0x10, 0x14, 0xdc,
  0xe3, 0x23, 0xd3, 0xb3, 0x3f, 0x0b, 0x4b, 0xc7, 0xe1, 0xe7, 0x11, 0xd2,
  0xb7, 0x14, 0x40, 0xd0, 0xd5, 0xca, 0x13, 0xae, 0x38, 0xf2, 0xcb, 0xb3,
  0xa0, 0xe4, 0x3c, 0x04, 0xcf, 0x12, 0xd3, 0x06, 0x38, 0xeb, 0xd2, 0x13,
  0x1c, 0x07, 0x0c, 0x04, 0x19, 0xe5, 0xd5, 0x37, 0x21, 0x34, 0x1a, 0xfa,
  0x22, 0xce, 0xd6, 0xae, 0xab, 0x17, 0x09, 0x1b, 0xf4, 0xe2, 0x0c, 0xf5,
  0x03, 0xb4, 0x1f, 0x3d, 0x3f, 0xef, 0xd9, 0xe1, 0x23, 0x2e, 0xd4, 0x1c,
  0xe1, 0x0e, 0x36, 0xe7, 0xf3, 0x18, 0xee, 0xa3, 0xd0, 0xd6, 0x13, 0x1e,
  0x1f, 0x13, 0xe5, 0xf3, 0xc9, 0xa7, 0xff, 0xb0, 0xe8, 0x42, 0xec, 0x03,
  0x3e, 0x11, 0xe4, 0x11, 0x1c, 0x1f, 0x0d, 0x0b, 0x37, 0xf2, 0xfc, 0xe2,
  0x00, 0xe1, 0x15, 0xbe, 0xe6, 0x23, 0xf7, 0xe1, 0xd4, 0xfa, 0x0f, 0xc9,
  0x2e, 0x13, 0xd9, 0xc4, 0xbc, 0xbc, 0x34, 0xd5, 0x32, 0xb0, 0xe9, 0xc0,
  0x23, 0xef, 0xf2, 0xfd, 0x35, 0x1e, 0xea, 0xd0, 0xd3, 0x06, 0xff, 0xd7,
  0x1b, 0xf2, 0x47, 0xf7, 0xba, 0xee, 0x18, 0xea, 0xd2, 0xc2, 0xee, 0xcf,
  0xde, 0x3a, 0x19, 0x01, 0x00, 0xda, 0x2b, 0x49, 0x33, 0x2e, 0x13, 0xbe,
  0x11, 0x2c, 0xcc, 0xbf, 0xda, 0x3b, 0x2b, 0xd7, 0x38, 0x1c, 0xc8, 0x16,
  0xbc, 0x10, 0xde, 0xcb, 0xfc, 0x19, 0xd5, 0x0f, 0xde, 0x12, 0x1f, 0xf9,
  0xe1, 0xf7, 0x36, 0x1a, 0x2a, 0xfe, 0x43, 0xcc, 0x2f, 0x02, 0xa9, 0x26,
  0xd6, 0x09, 0x13, 0x00, 0x40, 0xf8, 0xe5, 0x0b, 0x1c, 0xb9, 0x01, 0x32,
  0xca, 0x35, 0x1a, 0x37, 0x60, 0x32, 0xe4, 0xdd, 0xda, 0xd5, 0xb5, 0xfa,
  0xf4, 0xdb, 0x4a, 0x3c, 0x1f, 0x26, 0x90, 0x10, 0x21, 0x15, 0xf4, 0x2d,
  0x49, 0x4c, 0xed, 0xe5, 0x2d, 0xd4, 0x18, 0xc7, 0x56, 0xd7, 0x42, 0x07,
  0x0a, 0x48, 0xd4, 0xd3, 0x59, 0xca, 0x37, 0xce, 0x10, 0xfc, 0xd1, 0x5c,
  0x0b, 0x1c, 0x32, 0xde, 0x27, 0xef, 0x2d, 0xd6, 0x3e, 0xf0, 0x1f, 0xc4,
  0xe3, 0xe6, 0x12, 0x08, 0xd9, 0xe1, 0xf7, 0x3f, 0x35, 0xe5, 0x2a, 0x04,
  0xc9, 0x36, 0xd4, 0xd7, 0x4c, 0x3d, 0x1f, 0xd0, 0xb9, 0x12, 0xc2, 0x10,
  0xbe, 0x23, 0x3a, 0x4f, 0xbc, 0x27, 0x2f, 0x05, 0xdd, 0x3f, 0xff, 0x39,
  0x06, 0x2e, 0x37, 0x23, 0x4f, 0xc7, 0x2b, 0x18, 0x39, 0x20, 0x1a, 0xde,
  0x03, 0x37, 0x22, 0xd2, 0x17, 0x18, 0x10, 0xf4, 0x23, 0x14, 0xaa, 0xcf,
  0xfd, 0x1d, 0x2d, 0x0f, 0x18, 0x3a, 0x44, 0x16, 0x10, 0xc6, 0x24, 0xee,
  0x16, 0x1c, 0xf0, 0x3c, 0x16, 0x2d, 0xff, 0xb5, 0xea, 0x21, 0x3d, 0x18,
  0x1f, 0x1a, 0xd7, 0xd4, 0xbd, 0x3e, 0x01, 0xee, 0x26, 0x23, 0x15, 0x05,
  0x2b, 0x36, 0xf6, 0xf6, 0xf5, 0x59, 0x4a, 0xfe, 0x4e, 0xd6, 0x4c, 0xd4,
  0x34, 0xde, 0xf1, 0x4e, 0x62, 0x1d, 0x28, 0xfd, 0x17, 0xfb, 0xdd, 0xe0,
  0xfa, 0xf9, 0xd8, 0x04, 0x10, 0x14, 0x17, 0xe7, 0x25, 0x00, 0xe8, 0x3e,
  0x3a, 0x5e, 0x44, 0x1c, 0x26, 0xf4, 0xdc, 0x46, 0x16, 0xe6, 0x1a, 0x29,
  0x21, 0xf2, 0xbb, 0xc3, 0xe7, 0xe7, 0xda, 0x08, 0xd7, 0xee, 0xd1, 0xc8,
  0xfe, 0x31, 0xe8, 0x27, 0xdf, 0xc2, 0x31, 0x3d, 0xd3, 0x05, 0x51, 0x28,
  0xef, 0x55, 0x4c, 0x20, 0xf7, 0x18, 0xc6, 0xd4, 0xe9, 0x03, 0x32, 0x14,
  0xeb, 0xd8, 0xe5, 0x35, 0xcf, 0xbb, 0xdc, 0xcd, 0x4c, 0x41, 0xfa, 0xe3,
  0xbb, 0xd7, 0xfb, 0xda, 0xec, 0xf0, 0x32, 0xae, 0x2b, 0x24, 0xc2, 0x0e,
  0x40, 0x05, 0xd0, 0xc4, 0xe8, 0xdd, 0xf3, 0xf8, 0x02, 0xae, 0xae, 0xa7,
  0x0e, 0x22, 0x2e, 0x1a, 0x14, 0xdb, 0xe4, 0xfd, 0x20, 0xf8, 0xff, 0x35,
  0x22, 0x46, 0xcf, 0xeb, 0x0b, 0x03, 0xff, 0xd5, 0xc3, 0x2a, 0xbb, 0x28,
  0xd4, 0xf9, 0xe6, 0x28, 0xc2, 0x0a, 0xd9, 0xe1, 0xdb, 0x3d, 0x38, 0x1b,
  0xdf, 0x2f, 0xea, 0xc2, 0x1d, 0xf7, 0xc2, 0xea, 0x11, 0xd0, 0xe6, 0xda,
  0xd4, 0xc1, 0xf3, 0xfa, 0xc8, 0xbe, 0xc7, 0xd5, 0x2d, 0x0a, 0xd5, 0xe8,
  0xe8, 0x38, 0x34, 0xbc, 0x3a, 0x2a, 0x3d, 0xec, 0x34, 0xec, 0x12, 0xe1,
  0xed, 0xdc, 0x20, 0xe1, 0x24, 0xff, 0x09, 0x28, 0x17, 0xd1, 0xe2, 0x4a,
  0x10, 0xe9, 0x46, 0xe8, 0x12, 0xad, 0xd9, 0x63, 0xc9, 0x0c, 0xb8, 0x42,
  0x00, 0x09, 0xdd, 0x0f, 0xe7, 0xce, 0xd4, 0x2b, 0xa9, 0x1e, 0x15, 0x3f,
  0x2a, 0xfb, 0xc2, 0x05, 0x08, 0x41, 0x17, 0xa1, 0xf9, 0x05, 0xa0, 0xf1,
  0xf9, 0xe7, 0x15, 0x05, 0xc7, 0xcc, 0xd7, 0x34, 0xed, 0xea, 0x43, 0xff,
  0xdc, 0x40, 0xea, 0xc9, 0xd7, 0xbd, 0xe3, 0xf9, 0xed, 0x03, 0x1c, 0xf5,
  0xd2, 0xda, 0xf3, 0xf5, 0xb6, 0xef, 0x11, 0x28, 0xe5, 0xcb, 0x2f, 0x3f,
  0x36, 0xdf, 0xd9, 0x3b, 0x1b, 0xd9, 0xaf, 0x4b, 0x3b, 0xd8, 0x28, 0x04,
  0xf3, 0xf1, 0xee, 0xd6, 0xef, 0xf7, 0x20, 0xf5, 0x1d, 0xc6, 0x48, 0xea,
  0xe8, 0x2a, 0x09, 0xc7, 0xff, 0x0f, 0x09, 0x03, 0xeb, 0xef, 0x33, 0xd1,
  0x4b, 0xed, 0xfa, 0xb9, 0xed, 0xdd, 0xc1, 0xd2, 0x00, 0x0e, 0xe5, 0xcd,
  0x24, 0x42, 0xd3, 0x37, 0x09, 0xd9, 0x4c, 0x17, 0xe2, 0xe0, 0x16, 0x1a,
  0x37, 0x30, 0xf8, 0x2b, 0x49, 0x0b, 0x15, 0xdf, 0xe0, 0x20, 0xe9, 0x36,
  0x38, 0xe1, 0x3f, 0x3a, 0xe2, 0xd0, 0x12, 0x28, 0xc2, 0x2a, 0x3d, 0xce,
  0x54, 0x0a, 0xda, 0x2a, 0xbe, 0x17, 0x5c, 0x23, 0x09, 0x48, 0xfa, 0x3a,
  0x4c, 0x20, 0xe5, 0xec, 0x08, 0xda, 0x15, 0x30, 0xee, 0xe3, 0x1d, 0xcf,
  0x2c, 0xb7, 0xbe, 0xbe, 0xf0, 0xbf, 0x0d, 0x00, 0x14, 0x17, 0x0d, 0x20,
  0xe3, 0xee, 0xc7, 0xe8, 0x32, 0xc3, 0xf7, 0x26, 0xe6, 0xd5, 0x2a, 0x15,
  0xf7, 0xb4, 0xe1, 0x1e, 0x05, 0x3e, 0xfd, 0x0b, 0xbc, 0xc6, 0xfb, 0x0e,
  0xfb, 0xde, 0xe4, 0x12, 0xc1, 0x1a, 0x0f, 0xed, 0x44, 0x19, 0xcd, 0x64,
  0xe0, 0x09, 0xf8, 0x27, 0xf3, 0xb4, 0xbf, 0x1a, 0x2b, 0xfd, 0xef, 0x42,
  0x39, 0xf1, 0x3c, 0x1e, 0x39, 0xff, 0xd8, 0xca, 0x25, 0xe6, 0xf8, 0xfa,
  0x33, 0xf0, 0x5c, 0x16, 0x24, 0xbf, 0x38, 0x2d, 0xd6, 0x36, 0xd0, 0x29,
  0x3b, 0x42, 0x0c, 0x20, 0x15, 0x1f, 0xf5, 0xdb, 0xd0, 0x12, 0xef, 0xf9,
  0xfa, 0xd6, 0xe3, 0x3b, 0xce, 0xf3, 0x13, 0xe2, 0xc9, 0x18, 0xf0, 0xd2,
  0x2e, 0xef, 0x37, 0xe7, 0xd0, 0x2e, 0x24, 0xb6, 0x06, 0xc6, 0xc7, 0xcf,
  0xf2, 0x15, 0xe7, 0xb3, 0xe4, 0xc6, 0x1f, 0x16, 0xe4, 0x36, 0x03, 0x28,
  0xf7, 0xee, 0xb7, 0xe2, 0xca, 0xe5, 0xe4, 0xcf, 0xd6, 0x2d, 0xfd, 0x2d,
  0xde, 0xf0, 0x27, 0xc1, 0x2a, 0xe9, 0xcf, 0xe9, 0x3e, 0x3b, 0x39, 0xdf,
  0xbc, 0xe1, 0x04, 0x31, 0x33, 0xf2, 0xc9, 0xdb, 0x1b, 0x42, 0xdf, 0x11,
  0xec, 0x21, 0x33, 0xe1, 0xe4, 0x39, 0x36, 0x18, 0x34, 0xcc, 0xe9, 0x13,
  0x45, 0x19, 0xc0, 0x1b, 0x20, 0x21, 0xc2, 0x1f, 0x06, 0xc1, 0xf9, 0x1e,
  0xee, 0xe1, 0xdf, 0xda, 0xf9, 0xe7, 0x10, 0x0f, 0xd8, 0x12, 0x2f, 0xdf,
  0xed, 0x31, 0xcd, 0xef, 0x2c, 0x1d, 0x17, 0x3b, 0x29, 0x3c, 0x27, 0x3a,
  0xbe, 0x0d, 0xed, 0x1c, 0x37, 0x06, 0x40, 0x39, 0xcd, 0x1c, 0xf8, 0x10,
  0x00, 0xcf, 0xde, 0x41, 0xcb, 0x07, 0x44, 0x45, 0xe6, 0xd1, 0xb9, 0x07,
  0x25, 0x0b, 0xf0, 0xc4, 0xe2, 0xa1, 0x04, 0x04, 0x45, 0xe6, 0xf3, 0xf3,
  0x10, 0x04, 0x4a, 0x59, 0xe0, 0x34, 0xbb, 0xec, 0x16, 0x09, 0x1a, 0x11,
  0x0d, 0xff, 0x74, 0xb3, 0xf3, 0x29, 0xd0, 0xd5, 0xeb, 0xf7, 0x15, 0xbc,
  0x31, 0xd9, 0x0d, 0x33, 0x30, 0x17, 0x29, 0x0a, 0x31, 0x37, 0x3d, 0x0d,
  0xd5, 0x1f, 0xf7, 0xe4, 0xd3, 0xee, 0xcf, 0xd5, 0xc3, 0x46, 0x36, 0xea,
  0x14, 0x1f, 0xfe, 0x44, 0x26, 0xd5, 0xef, 0x12, 0x3b, 0x32, 0xec, 0x53,
  0x52, 0xf1, 0xcf, 0xe2, 0x43, 0x0e, 0xe0, 0x4e, 0x17, 0x37, 0xf8, 0xef,
  0x48, 0x25, 0x07, 0x4d, 0x1e, 0xde, 0xe3, 0x24, 0xd7, 0x35, 0x31, 0xe1,
  0xec, 0x22, 0x22, 0x25, 0xd5, 0x14, 0xd1, 0xe5, 0x1b, 0x1d, 0xed, 0xbc,
  0x20, 0xca, 0x26, 0x0d, 0xc2, 0xe6, 0x2f, 0x22, 0x60, 0x3f, 0xde, 0x10,
  0xdc, 0x21, 0x2e, 0x01, 0x1f, 0xfc, 0x0c, 0xfc, 0xf6, 0xed, 0x41, 0x3b,
  0x34, 0x12, 0x4b, 0xd0, 0xbf, 0xdd, 0xb7, 0x47, 0x43, 0xd2, 0xe5, 0x15,
  0xf6, 0x20, 0xbe, 0x18, 0x0e, 0xfb, 0x1c, 0xbc, 0x09, 0xb6, 0xe0, 0x27,
  0xf6, 0xdc, 0x1f, 0xe2, 0x13, 0xe4, 0xc1, 0x0f, 0xb5, 0xa7, 0xe1, 0xe8,
  0x50, 0x2c, 0xdf, 0xf0, 0x15, 0x34, 0x1e, 0xcb, 0x34, 0x0d, 0xd2, 0xfa,
  0xfa, 0x47, 0xe6, 0x57, 0xf9, 0xfe, 0x00, 0xe2, 0xb8, 0xeb, 0xf0, 0xe0,
  0x4b, 0xe9, 0x10, 0x49, 0x08, 0x3b, 0x2a, 0x2f, 0x3b, 0x20, 0x28, 0xe8,
  0x26, 0x20, 0x36, 0x15, 0xba, 0x1d, 0x9f, 0x0f, 0x03, 0x1c, 0xbd, 0x34,
  0xeb, 0xd3, 0x07, 0x07, 0xca, 0xc2, 0xcc, 0x28, 0xfa, 0xe1, 0x5c, 0xcc,
  0x43, 0x4b, 0xc7, 0xbd, 0x33, 0x3a, 0x18, 0xfb, 0x96, 0xfb, 0xff, 0xff,
  0x04, 0x00, 0x00, 0x00, 0x78, 0x00, 0x00, 0x00, 0xad, 0xff, 0xff, 0xff,
  0xc7, 0xff, 0xff, 0xff, 0x34, 0x00, 0x00, 0x00, 0xee, 0xff, 0xff, 0xff,
  0xd6, 0xff, 0xff, 0xff, 0xf8, 0xff, 0xff, 0xff, 0x84, 0xff, 0xff, 0xff,
  0xbe, 0x00, 0x00, 0x00, 0xa2, 0x00, 0x00, 0x00, 0x3a, 0x00, 0x00, 0x00,
  0xc4, 0xff, 0xff, 0xff, 0xa6, 0xff, 0xff, 0xff, 0x40, 0xff, 0xff, 0xff,
  0x54, 0x00, 0x00, 0x00, 0x90, 0xff, 0xff, 0xff, 0x1f, 0x00, 0x00, 0x00,
  0x5d, 0x01, 0x00, 0x00, 0xdf, 0xff, 0xff, 0xff, 0xe5, 0xff, 0xff, 0xff,
  0x85, 0x01, 0x00, 0x00, 0x92, 0x00, 0x00, 0x00, 0xdb, 0xff, 0xff, 0xff,
  0x6e, 0x00, 0x00, 0x00, 0x65, 0x00, 0x00, 0x00, 0x96, 0xff, 0xff, 0xff,
  0x00, 0x00, 0x00, 0x00, 0xec, 0x00, 0x00, 0x00, 0x3f, 0x00, 0x00, 0x00,
  0xc4, 0x00, 0x00, 0x00, 0xfe, 0x00, 0x00, 0x00, 0x1a, 0xfc, 0xff, 0xff,
  0x04, 0x00, 0x00, 0x00, 0x58, 0x02, 0x00, 0x00, 0x34, 0xea, 0x7a, 0x61,
  0x06, 0x2d, 0x2f, 0x32, 0x0f, 0xe6, 0x4d, 0x35, 0xc2, 0x43, 0xdf, 0x2d,
  0xaf, 0x52, 0xeb, 0x27, 0x1c, 0xd0, 0x04, 0x18, 0xef, 0xd4, 0xd6, 0xfb,
  0x1c, 0xc6, 0xb1, 0x2d, 0x3a, 0xd6, 0xe8, 0xd8, 0x24, 0x6e, 0xd1, 0xd8,
  0xfa, 0xb5, 0x49, 0xec, 0xcf, 0x5c, 0xe8, 0xff, 0xe2, 0x2f, 0x1a, 0x01,
  0xad, 0x31, 0x4a, 0xba, 0xeb, 0x14, 0x32, 0x47, 0xea, 0xfa, 0xe0, 0xe6,
  0xdd, 0x17, 0xec, 0xd3, 0x37, 0xbb, 0xdf, 0xf6, 0x4a, 0xe2, 0xf5, 0x03,
  0xe2, 0x0e, 0xe7, 0xb2, 0x36, 0x43, 0x3b, 0xb2, 0x42, 0xe2, 0x35, 0x39,
  0xd7, 0x24, 0x42, 0x5c, 0xc2, 0xf1, 0x08, 0x66, 0xc8, 0xee, 0x00, 0x62,
  0x5c, 0xdc, 0x28, 0x27, 0x02, 0x4d, 0x2a, 0x25, 0xc6, 0x0b, 0xc8, 0x00,
  0xc6, 0x10, 0xc8, 0x2d, 0xca, 0xce, 0xed, 0xe9, 0xe7, 0xbd, 0xaa, 0xe5,
  0xd2, 0x52, 0xf8, 0x0c, 0xd0, 0x34, 0xcb, 0x3f, 0xef, 0x03, 0x37, 0x2d,
  0xce, 0x27, 0xd7, 0xfc, 0xde, 0x5d, 0xde, 0xf1, 0x4f, 0xdd, 0x49, 0x26,
  0xf3, 0x12, 0x9a, 0xe3, 0xf3, 0x07, 0xcb, 0x1e, 0x02, 0x20, 0x01, 0xd9,
  0xba, 0x2d, 0xe7, 0x0f, 0x1d, 0xb6, 0x1b, 0x2d, 0xc9, 0x28, 0x41, 0xe0,
  0xbb, 0xd5, 0xf9, 0x3a, 0xf2, 0x59, 0x31, 0x2f, 0x6c, 0xd2, 0x29, 0x12,
  0xd7, 0x21, 0xde, 0xcf, 0x40, 0x0d, 0x08, 0x18, 0x34, 0xb0, 0xba, 0xc9,
  0x01, 0x41, 0x03, 0x5c, 0x00, 0x02, 0x12, 0x26, 0xd5, 0x37, 0x66, 0xea,
  0xa5, 0xdc, 0xda, 0x17, 0x0d, 0x31, 0x4f, 0xb8, 0x36, 0xf1, 0x33, 0xf8,
  0xff, 0xd0, 0x22, 0xf1, 0xc1, 0xd8, 0x4d, 0xb6, 0x0f, 0x56, 0x46, 0x2d,
  0xc3, 0xd3, 0x28, 0xb6, 0x04, 0xc6, 0x49, 0xe8, 0x1b, 0x31, 0x55, 0xad,
  0xf1, 0x5e, 0xfe, 0x0b, 0xc0, 0xee, 0xfc, 0x12, 0x48, 0x27, 0x09, 0xd4,
  0x15, 0xae, 0x0d, 0xe2, 0xb6, 0xeb, 0x32, 0x3d, 0x23, 0x17, 0xe7, 0xfd,
  0x1b, 0x3b, 0x1a, 0xf1, 0x31, 0xf3, 0x31, 0xd7, 0xc8, 0x25, 0xf1, 0xfc,
  0x4f, 0xb9, 0x19, 0xd8, 0x13, 0x1e, 0xe6, 0xbf, 0xff, 0xe6, 0x49, 0xfe,
  0xb0, 0xf0, 0xf1, 0xfe, 0x28, 0x06, 0xbe, 0xb5, 0xd9, 0x06, 0x00, 0xc9,
  0xcc, 0x0d, 0x59, 0xb9, 0xfd, 0x0d, 0xba, 0x0f, 0x18, 0x4c, 0x39, 0x2f,
  0xd5, 0xbc, 0xff, 0xcf, 0x27, 0xec, 0xca, 0x1b, 0x44, 0xca, 0x5f, 0xc3,
  0xdd, 0x34, 0xb5, 0x2a, 0xef, 0xb8, 0x17, 0xd7, 0x19, 0x4a, 0x21, 0x06,
  0xd7, 0x28, 0x1a, 0xd8, 0xdb, 0xfb, 0xca, 0xe9, 0x25, 0x16, 0x4c, 0x29,
  0x0e, 0xe5, 0x22, 0x22, 0x20, 0x27, 0x1a, 0xd3, 0xba, 0x38, 0xe7, 0x07,
  0xff, 0x04, 0xe3, 0xf6, 0xc8, 0xbb, 0x33, 0xb7, 0xe1, 0x32, 0x41, 0x34,
  0x38, 0x2e, 0x11, 0x36, 0xde, 0x4d, 0x37, 0xbc, 0x27, 0xda, 0x7f, 0x0f,
  0xe9, 0xf8, 0xf3, 0x09, 0x4b, 0xde, 0x46, 0x36, 0xb3, 0x18, 0xd3, 0x33,
  0x36, 0xe2, 0xc1, 0x22, 0x22, 0x45, 0x31, 0xf4, 0x32, 0xe5, 0xf8, 0xe1,
  0x11, 0x3b, 0xfa, 0x07, 0xea, 0x44, 0xd2, 0x3d, 0x3d, 0xec, 0x1e, 0x11,
  0x35, 0x3d, 0x0d, 0x9a, 0x47, 0x39, 0xf8, 0xc8, 0xcd, 0x34, 0xd9, 0x37,
  0x1e, 0x38, 0xc7, 0xea, 0xe7, 0x0e, 0xb9, 0x1e, 0x15, 0xf4, 0xfd, 0x40,
  0x28, 0xf6, 0x34, 0x14, 0x9a, 0x39, 0xdd, 0x28, 0x47, 0xd4, 0x1d, 0xea,
  0x50, 0x04, 0x16, 0xfd, 0xcf, 0x36, 0x8f, 0x36, 0x16, 0x41, 0xd3, 0xf6,
  0x33, 0xc4, 0xf0, 0xf7, 0x40, 0xb4, 0xcb, 0xfa, 0x45, 0xc6, 0x46, 0xe4,
  0x08, 0x19, 0xe9, 0xd0, 0xf0, 0xfd, 0xf0, 0xbf, 0x1a, 0x40, 0x40, 0x1f,
  0xe6, 0xdb, 0xf4, 0xad, 0x69, 0x26, 0x04, 0x2a, 0xbf, 0xf0, 0x4a, 0xf4,
  0xc1, 0x4b, 0x3d, 0x2c, 0x3e, 0xb3, 0xed, 0x4e, 0xef, 0x22, 0x03, 0x3b,
  0x29, 0xd4, 0x44, 0x51, 0xe0, 0xff, 0xcf, 0xcb, 0x44, 0xf3, 0x2e, 0xf3,
  0xcd, 0xd7, 0xe1, 0xbd, 0xc4, 0xb4, 0xed, 0x2e, 0x11, 0x29, 0x36, 0xe8,
  0x05, 0x21, 0xa3, 0x67, 0x33, 0xf0, 0xa4, 0x22, 0xc2, 0xae, 0xd7, 0x41,
  0x07, 0xbc, 0x4a, 0x56, 0xd4, 0xdb, 0x0c, 0x4d, 0x2b, 0x4f, 0xa4, 0x19,
  0x59, 0x5a, 0xe9, 0x02, 0x47, 0x02, 0xb1, 0x08, 0xda, 0xc0, 0x49, 0x49,
  0xaa, 0x10, 0xc8, 0xfc, 0xc7, 0xc4, 0x06, 0x55, 0xe9, 0x3f, 0x41, 0xc8,
  0x58, 0x5e, 0xf1, 0xe9, 0x23, 0x3e, 0xd2, 0x52, 0x7e, 0xfe, 0xff, 0xff,
  0x04, 0x00, 0x00, 0x00, 0x50, 0x00, 0x00, 0x00, 0xaf, 0xff, 0xff, 0xff,
  0xd5, 0xff, 0xff, 0xff, 0xb1, 0xff, 0xff, 0xff, 0x89, 0xff, 0xff, 0xff,
  0x54, 0x00, 0x00, 0x00, 0x49, 0x01, 0x00, 0x00, 0x11, 0x01, 0x00, 0x00,
  0xc1, 0x00, 0x00, 0x00, 0xbb, 0x00, 0x00, 0x00, 0xbb, 0xff, 0xff, 0xff,
  0x11, 0x00, 0x00, 0x00, 0xf1, 0x00, 0x00, 0x00, 0x2f, 0x01, 0x00, 0x00,
  0x92, 0xff, 0xff, 0xff, 0xf2, 0xff, 0xff, 0xff, 0x4c, 0xff, 0xff, 0xff,
  0x1b, 0x00, 0x00, 0x00, 0x22, 0x00, 0x00, 0x00, 0x7c, 0x00, 0x00, 0x00,
  0x72, 0x01, 0x00, 0x00, 0xda, 0xfe, 0xff, 0xff, 0x04, 0x00, 0x00, 0x00,
  0x64, 0x00, 0x00, 0x00, 0x2c, 0xec, 0xd7, 0x48, 0xbd, 0xfc, 0x37, 0xc2,
  0x35, 0x0e, 0x06, 0xb1, 0xa4, 0x39, 0xe1, 0xb2, 0x2b, 0xf1, 0x30, 0x22,
  0x20, 0x5d, 0xfb, 0xef, 0xad, 0x61, 0xc1, 0x29, 0x4d, 0x27, 0x8c, 0x0a,
  0x22, 0x4f, 0xb1, 0xe7, 0xa3, 0x2f, 0x3b, 0xf7, 0xad, 0xea, 0xdb, 0xb7,
  0xaa, 0x37, 0x67, 0x0d, 0x1a, 0x1c, 0x59, 0x19, 0x48, 0x0b, 0xb3, 0x4b,
  0x41, 0xca, 0x0d, 0x48, 0x04, 0x4f, 0xb0, 0x45, 0xe6, 0xf5, 0xc3, 0xd3,
  0xd9, 0xdd, 0xf6, 0x27, 0x65, 0x32, 0x25, 0x2b, 0x47, 0xbf, 0xa0, 0xb0,
  0x44, 0xb5, 0xb2, 0x15, 0xa5, 0xe6, 0x3c, 0x81, 0xfa, 0x32, 0x0a, 0x40,
  0xc5, 0x04, 0xa3, 0x69, 0xac, 0x0e, 0xb0, 0x06, 0x4a, 0xff, 0xff, 0xff,
  0x04, 0x00, 0x00, 0x00, 0x14, 0x00, 0x00, 0x00, 0x75, 0x00, 0x00, 0x00,
  0x9f, 0xff, 0xff, 0xff, 0xc3, 0x00, 0x00, 0x00, 0xab, 0xff, 0xff, 0xff,
  0x86, 0xff, 0xff, 0xff, 0x38, 0xff, 0xff, 0xff, 0x3c, 0xff, 0xff, 0xff,
  0x0f, 0x00, 0x00, 0x00, 0x4d, 0x4c, 0x49, 0x52, 0x20, 0x43, 0x6f, 0x6e,
  0x76, 0x65, 0x72, 0x74, 0x65, 0x64, 0x2e, 0x00, 0x01, 0x00, 0x00, 0x00,
  0x14, 0x00, 0x00, 0x00, 0x00, 0x00, 0x0e, 0x00, 0x18, 0x00, 0x14, 0x00,
  0x10, 0x00, 0x0c, 0x00, 0x08, 0x00, 0x04, 0x00, 0x0e, 0x00, 0x00, 0x00,
  0x14, 0x00, 0x00, 0x00, 0x1c, 0x00, 0x00, 0x00, 0x28, 0x01, 0x00, 0x00,
  0x2c, 0x01, 0x00, 0x00, 0x30, 0x01, 0x00, 0x00, 0x04, 0x00, 0x00, 0x00,
  0x6d, 0x61, 0x69, 0x6e, 0x00, 0x00, 0x00, 0x00, 0x04, 0x00, 0x00, 0x00,
  0xd0, 0x00, 0x00, 0x00, 0x88, 0x00, 0x00, 0x00, 0x50, 0x00, 0x00, 0x00,
  0x14, 0x00, 0x00, 0x00, 0x00, 0x00, 0x0e, 0x00, 0x1a, 0x00, 0x14, 0x00,
  0x10, 0x00, 0x0c, 0x00, 0x0b, 0x00, 0x04, 0x00, 0x0e, 0x00, 0x00, 0x00,
  0x1c, 0x00, 0x00, 0x00, 0x00, 0x00, 0x00, 0x09, 0x1c, 0x00, 0x00, 0x00,
  0x20, 0x00, 0x00, 0x00, 0x01, 0x00, 0x00, 0x00, 0x00, 0x00, 0x06, 0x00,
  0x08, 0x00, 0x04, 0x00, 0x06, 0x00, 0x00, 0x00, 0x00, 0x00, 0x80, 0x3f,
  0x01, 0x00, 0x00, 0x00, 0x0a, 0x00, 0x00, 0x00, 0x01, 0x00, 0x00, 0x00,
  0x09, 0x00, 0x00, 0x00, 0x96, 0xff, 0xff, 0xff, 0x14, 0x00, 0x00, 0x00,
  0x00, 0x00, 0x00, 0x08, 0x10, 0x00, 0x00, 0x00, 0x14, 0x00, 0x00, 0x00,
  0x04, 0x00, 0x04, 0x00, 0x04, 0x00, 0x00, 0x00, 0x01, 0x00, 0x00, 0x00,
  0x09, 0x00, 0x00, 0x00, 0x03, 0x00, 0x00, 0x00, 0x08, 0x00, 0x00, 0x00,
  0x02, 0x00, 0x00, 0x00, 0x01, 0x00, 0x00, 0x00, 0xca, 0xff, 0xff, 0xff,
  0x10, 0x00, 0x00, 0x00, 0x00, 0x00, 0x00, 0x08, 0x10, 0x00, 0x00, 0x00,
  0x14, 0x00, 0x00, 0x00, 0xba, 0xff, 0xff, 0xff, 0x00, 0x00, 0x00, 0x01,
  0x01, 0x00, 0x00, 0x00, 0x08, 0x00, 0x00, 0x00, 0x03, 0x00, 0x00, 0x00,
  0x07, 0x00, 0x00, 0x00, 0x04, 0x00, 0x00, 0x00, 0x03, 0x00, 0x00, 0x00,
  0x00, 0x00, 0x0e, 0x00, 0x16, 0x00, 0x00, 0x00, 0x10, 0x00, 0x0c, 0x00,
  0x0b, 0x00, 0x04, 0x00, 0x0e, 0x00, 0x00, 0x00, 0x18, 0x00, 0x00, 0x00,
  0x00, 0x00, 0x00, 0x08, 0x18, 0x00, 0x00, 0x00, 0x1c, 0x00, 0x00, 0x00,
  0x00, 0x00, 0x06, 0x00, 0x08, 0x00, 0x07, 0x00, 0x06, 0x00, 0x00, 0x00,
  0x00, 0x00, 0x00, 0x01, 0x01, 0x00, 0x00, 0x00, 0x07, 0x00, 0x00, 0x00,
  0x03, 0x00, 0x00, 0x00, 0x00, 0x00, 0x00, 0x00, 0x06, 0x00, 0x00, 0x00,
  0x05, 0x00, 0x00, 0x00, 0x01, 0x00, 0x00, 0x00, 0x0a, 0x00, 0x00, 0x00,
  0x01, 0x00, 0x00, 0x00, 0x00, 0x00, 0x00, 0x00, 0x0b, 0x00, 0x00, 0x00,
  0xf8, 0x04, 0x00, 0x00, 0x68, 0x04, 0x00, 0x00, 0xfc, 0x03, 0x00, 0x00,
  0x80, 0x03, 0x00, 0x00, 0x14, 0x03, 0x00, 0x00, 0xa0, 0x02, 0x00, 0x00,
  0x34, 0x02, 0x00, 0x00, 0x98, 0x01, 0x00, 0x00, 0xf4, 0x00, 0x00, 0x00,
  0x70, 0x00, 0x00, 0x00, 0x04, 0x00, 0x00, 0x00, 0x4a, 0xfb, 0xff, 0xff,
  0x00, 0x00, 0x00, 0x01, 0x14, 0x00, 0x00, 0x00, 0x30, 0x00, 0x00, 0x00,
  0x0b, 0x00, 0x00, 0x00, 0x00, 0x00, 0x00, 0x09, 0x44, 0x00, 0x00, 0x00,
  0x34, 0xfb, 0xff, 0xff, 0x08, 0x00, 0x00, 0x00, 0x10, 0x00, 0x00, 0x00,
  0x01, 0x00, 0x00, 0x00, 0x80, 0xff, 0xff, 0xff, 0xff, 0xff, 0xff, 0xff,
  0x01, 0x00, 0x00, 0x00, 0x00, 0x00, 0x80, 0x3b, 0x19, 0x00, 0x00, 0x00,
  0x53, 0x74, 0x61, 0x74, 0x65, 0x66, 0x75, 0x6c, 0x50, 0x61, 0x72, 0x74,
  0x69, 0x74, 0x69, 0x6f, 0x6e, 0x65, 0x64, 0x43, 0x61, 0x6c, 0x6c, 0x3a,
  0x30, 0x00, 0x00, 0x00, 0x02, 0x00, 0x00, 0x00, 0x01, 0x00, 0x00, 0x00,
  0x05, 0x00, 0x00, 0x00, 0xb2, 0xfb, 0xff, 0xff, 0x00, 0x00, 0x00, 0x01,
  0x14, 0x00, 0x00, 0x00, 0x30, 0x00, 0x00, 0x00, 0x0a, 0x00, 0x00, 0x00,
  0x00, 0x00, 0x00, 0x09, 0x5c, 0x00, 0x00, 0x00, 0x9c, 0xfb, 0xff, 0xff,
  0x08, 0x00, 0x00, 0x00, 0x10, 0x00, 0x00, 0x00, 0x01, 0x00, 0x00, 0x00,
  0xfc, 0xff, 0xff, 0xff, 0xff, 0xff, 0xff, 0xff, 0x01, 0x00, 0x00, 0x00,
  0xec, 0x8b, 0xe4, 0x3d, 0x32, 0x00, 0x00, 0x00, 0x73, 0x65, 0x71, 0x75,
  0x65, 0x6e, 0x74, 0x69, 0x61, 0x6c, 0x2f, 0x79, 0x5f, 0x70, 0x72, 0x65,
  0x64, 0x2f, 0x4d, 0x61, 0x74, 0x4d, 0x75, 0x6c, 0x3b, 0x73, 0x65, 0x71,
  0x75, 0x65, 0x6e, 0x74, 0x69, 0x61, 0x6c, 0x2f, 0x79, 0x5f, 0x70, 0x72,
  0x65, 0x64, 0x2f, 0x42, 0x69, 0x61, 0x73, 0x41, 0x64, 0x64, 0x00, 0x00,
  0x02, 0x00, 0x00, 0x00, 0x01, 0x00, 0x00, 0x00, 0x05, 0x00, 0x00, 0x00,
  0x32, 0xfc, 0xff, 0xff, 0x00, 0x00, 0x00, 0x01, 0x14, 0x00, 0x00, 0x00,
  0x34, 0x00, 0x00, 0x00, 0x09, 0x00, 0x00, 0x00, 0x00, 0x00, 0x00, 0x09,
  0x7c, 0x00, 0x00, 0x00, 0x1c, 0xfc, 0xff, 0xff, 0x08, 0x00, 0x00, 0x00,
  0x14, 0x00, 0x00, 0x00, 0x01, 0x00, 0x00, 0x00, 0x80, 0xff, 0xff, 0xff,
  0xff, 0xff, 0xff, 0xff, 0x00, 0x00, 0x00, 0x00, 0x01, 0x00, 0x00, 0x00,
  0x50, 0x0b, 0x8e, 0x3d, 0x4c, 0x00, 0x00, 0x00, 0x73, 0x65, 0x71, 0x75,
  0x65, 0x6e, 0x74, 0x69, 0x61, 0x6c, 0x2f, 0x64, 0x65, 0x6e, 0x73, 0x65,
  0x5f, 0x31, 0x2f, 0x4d, 0x61, 0x74, 0x4d, 0x75, 0x6c, 0x3b, 0x73, 0x65,
  0x71, 0x75, 0x65, 0x6e, 0x74, 0x69, 0x61, 0x6c, 0x2f, 0x64, 0x65, 0x6e,
  0x73, 0x65, 0x5f, 0x31, 0x2f, 0x52, 0x65, 0x6c, 0x75, 0x3b, 0x73, 0x65,
  0x71, 0x75, 0x65, 0x6e, 0x74, 0x69, 0x61, 0x6c, 0x2f, 0x64, 0x65, 0x6e,
  0x73, 0x65, 0x5f, 0x31, 0x2f, 0x42, 0x69, 0x61, 0x73, 0x41, 0x64, 0x64,
  0x00, 0x00, 0x00, 0x00, 0x02, 0x00, 0x00, 0x00, 0x01, 0x00, 0x00, 0x00,
  0x14, 0x00, 0x00, 0x00, 0xd2, 0xfc, 0xff, 0xff, 0x00, 0x00, 0x00, 0x01,
  0x14, 0x00, 0x00, 0x00, 0x34, 0x00, 0x00, 0x00, 0x08, 0x00, 0x00, 0x00,
  0x00, 0x00, 0x00, 0x09, 0x74, 0x00, 0x00, 0x00, 0xbc, 0xfc, 0xff, 0xff,
  0x08, 0x00, 0x00, 0x00, 0x14, 0x00, 0x00, 0x00, 0x01, 0x00, 0x00, 0x00,
  0x80, 0xff, 0xff, 0xff, 0xff, 0xff, 0xff, 0xff, 0x00, 0x00, 0x00, 0x00,
  0x01, 0x00, 0x00, 0x00, 0xa9, 0x08, 0x88, 0x3d, 0x46, 0x00, 0x00, 0x00,
  0x73, 0x65, 0x71, 0x75, 0x65, 0x6e, 0x74, 0x69, 0x61, 0x6c, 0x2f, 0x64,
  0x65, 0x6e, 0x73, 0x65, 0x2f, 0x4d, 0x61, 0x74, 0x4d, 0x75, 0x6c, 0x3b,
  0x73, 0x65, 0x71, 0x75, 0x65, 0x6e, 0x74, 0x69, 0x61, 0x6c, 0x2f, 0x64,
  0x65, 0x6e, 0x73, 0x65, 0x2f, 0x52, 0x65, 0x6c, 0x75, 0x3b, 0x73, 0x65,
  0x71, 0x75, 0x65, 0x6e, 0x74, 0x69, 0x61, 0x6c, 0x2f, 0x64, 0x65, 0x6e,
  0x73, 0x65, 0x2f, 0x42, 0x69, 0x61, 0x73, 0x41, 0x64, 0x64, 0x00, 0x00,
  0x02, 0x00, 0x00, 0x00, 0x01, 0x00, 0x00, 0x00, 0x1e, 0x00, 0x00, 0x00,
  0x6a, 0xfd, 0xff, 0xff, 0x00, 0x00, 0x00, 0x01, 0x14, 0x00, 0x00, 0x00,
  0x34, 0x00, 0x00, 0x00, 0x07, 0x00, 0x00, 0x00, 0x00, 0x00, 0x00, 0x09,
  0x44, 0x00, 0x00, 0x00, 0x54, 0xfd, 0xff, 0xff, 0x08, 0x00, 0x00, 0x00,
  0x14, 0x00, 0x00, 0x00, 0x01, 0x00, 0x00, 0x00, 0x00, 0x00, 0x00, 0x00,
  0x00, 0x00, 0x00, 0x00, 0x00, 0x00, 0x00, 0x00, 0x01, 0x00, 0x00, 0x00,
  0x5e, 0x5c, 0x72, 0x3b, 0x17, 0x00, 0x00, 0x00, 0x73, 0x65, 0x71, 0x75,
  0x65, 0x6e, 0x74, 0x69, 0x61, 0x6c, 0x2f, 0x64, 0x65, 0x6e, 0x73, 0x65,
  0x2f, 0x4d, 0x61, 0x74, 0x4d, 0x75, 0x6c, 0x00, 0x02, 0x00, 0x00, 0x00,
  0x1e, 0x00, 0x00, 0x00, 0x3c, 0x00, 0x00, 0x00, 0xd2, 0xfd, 0xff, 0xff,
  0x00, 0x00, 0x00, 0x01, 0x14, 0x00, 0x00, 0x00, 0x30, 0x00, 0x00, 0x00,
  0x06, 0x00, 0x00, 0x00, 0x00, 0x00, 0x00, 0x02, 0x50, 0x00, 0x00, 0x00,
  0xbc, 0xfd, 0xff, 0xff, 0x08, 0x00, 0x00, 0x00, 0x10, 0x00, 0x00, 0x00,
  0x01, 0x00, 0x00, 0x00, 0x00, 0x00, 0x00, 0x00, 0x00, 0x00, 0x00, 0x00,
  0x01, 0x00, 0x00, 0x00, 0x61, 0x6e, 0xad, 0x39, 0x27, 0x00, 0x00, 0x00,
  0x73, 0x65, 0x71, 0x75, 0x65, 0x6e, 0x74, 0x69, 0x61, 0x6c, 0x2f, 0x64,
  0x65, 0x6e, 0x73, 0x65, 0x2f, 0x42, 0x69, 0x61, 0x73, 0x41, 0x64, 0x64,
  0x2f, 0x52, 0x65, 0x61, 0x64, 0x56, 0x61, 0x72, 0x69, 0x61, 0x62, 0x6c,
  0x65, 0x4f, 0x70, 0x00, 0x01, 0x00, 0x00, 0x00, 0x1e, 0x00, 0x00, 0x00,
  0x42, 0xfe, 0xff, 0xff, 0x00, 0x00, 0x00, 0x01, 0x14, 0x00, 0x00, 0x00,
  0x30, 0x00, 0x00, 0x00, 0x05, 0x00, 0x00, 0x00, 0x00, 0x00, 0x00, 0x09,
  0x44, 0x00, 0x00, 0x00, 0x2c, 0xfe, 0xff, 0xff, 0x08, 0x00, 0x00, 0x00,
  0x10, 0x00, 0x00, 0x00, 0x01, 0x00, 0x00, 0x00, 0x00, 0x00, 0x00, 0x00,
  0x00, 0x00, 0x00, 0x00, 0x01, 0x00, 0x00, 0x00, 0xff, 0xf4, 0x8c, 0x3b,
  0x19, 0x00, 0x00, 0x00, 0x73, 0x65, 0x71, 0x75, 0x65, 0x6e, 0x74, 0x69,
  0x61, 0x6c, 0x2f, 0x64, 0x65, 0x6e, 0x73, 0x65, 0x5f, 0x31, 0x2f, 0x4d,
  0x61, 0x74, 0x4d, 0x75, 0x6c, 0x00, 0x00, 0x00, 0x02, 0x00, 0x00, 0x00,
  0x14, 0x00, 0x00, 0x00, 0x1e, 0x00, 0x00, 0x00, 0xaa, 0xfe, 0xff, 0xff,
  0x00, 0x00, 0x00, 0x01, 0x14, 0x00, 0x00, 0x00, 0x34, 0x00, 0x00, 0x00,
  0x04, 0x00, 0x00, 0x00, 0x00, 0x00, 0x00, 0x02, 0x58, 0x00, 0x00, 0x00,
  0x94, 0xfe, 0xff, 0xff, 0x08, 0x00, 0x00, 0x00, 0x14, 0x00, 0x00, 0x00,
  0x01, 0x00, 0x00, 0x00, 0x00, 0x00, 0x00, 0x00, 0x00, 0x00, 0x00, 0x00,
  0x00, 0x00, 0x00, 0x00, 0x01, 0x00, 0x00, 0x00, 0xd8, 0xcd, 0x95, 0x39,
  0x29, 0x00, 0x00, 0x00, 0x73, 0x65, 0x71, 0x75, 0x65, 0x6e, 0x74, 0x69,
  0x61, 0x6c, 0x2f, 0x64, 0x65, 0x6e, 0x73, 0x65, 0x5f, 0x31, 0x2f, 0x42,
  0x69, 0x61, 0x73, 0x41, 0x64, 0x64, 0x2f, 0x52, 0x65, 0x61, 0x64, 0x56,
  0x61, 0x72, 0x69, 0x61, 0x62, 0x6c, 0x65, 0x4f, 0x70, 0x00, 0x00, 0x00,
  0x01, 0x00, 0x00, 0x00, 0x14, 0x00, 0x00, 0x00, 0x22, 0xff, 0xff, 0xff,
  0x00, 0x00, 0x00, 0x01, 0x14, 0x00, 0x00, 0x00, 0x30, 0x00, 0x00, 0x00,
  0x03, 0x00, 0x00, 0x00, 0x00, 0x00, 0x00, 0x09, 0x44, 0x00, 0x00, 0x00,
  0x0c, 0xff, 0xff, 0xff, 0x08, 0x00, 0x00, 0x00, 0x10, 0x00, 0x00, 0x00,
  0x01, 0x00, 0x00, 0x00, 0x00, 0x00, 0x00, 0x00, 0x00, 0x00, 0x00, 0x00,
  0x01, 0x00, 0x00, 0x00, 0x21, 0x83, 0xb3, 0x3b, 0x18, 0x00, 0x00, 0x00,
  0x73, 0x65, 0x71, 0x75, 0x65, 0x6e, 0x74, 0x69, 0x61, 0x6c, 0x2f, 0x79,
  0x5f, 0x70, 0x72, 0x65, 0x64, 0x2f, 0x4d, 0x61, 0x74, 0x4d, 0x75, 0x6c,
  0x00, 0x00, 0x00, 0x00, 0x02, 0x00, 0x00, 0x00, 0x05, 0x00, 0x00, 0x00,
  0x14, 0x00, 0x00, 0x00, 0x8a, 0xff, 0xff, 0xff, 0x00, 0x00, 0x00, 0x01,
  0x14, 0x00, 0x00, 0x00, 0x30, 0x00, 0x00, 0x00, 0x02, 0x00, 0x00, 0x00,
  0x00, 0x00, 0x00, 0x02, 0x54, 0x00, 0x00, 0x00, 0x74, 0xff, 0xff, 0xff,
  0x08, 0x00, 0x00, 0x00, 0x10, 0x00, 0x00, 0x00, 0x01, 0x00, 0x00, 0x00,
  0x00, 0x00, 0x00, 0x00, 0x00, 0x00, 0x00, 0x00, 0x01, 0x00, 0x00, 0x00,
  0x56, 0x35, 0xc7, 0x39, 0x28, 0x00, 0x00, 0x00, 0x73, 0x65, 0x71, 0x75,
  0x65, 0x6e, 0x74, 0x69, 0x61, 0x6c, 0x2f, 0x79, 0x5f, 0x70, 0x72, 0x65,
  0x64, 0x2f, 0x42, 0x69, 0x61, 0x73, 0x41, 0x64, 0x64, 0x2f, 0x52, 0x65,
  0x61, 0x64, 0x56, 0x61, 0x72, 0x69, 0x61, 0x62, 0x6c, 0x65, 0x4f, 0x70,
  0x00, 0x00, 0x00, 0x00, 0x01, 0x00, 0x00, 0x00, 0x05, 0x00, 0x00, 0x00,
  0x00, 0x00, 0x16, 0x00, 0x1c, 0x00, 0x18, 0x00, 0x17, 0x00, 0x10, 0x00,
  0x0c, 0x00, 0x08, 0x00, 0x00, 0x00, 0x00, 0x00, 0x00, 0x00, 0x07, 0x00,
  0x16, 0x00, 0x00, 0x00, 0x00, 0x00, 0x00, 0x01, 0x20, 0x00, 0x00, 0x00,
  0x40, 0x00, 0x00, 0x00, 0x01, 0x00, 0x00, 0x00, 0x00, 0x00, 0x00, 0x09,
  0x4c, 0x00, 0x00, 0x00, 0x0c, 0x00, 0x0c, 0x00, 0x00, 0x00, 0x00, 0x00,
  0x08, 0x00, 0x04, 0x00, 0x0c, 0x00, 0x00, 0x00, 0x08, 0x00, 0x00, 0x00,
  0x14, 0x00, 0x00, 0x00, 0x01, 0x00, 0x00, 0x00, 0xc5, 0xff, 0xff, 0xff,
  0xff, 0xff, 0xff, 0xff, 0x00, 0x00, 0x00, 0x00, 0x01, 0x00, 0x00, 0x00,
  0xf6, 0x30, 0xb7, 0x3d, 0x13, 0x00, 0x00, 0x00, 0x73, 0x65, 0x72, 0x76,
  0x69, 0x6e, 0x67, 0x5f, 0x64, 0x65, 0x66, 0x61, 0x75, 0x6c, 0x74, 0x5f,
  0x78, 0x3a, 0x30, 0x00, 0x02, 0x00, 0x00, 0x00, 0x01, 0x00, 0x00, 0x00,
  0x3c, 0x00, 0x00, 0x00, 0x02, 0x00, 0x00, 0x00, 0x24, 0x00, 0x00, 0x00,
  0x04, 0x00, 0x00, 0x00, 0xf0, 0xff, 0xff, 0xff, 0x19, 0x00, 0x00, 0x00,
  0x02, 0x00, 0x00, 0x00, 0x00, 0x00, 0x00, 0x19, 0x0c, 0x00, 0x10, 0x00,
  0x0f, 0x00, 0x00, 0x00, 0x08, 0x00, 0x04, 0x00, 0x0c, 0x00, 0x00, 0x00,
  0x09, 0x00, 0x00, 0x00, 0x04, 0x00, 0x00, 0x00, 0x00, 0x00, 0x00, 0x09
};
unsigned int tflite_learn_5_440960_len = 5088;
#endif // _EI_CLASSIFIER_TFLITE_LEARN_5_H_
