/* Copyright 2019 The TensorFlow Authors. All Rights Reserved.

Licensed under the Apache License, Version 2.0 (the "License");
you may not use this file except in compliance with the License.
You may obtain a copy of the License at

    http://www.apache.org/licenses/LICENSE-2.0

Unless required by applicable law or agreed to in writing, software
distributed under the License is distributed on an "AS IS" BASIS,
WITHOUT WARRANTIES OR CONDITIONS OF ANY KIND, either express or implied.
See the License for the specific language governing permissions and
limitations under the License.
==============================================================================*/

// This is a standard TensorFlow Lite model file that has been converted into a
// C data array, so it can be easily compiled into a binary for devices that
// don't have a file system. It was created using the command:
// xxd -i magic_wand_model.tflite > magic_wand_model_data.cc

#ifndef TENSORFLOW_LITE_MICRO_MODEL_DATA_H_
#define TENSORFLOW_LITE_MICRO_MODEL_DATA_H_

extern const unsigned char g_model_data[] PROGMEM = {
  0x1c, 0x00, 0x00, 0x00, 0x54, 0x46, 0x4c, 0x33, 0x14, 0x00, 0x20, 0x00,
  0x1c, 0x00, 0x18, 0x00, 0x14, 0x00, 0x10, 0x00, 0x0c, 0x00, 0x00, 0x00,
  0x08, 0x00, 0x04, 0x00, 0x14, 0x00, 0x00, 0x00, 0x1c, 0x00, 0x00, 0x00,
  0x88, 0x00, 0x00, 0x00, 0xe0, 0x00, 0x00, 0x00, 0xfc, 0x0d, 0x00, 0x00,
  0x0c, 0x0e, 0x00, 0x00, 0x7c, 0x17, 0x00, 0x00, 0x03, 0x00, 0x00, 0x00,
  0x01, 0x00, 0x00, 0x00, 0x04, 0x00, 0x00, 0x00, 0xd2, 0xf0, 0xff, 0xff,
  0x0c, 0x00, 0x00, 0x00, 0x1c, 0x00, 0x00, 0x00, 0x38, 0x00, 0x00, 0x00,
  0x0f, 0x00, 0x00, 0x00, 0x73, 0x65, 0x72, 0x76, 0x69, 0x6e, 0x67, 0x5f,
  0x64, 0x65, 0x66, 0x61, 0x75, 0x6c, 0x74, 0x00, 0x01, 0x00, 0x00, 0x00,
  0x04, 0x00, 0x00, 0x00, 0x94, 0xff, 0xff, 0xff, 0x11, 0x00, 0x00, 0x00,
  0x04, 0x00, 0x00, 0x00, 0x05, 0x00, 0x00, 0x00, 0x64, 0x65, 0x6e, 0x73,
  0x65, 0x00, 0x00, 0x00, 0x01, 0x00, 0x00, 0x00, 0x04, 0x00, 0x00, 0x00,
  0xd6, 0xf0, 0xff, 0xff, 0x04, 0x00, 0x00, 0x00, 0x0d, 0x00, 0x00, 0x00,
  0x72, 0x65, 0x73, 0x68, 0x61, 0x70, 0x65, 0x5f, 0x69, 0x6e, 0x70, 0x75,
  0x74, 0x00, 0x00, 0x00, 0x02, 0x00, 0x00, 0x00, 0x34, 0x00, 0x00, 0x00,
  0x04, 0x00, 0x00, 0x00, 0xdc, 0xff, 0xff, 0xff, 0x14, 0x00, 0x00, 0x00,
  0x04, 0x00, 0x00, 0x00, 0x13, 0x00, 0x00, 0x00, 0x43, 0x4f, 0x4e, 0x56,
  0x45, 0x52, 0x53, 0x49, 0x4f, 0x4e, 0x5f, 0x4d, 0x45, 0x54, 0x41, 0x44,
  0x41, 0x54, 0x41, 0x00, 0x08, 0x00, 0x0c, 0x00, 0x08, 0x00, 0x04, 0x00,
  0x08, 0x00, 0x00, 0x00, 0x13, 0x00, 0x00, 0x00, 0x04, 0x00, 0x00, 0x00,
  0x13, 0x00, 0x00, 0x00, 0x6d, 0x69, 0x6e, 0x5f, 0x72, 0x75, 0x6e, 0x74,
  0x69, 0x6d, 0x65, 0x5f, 0x76, 0x65, 0x72, 0x73, 0x69, 0x6f, 0x6e, 0x00,
  0x15, 0x00, 0x00, 0x00, 0x18, 0x0d, 0x00, 0x00, 0x10, 0x0d, 0x00, 0x00,
  0xd8, 0x0c, 0x00, 0x00, 0x88, 0x01, 0x00, 0x00, 0x74, 0x01, 0x00, 0x00,
  0x60, 0x01, 0x00, 0x00, 0x4c, 0x01, 0x00, 0x00, 0x38, 0x01, 0x00, 0x00,
  0x24, 0x01, 0x00, 0x00, 0x0c, 0x01, 0x00, 0x00, 0xd4, 0x00, 0x00, 0x00,
  0xcc, 0x00, 0x00, 0x00, 0xc4, 0x00, 0x00, 0x00, 0xbc, 0x00, 0x00, 0x00,
  0xb4, 0x00, 0x00, 0x00, 0xac, 0x00, 0x00, 0x00, 0xa4, 0x00, 0x00, 0x00,
  0x9c, 0x00, 0x00, 0x00, 0x94, 0x00, 0x00, 0x00, 0x74, 0x00, 0x00, 0x00,
  0x04, 0x00, 0x00, 0x00, 0xa6, 0xf1, 0xff, 0xff, 0x04, 0x00, 0x00, 0x00,
  0x60, 0x00, 0x00, 0x00, 0x0c, 0x00, 0x00, 0x00, 0x08, 0x00, 0x0e, 0x00,
  0x08, 0x00, 0x04, 0x00, 0x08, 0x00, 0x00, 0x00, 0x14, 0x00, 0x00, 0x00,
  0x30, 0x00, 0x00, 0x00, 0x00, 0x00, 0x0a, 0x00, 0x0c, 0x00, 0x08, 0x00,
  0x00, 0x00, 0x07, 0x00, 0x0a, 0x00, 0x00, 0x00, 0x00, 0x00, 0x00, 0x01,
  0x04, 0x00, 0x00, 0x00, 0x01, 0x00, 0x00, 0x00, 0xea, 0x03, 0x00, 0x00,
  0x00, 0x00, 0x0a, 0x00, 0x10, 0x00, 0x0c, 0x00, 0x08, 0x00, 0x04, 0x00,
  0x0a, 0x00, 0x00, 0x00, 0x02, 0x00, 0x00, 0x00, 0x02, 0x00, 0x00, 0x00,
  0x04, 0x00, 0x00, 0x00, 0x06, 0x00, 0x00, 0x00, 0x32, 0x2e, 0x31, 0x35,
  0x2e, 0x30, 0x00, 0x00, 0x12, 0xf2, 0xff, 0xff, 0x04, 0x00, 0x00, 0x00,
  0x10, 0x00, 0x00, 0x00, 0x31, 0x2e, 0x31, 0x34, 0x2e, 0x30, 0x00, 0x00,
  0x00, 0x00, 0x00, 0x00, 0x00, 0x00, 0x00, 0x00, 0x74, 0xea, 0xff, 0xff,
  0x78, 0xea, 0xff, 0xff, 0x7c, 0xea, 0xff, 0xff, 0x80, 0xea, 0xff, 0xff,
  0x84, 0xea, 0xff, 0xff, 0x88, 0xea, 0xff, 0xff, 0x8c, 0xea, 0xff, 0xff,
  0x90, 0xea, 0xff, 0xff, 0x4e, 0xf2, 0xff, 0xff, 0x04, 0x00, 0x00, 0x00,
  0x28, 0x00, 0x00, 0x00, 0xe6, 0x0d, 0x1f, 0xc0, 0x71, 0x83, 0xca, 0xbf,
  0xb2, 0x37, 0x0b, 0xc0, 0xb8, 0xcc, 0x1b, 0x40, 0xc8, 0x1c, 0x33, 0xc0,
  0xe9, 0x4a, 0xdf, 0xbf, 0x71, 0xa9, 0x15, 0xc0, 0x57, 0xc5, 0x1c, 0x40,
  0xeb, 0x7e, 0x14, 0x40, 0x98, 0xb0, 0x20, 0x40, 0x82, 0xf2, 0xff, 0xff,
  0x04, 0x00, 0x00, 0x00, 0x08, 0x00, 0x00, 0x00, 0x01, 0x00, 0x00, 0x00,
  0x02, 0x00, 0x00, 0x00, 0x96, 0xf2, 0xff, 0xff, 0x04, 0x00, 0x00, 0x00,
  0x04, 0x00, 0x00, 0x00, 0x14, 0x00, 0x00, 0x00, 0xa6, 0xf2, 0xff, 0xff,
  0x04, 0x00, 0x00, 0x00, 0x04, 0x00, 0x00, 0x00, 0x08, 0x00, 0x00, 0x00,
  0xb6, 0xf2, 0xff, 0xff, 0x04, 0x00, 0x00, 0x00, 0x04, 0x00, 0x00, 0x00,
  0x00, 0x00, 0x00, 0x00, 0xc6, 0xf2, 0xff, 0xff, 0x04, 0x00, 0x00, 0x00,
  0x04, 0x00, 0x00, 0x00, 0x01, 0x00, 0x00, 0x00, 0xd6, 0xf2, 0xff, 0xff,
  0x04, 0x00, 0x00, 0x00, 0x04, 0x00, 0x00, 0x00, 0xec, 0x89, 0x08, 0xbe,
  0xe6, 0xf2, 0xff, 0xff, 0x04, 0x00, 0x00, 0x00, 0x40, 0x0b, 0x00, 0x00,
  0xcb, 0x23, 0x12, 0xbf, 0xbe, 0x55, 0xa0, 0x3c, 0x9d, 0x9e, 0x09, 0xbd,
  0x8e, 0xac, 0x7d, 0x3e, 0xeb, 0x35, 0xce, 0x3e, 0x09, 0x66, 0xf6, 0x3e,
  0x43, 0x5b, 0x36, 0x3f, 0xd0, 0xd8, 0x86, 0x3e, 0xa1, 0x66, 0x02, 0xbf,
  0x8f, 0xe2, 0x56, 0xbf, 0x3f, 0x96, 0x2e, 0xbf, 0x77, 0x1c, 0x5e, 0xbf,
  0xdc, 0x15, 0x62, 0xbe, 0x20, 0x26, 0xa9, 0xbd, 0x61, 0xcc, 0xf1, 0xbe,
  0xe6, 0x25, 0xae, 0xbe, 0x56, 0x78, 0xe1, 0xbd, 0x2d, 0x26, 0x1d, 0x3e,
  0x8d, 0xe7, 0xd9, 0xbe, 0xd7, 0x72, 0x47, 0xbe, 0x69, 0x4a, 0xa1, 0xbe,
  0x5e, 0x68, 0x02, 0x3f, 0x01, 0x28, 0x41, 0x3e, 0x11, 0xbf, 0x0c, 0xbe,
  0x22, 0x86, 0x9f, 0xbe, 0x02, 0xb1, 0x5f, 0xbd, 0x8f, 0x94, 0x82, 0xbc,
  0x2f, 0xb3, 0x3f, 0x3d, 0x5b, 0x7a, 0x25, 0x3f, 0xcb, 0x2c, 0x28, 0x3f,
  0x76, 0x26, 0x23, 0x3f, 0x2c, 0x18, 0xbc, 0x3e, 0x8e, 0x1a, 0x11, 0xbf,
  0xf4, 0x2f, 0x45, 0xbf, 0x6b, 0x00, 0x37, 0xbf, 0x64, 0x16, 0x0b, 0xbf,
  0x66, 0xf2, 0x90, 0xbd, 0x0c, 0xc3, 0x79, 0xbe, 0x7c, 0xa4, 0x8f, 0xbe,
  0xfe, 0x49, 0x23, 0xbd, 0x8c, 0xba, 0xae, 0x3e, 0xd2, 0x09, 0x26, 0x3e,
  0x0b, 0x51, 0x0b, 0xbf, 0xa6, 0xc6, 0x27, 0xbe, 0x09, 0xc0, 0x48, 0xbe,
  0x80, 0x9c, 0x07, 0x3f, 0x83, 0x91, 0x11, 0x3f, 0x8b, 0x6c, 0x30, 0x3e,
  0x57, 0x39, 0x68, 0xbd, 0x6e, 0x1e, 0xcd, 0x3e, 0x5b, 0x5b, 0xf9, 0x3e,
  0x15, 0x22, 0x01, 0x3f, 0x56, 0x54, 0x15, 0x3f, 0x79, 0x43, 0x59, 0x3f,
  0x79, 0x7b, 0x60, 0x3f, 0x3d, 0x1e, 0x17, 0x3f, 0xa9, 0x05, 0x00, 0xbe,
  0xff, 0x73, 0xca, 0xbe, 0xac, 0xbc, 0xe2, 0xbe, 0x37, 0x8a, 0xd8, 0xbe,
  0xb9, 0x2a, 0x57, 0xbd, 0x88, 0x36, 0x32, 0xbd, 0x3c, 0x13, 0x4e, 0xbe,
  0xa8, 0xbf, 0x82, 0xbe, 0xd2, 0x5b, 0xba, 0x3e, 0xeb, 0x06, 0xb4, 0x3e,
  0x21, 0x7e, 0xdc, 0xbd, 0xe4, 0x37, 0xc6, 0xbd, 0x03, 0x3f, 0x23, 0xbe,
  0xd9, 0x14, 0x48, 0x3f, 0x1a, 0x4c, 0x68, 0x3e, 0x35, 0x48, 0x30, 0x3e,
  0xaa, 0x7f, 0xab, 0x3e, 0x0a, 0xb9, 0xd0, 0x3e, 0x4f, 0x7a, 0x82, 0x3e,
  0x7c, 0xc2, 0x2e, 0x3f, 0x47, 0x99, 0x92, 0x3f, 0x95, 0x49, 0x1f, 0x3f,
  0x83, 0x3d, 0x04, 0x3f, 0x2b, 0x10, 0x0b, 0x3e, 0x4e, 0xd7, 0x3f, 0xbe,
  0x73, 0xf2, 0xe4, 0x3d, 0xed, 0xb5, 0x10, 0xbf, 0x97, 0x31, 0x18, 0xbf,
  0xdb, 0x61, 0x10, 0x3d, 0xc8, 0xb3, 0x81, 0xbe, 0x02, 0x52, 0x66, 0xbf,
  0x02, 0x09, 0x4f, 0xbf, 0x03, 0xb6, 0x82, 0x3f, 0x79, 0xe5, 0x41, 0x3f,
  0xeb, 0x33, 0x1e, 0xbe, 0x90, 0x80, 0xe4, 0xbd, 0xef, 0x60, 0xa9, 0x3e,
  0x15, 0x53, 0x35, 0x3f, 0xe0, 0x86, 0x08, 0xbe, 0xb9, 0xa2, 0xff, 0xbe,
  0x5d, 0x6f, 0x87, 0x3e, 0xd2, 0x1b, 0x03, 0x3f, 0x90, 0xf9, 0x9d, 0x3e,
  0x3d, 0x7d, 0x20, 0x3f, 0x7e, 0x82, 0x55, 0x3f, 0xcb, 0x45, 0xe2, 0x3e,
  0xbe, 0xa8, 0xf1, 0x3d, 0x5a, 0x1e, 0xba, 0xbb, 0x78, 0x5d, 0xa0, 0xbe,
  0x8c, 0xc4, 0xe6, 0x3d, 0x30, 0x38, 0x0c, 0xbf, 0xcd, 0x9f, 0x0c, 0xbf,
  0x0e, 0xae, 0x1f, 0xbe, 0x9f, 0xdb, 0x06, 0xbe, 0x57, 0x2a, 0x85, 0xbf,
  0x6d, 0xd5, 0x94, 0xbf, 0x89, 0x7d, 0x48, 0x3f, 0xee, 0x34, 0xf2, 0x3e,
  0x0c, 0x6c, 0xaa, 0xbe, 0x0d, 0x5b, 0x06, 0xbe, 0x7f, 0xfa, 0x82, 0x3c,
  0x17, 0x06, 0x3a, 0x3f, 0x6c, 0x60, 0xed, 0xbc, 0x92, 0x92, 0x61, 0xbf,
  0x7c, 0x1e, 0xc7, 0x3e, 0x62, 0xdb, 0xe4, 0x3e, 0x1d, 0x8e, 0xb6, 0x3e,
  0x2a, 0xc2, 0xc3, 0x3e, 0x22, 0x4c, 0x82, 0x3f, 0x50, 0x40, 0x9f, 0x3e,
  0xf4, 0xed, 0x01, 0x3e, 0x9e, 0xf9, 0xbc, 0xbe, 0xa0, 0x05, 0x87, 0xbe,
  0xa2, 0xe9, 0x21, 0xbe, 0x8d, 0xb7, 0x30, 0xbf, 0xe9, 0x84, 0x11, 0xbf,
  0xba, 0x2f, 0x5e, 0x3d, 0xb3, 0x03, 0xde, 0xbe, 0xf5, 0xc1, 0x8f, 0xbf,
  0xff, 0x0d, 0x92, 0xbf, 0x9d, 0x63, 0x27, 0x3f, 0x00, 0x0f, 0xb5, 0x3e,
  0xdb, 0x51, 0xca, 0xbe, 0x79, 0x3a, 0x0a, 0xbf, 0x4d, 0xeb, 0x20, 0x3e,
  0x6a, 0xa3, 0xe9, 0x3e, 0x23, 0x58, 0x34, 0xbd, 0xbe, 0x95, 0x64, 0xbf,
  0xf8, 0xe3, 0x13, 0xbf, 0x24, 0xcc, 0x03, 0xbf, 0x75, 0x1f, 0x88, 0xbd,
  0xf9, 0xd4, 0x0d, 0xbe, 0x83, 0x14, 0xd7, 0xbd, 0x88, 0x8e, 0x20, 0x3f,
  0x89, 0xe6, 0x7c, 0x3f, 0xd2, 0xce, 0xbc, 0x3e, 0x93, 0x93, 0x43, 0xbf,
  0x96, 0x0e, 0x27, 0xbf, 0x7b, 0x24, 0x40, 0xbf, 0x6a, 0xdc, 0x4b, 0xbf,
  0xca, 0xbe, 0x8a, 0xbe, 0xef, 0x85, 0x6e, 0xbe, 0xd1, 0x1d, 0x95, 0xbe,
  0xab, 0x89, 0xc1, 0xbe, 0x18, 0x05, 0x71, 0xbe, 0x89, 0xa6, 0x09, 0xbe,
  0xcd, 0x29, 0x3f, 0xbf, 0x2c, 0x79, 0xf2, 0xbe, 0x93, 0xc5, 0xbb, 0xbe,
  0x7c, 0x5a, 0xec, 0x3e, 0xae, 0x1c, 0x00, 0x3f, 0x44, 0xa5, 0x34, 0x3e,
  0x0d, 0x7b, 0x20, 0xbf, 0x6d, 0xee, 0xa1, 0xbd, 0x03, 0x2c, 0xa9, 0x3d,
  0xec, 0x4b, 0x81, 0x3e, 0xb3, 0x37, 0xaf, 0x3c, 0x20, 0x8b, 0x5d, 0x3f,
  0x22, 0x0c, 0x54, 0x3f, 0x4d, 0x4e, 0x28, 0x3f, 0x2f, 0x4a, 0x2d, 0xbf,
  0x24, 0x48, 0x2e, 0xbf, 0xee, 0x5b, 0x54, 0xbf, 0xde, 0xc2, 0x14, 0xbf,
  0x9b, 0xe2, 0x04, 0xbe, 0x7a, 0xae, 0x91, 0xbe, 0x00, 0x3f, 0xc0, 0xbd,
  0xc8, 0xc7, 0x1b, 0x3e, 0x8a, 0xe2, 0xc2, 0xbd, 0xc4, 0x32, 0x22, 0x3e,
  0x60, 0xb6, 0x90, 0xbe, 0xb2, 0x2e, 0xb6, 0xbd, 0xf6, 0xc8, 0xba, 0xbe,
  0x16, 0x93, 0xe9, 0x3e, 0x9f, 0x66, 0x39, 0x3f, 0x90, 0xa2, 0xeb, 0x3e,
  0xf9, 0x56, 0x22, 0xbd, 0x2e, 0xc1, 0xa5, 0x3d, 0x28, 0x96, 0xbc, 0x3e,
  0x81, 0x74, 0xfb, 0x3e, 0xb9, 0x78, 0x3a, 0x3f, 0x2d, 0x34, 0x90, 0x3f,
  0xbb, 0x7a, 0x7a, 0x3f, 0xf2, 0xf5, 0x57, 0x3f, 0x48, 0x7d, 0x17, 0xbe,
  0xf4, 0x4e, 0xc7, 0xbe, 0xaf, 0x9d, 0x67, 0xbe, 0x46, 0xfb, 0xdf, 0xbe,
  0x77, 0xd1, 0x8e, 0x3c, 0x18, 0x8e, 0x09, 0xbe, 0x43, 0x3e, 0xe2, 0x3c,
  0x73, 0xa7, 0x9d, 0x3d, 0xc7, 0xf9, 0x69, 0x3e, 0xcd, 0x1c, 0xd5, 0x3e,
  0x71, 0x9d, 0x63, 0x3c, 0xf9, 0x3b, 0xa9, 0xbe, 0xba, 0x97, 0x85, 0xbe,
  0x84, 0xff, 0x44, 0x3f, 0x5b, 0x36, 0xdb, 0x3e, 0x60, 0xe1, 0xf0, 0x3e,
  0x27, 0xdb, 0x4c, 0x3f, 0xf9, 0xba, 0xba, 0x3e, 0x92, 0x5f, 0xee, 0x3e,
  0xba, 0x45, 0x8b, 0x3e, 0xee, 0x9c, 0xa2, 0x3e, 0xbf, 0xe7, 0xdd, 0x3e,
  0x72, 0xae, 0x06, 0xbe, 0x9b, 0xaf, 0x99, 0x3e, 0x18, 0x54, 0x4b, 0x3f,
  0xf9, 0x99, 0xc0, 0x3e, 0xd4, 0xbc, 0x5d, 0x3f, 0xa1, 0xb2, 0x74, 0x3f,
  0xcb, 0x91, 0x44, 0x3f, 0x48, 0x4e, 0x6d, 0x3f, 0xb8, 0xce, 0x6b, 0x3f,
  0xd0, 0x01, 0x23, 0x3f, 0xc2, 0x58, 0xc9, 0xbf, 0x3c, 0x9d, 0x78, 0xbf,
  0x96, 0x70, 0x58, 0xbf, 0x75, 0x0e, 0x0a, 0xbe, 0xab, 0x00, 0xb6, 0xbe,
  0xc3, 0x32, 0x91, 0xbe, 0x12, 0xc2, 0x4c, 0xbe, 0x42, 0x12, 0x03, 0xbf,
  0x6a, 0xa6, 0xf2, 0x3e, 0x8d, 0x83, 0x62, 0x3e, 0x9d, 0x95, 0x8c, 0x3e,
  0x0b, 0xf6, 0x06, 0x3e, 0x39, 0xf7, 0x94, 0x3d, 0x8a, 0x9d, 0x06, 0x3f,
  0xaf, 0xa7, 0x0e, 0xbe, 0xe0, 0x0e, 0xac, 0x3e, 0xbd, 0xb1, 0xcb, 0x3e,
  0x4e, 0x53, 0x04, 0xbe, 0x8b, 0x3d, 0x44, 0x3f, 0xfe, 0x3a, 0x62, 0x3f,
  0x42, 0xce, 0x99, 0x3e, 0x9a, 0x56, 0x99, 0x3f, 0x74, 0x62, 0x7e, 0x3f,
  0x97, 0x9e, 0x2f, 0x3f, 0x8f, 0xd6, 0x16, 0xc0, 0x8b, 0x05, 0xbb, 0xbf,
  0x4b, 0x20, 0xad, 0xbf, 0xe2, 0x43, 0xf0, 0xbe, 0x60, 0xc2, 0x5d, 0xbf,
  0x06, 0x14, 0xff, 0xbe, 0xcb, 0xb3, 0x3d, 0xbf, 0x1a, 0xe2, 0x95, 0xbf,
  0x20, 0x9e, 0x77, 0xbc, 0x52, 0x9a, 0x0f, 0xbe, 0x18, 0x4b, 0x38, 0x3e,
  0xde, 0xf9, 0x24, 0xbd, 0x5a, 0x12, 0x86, 0xbd, 0x60, 0x2e, 0x70, 0x3e,
  0x35, 0x13, 0xa7, 0xbe, 0x45, 0x2d, 0xf7, 0x3a, 0x7e, 0x90, 0x1c, 0xbf,
  0x30, 0xc2, 0x0e, 0xbf, 0x1e, 0x61, 0xac, 0x3e, 0x84, 0x9a, 0x04, 0x3f,
  0xb2, 0xb9, 0xee, 0x3d, 0x04, 0xba, 0x6e, 0x3f, 0x1a, 0x2e, 0x20, 0x3f,
  0x28, 0x30, 0xf1, 0x3d, 0x7c, 0xbd, 0x03, 0xc0, 0x8c, 0x80, 0xf5, 0xbf,
  0x2b, 0x54, 0xd0, 0xbf, 0x9c, 0x63, 0x89, 0xbf, 0xe1, 0x08, 0xc4, 0xbf,
  0xc4, 0x5c, 0x7d, 0xbf, 0xdf, 0xfa, 0xd6, 0xbf, 0x2d, 0x48, 0xe3, 0xbf,
  0xb3, 0x10, 0x13, 0xbf, 0xff, 0xa9, 0x82, 0xbe, 0x49, 0x0c, 0x9c, 0xbe,
  0xd8, 0x34, 0x6c, 0xbe, 0x6d, 0x3b, 0xbe, 0xbe, 0x63, 0x2c, 0xd2, 0x3e,
  0xcd, 0xad, 0x39, 0x3f, 0xed, 0xfa, 0x9e, 0x3e, 0xb5, 0x78, 0x86, 0xbf,
  0x9b, 0x85, 0x08, 0xbf, 0xe1, 0xd2, 0x81, 0xbf, 0x0f, 0x69, 0x77, 0xbf,
  0xa6, 0x23, 0x72, 0xbf, 0xfa, 0xc5, 0x06, 0xbf, 0x13, 0x17, 0xe9, 0xbd,
  0xbf, 0x2f, 0x19, 0xbe, 0x7b, 0x48, 0x94, 0xbe, 0x79, 0x83, 0x30, 0xbd,
  0x59, 0x93, 0x34, 0xbf, 0xf9, 0xfc, 0x93, 0xbe, 0x8b, 0x88, 0x45, 0xbe,
  0x63, 0xcc, 0x13, 0x3f, 0x5e, 0x79, 0xf4, 0x3e, 0x20, 0xcc, 0xa8, 0x3d,
  0x93, 0x09, 0x01, 0xbf, 0x6a, 0x4a, 0x09, 0xbf, 0xa2, 0x27, 0xad, 0xbe,
  0x30, 0xec, 0xdf, 0xbd, 0xc6, 0x19, 0x08, 0x3e, 0x4a, 0x4c, 0x44, 0x3f,
  0x27, 0xa3, 0x91, 0x3f, 0x54, 0x7c, 0xf5, 0x3e, 0xc8, 0xc0, 0x46, 0xbf,
  0xb1, 0x49, 0x5d, 0xbf, 0x61, 0xe6, 0x26, 0xbf, 0xa3, 0xba, 0xf8, 0xbe,
  0x9d, 0x69, 0xe8, 0xbe, 0x0c, 0xb2, 0x89, 0xbe, 0xd7, 0xa9, 0x2c, 0xbd,
  0x6f, 0x78, 0x86, 0x3e, 0x83, 0x1f, 0x7d, 0xbe, 0xa1, 0xe8, 0xa2, 0xbd,
  0x95, 0xeb, 0x02, 0xbf, 0x7b, 0x21, 0x9b, 0xbd, 0x69, 0x29, 0x57, 0xbe,
  0x95, 0x7f, 0x38, 0x3f, 0xb8, 0x02, 0x42, 0x3f, 0x7e, 0x1b, 0x47, 0x3f,
  0xf9, 0x6e, 0x2d, 0xbe, 0x09, 0x41, 0x0a, 0xbe, 0x2d, 0x9f, 0x07, 0x3e,
  0x80, 0x20, 0x29, 0x3e, 0xe2, 0x15, 0xe8, 0x3e, 0x21, 0x2f, 0x8a, 0x3f,
  0xfb, 0xa8, 0xb7, 0x3f, 0x41, 0x96, 0x55, 0x3f, 0x50, 0x09, 0xdf, 0xbe,
  0x9c, 0x5f, 0x93, 0xbe, 0xba, 0xac, 0x17, 0xbf, 0x19, 0xb4, 0x2a, 0xbf,
  0x5b, 0x6e, 0xc4, 0xbe, 0x1d, 0x54, 0x16, 0xbd, 0x31, 0xd0, 0xac, 0x3d,
  0x4e, 0x6f, 0xa1, 0x3e, 0xae, 0xa7, 0xb7, 0x3e, 0x25, 0xe7, 0x94, 0x3e,
  0x62, 0x86, 0xbc, 0xbe, 0x06, 0xea, 0x04, 0xbe, 0xc7, 0x5b, 0xe5, 0x3c,
  0x5c, 0x7d, 0x62, 0x3f, 0x2c, 0xe9, 0x22, 0x3f, 0x89, 0x2d, 0x47, 0x3f,
  0xc2, 0xec, 0xaa, 0xbc, 0x1c, 0x66, 0xe5, 0x3e, 0xef, 0x7c, 0xca, 0x3e,
  0xb6, 0x38, 0x0c, 0x3e, 0x00, 0xf4, 0x3f, 0x3f, 0x88, 0x9b, 0x12, 0x3f,
  0x9d, 0x6a, 0x0c, 0x3f, 0xc7, 0x0c, 0x0a, 0x3e, 0x1a, 0x9f, 0x49, 0xbe,
  0xeb, 0xa9, 0x4a, 0xbe, 0x06, 0x65, 0x37, 0xbf, 0xe2, 0x1c, 0x4c, 0xbf,
  0x9b, 0x66, 0x26, 0xbe, 0x99, 0x55, 0x8e, 0xbb, 0x66, 0x70, 0x3e, 0xbf,
  0x60, 0xa3, 0x5a, 0xbf, 0x06, 0xa0, 0x2b, 0x3f, 0x89, 0xc0, 0xb2, 0x3e,
  0x1c, 0x94, 0xad, 0xbd, 0x31, 0x11, 0x4d, 0xbe, 0x08, 0xfc, 0xe4, 0x3d,
  0xbe, 0xd7, 0x3d, 0x3f, 0x89, 0x0f, 0x9a, 0x3e, 0x4e, 0xb8, 0x1e, 0xbf,
  0xf6, 0x45, 0x5b, 0x3e, 0x41, 0x7f, 0xe5, 0x3d, 0x3a, 0x33, 0xa1, 0x3e,
  0xec, 0x75, 0xa4, 0x3e, 0xd6, 0x76, 0x06, 0x3f, 0x24, 0x9f, 0x22, 0x3f,
  0x5f, 0x4a, 0xf4, 0x3e, 0x99, 0x13, 0x6a, 0x3e, 0x68, 0x4e, 0x3b, 0xbd,
  0xd6, 0x43, 0x99, 0xbe, 0xf2, 0x0c, 0x2d, 0xbf, 0xa3, 0xbb, 0x63, 0xbf,
  0xf8, 0x36, 0xed, 0xbd, 0x0e, 0x2d, 0xa0, 0x3c, 0x15, 0x25, 0x23, 0xbf,
  0xd8, 0x3d, 0x41, 0xbf, 0xcb, 0x56, 0x39, 0x3f, 0xc6, 0x9d, 0x06, 0x3f,
  0xf3, 0xe9, 0xd9, 0xbe, 0xd3, 0x56, 0x7f, 0xbe, 0xca, 0xfc, 0xe8, 0xbc,
  0xba, 0x2c, 0xf5, 0x3e, 0x8c, 0x0d, 0x26, 0x3e, 0x49, 0x25, 0xae, 0xbe,
  0x8f, 0xc3, 0x91, 0x3e, 0xc2, 0xa5, 0x94, 0x3e, 0xa3, 0x03, 0xa8, 0x3e,
  0xb6, 0x64, 0xf3, 0x3e, 0x82, 0xfe, 0x08, 0x3f, 0x45, 0x91, 0x25, 0x3f,
  0xd4, 0xaa, 0xb3, 0x3e, 0x96, 0x46, 0x0c, 0x3d, 0x1b, 0xec, 0x11, 0xbe,
  0xf6, 0xe0, 0x49, 0xbe, 0xcd, 0x7e, 0x01, 0xbf, 0xa5, 0x6a, 0x20, 0xbf,
  0x12, 0xfb, 0x75, 0xbe, 0x2e, 0x51, 0xa3, 0xbd, 0x69, 0xdb, 0x17, 0xbf,
  0xdd, 0xf7, 0x54, 0xbf, 0x07, 0xa2, 0x13, 0x3f, 0x23, 0xbd, 0x9f, 0x3e,
  0xe4, 0xb5, 0x1a, 0xbe, 0xa2, 0x81, 0xe7, 0xbe, 0x74, 0xf8, 0x9f, 0xbe,
  0x08, 0xd7, 0x31, 0x3f, 0x7a, 0xbc, 0xcb, 0xbc, 0x2b, 0x4a, 0xc9, 0xbe,
  0xe9, 0x89, 0x12, 0xbf, 0x78, 0x78, 0xe3, 0xbe, 0x35, 0x0d, 0xb7, 0xbe,
  0x53, 0x1f, 0x2b, 0xbe, 0x0a, 0x39, 0x82, 0x3d, 0xeb, 0xba, 0x3b, 0x3f,
  0x0f, 0xe3, 0x4a, 0x3f, 0x9a, 0x5f, 0x22, 0x3f, 0x87, 0xd5, 0x06, 0xbf,
  0x58, 0x5c, 0x70, 0xbf, 0x85, 0x41, 0x67, 0xbf, 0x5e, 0xcd, 0x3c, 0xbf,
  0x81, 0xb7, 0x3d, 0xbf, 0x69, 0xd9, 0x6c, 0xbe, 0x2e, 0xf0, 0x53, 0xbd,
  0xad, 0x74, 0x53, 0x3c, 0xce, 0x4f, 0x82, 0x3d, 0x5f, 0x8d, 0xbc, 0x3e,
  0xa5, 0xeb, 0x1d, 0xbf, 0x79, 0xb2, 0x38, 0xbe, 0x2d, 0x13, 0xf3, 0xbe,
  0x5e, 0xaa, 0xc0, 0x3c, 0x23, 0x2b, 0x75, 0x3e, 0xa0, 0xbb, 0xd3, 0x3e,
  0xc9, 0x10, 0xb6, 0x3b, 0xc0, 0x83, 0x25, 0x3d, 0xc7, 0x56, 0x93, 0xbc,
  0x6c, 0x09, 0x38, 0xbd, 0xbc, 0x4b, 0x4b, 0x3e, 0xf3, 0x9a, 0x57, 0x3f,
  0xf6, 0xde, 0x99, 0x3f, 0xe3, 0xfd, 0x13, 0x3f, 0x65, 0xdf, 0xfd, 0xbe,
  0xc2, 0xea, 0x3d, 0xbf, 0x37, 0x05, 0x02, 0xbf, 0x7d, 0xa6, 0x3e, 0xbf,
  0x6f, 0x8e, 0x1c, 0xbf, 0x9c, 0x78, 0x69, 0xbe, 0xe3, 0xef, 0xfb, 0xbd,
  0xd9, 0xcb, 0x1c, 0x3e, 0xba, 0x78, 0xea, 0x3e, 0x89, 0x2c, 0x26, 0x3c,
  0x14, 0x6c, 0x86, 0xbe, 0x30, 0x69, 0x3c, 0xbe, 0x53, 0xe1, 0xc7, 0xbe,
  0xd1, 0xc7, 0xde, 0x3d, 0x50, 0x51, 0xf4, 0x3e, 0xb2, 0x18, 0xfe, 0x3e,
  0xb2, 0x99, 0x17, 0x3e, 0xda, 0x24, 0x93, 0x3e, 0xbd, 0xce, 0xe5, 0x3e,
  0xd6, 0xc2, 0xe8, 0x3e, 0xcd, 0xff, 0x0d, 0x3f, 0x8a, 0x38, 0x5e, 0x3f,
  0xaf, 0xcb, 0x8b, 0x3f, 0xae, 0x72, 0x6e, 0x3f, 0xe2, 0x96, 0x9d, 0xbd,
  0xb7, 0x8e, 0x3e, 0xbe, 0x29, 0x0a, 0x56, 0xbe, 0x8a, 0x36, 0xe6, 0xbe,
  0xfd, 0x6f, 0xe2, 0xbe, 0x22, 0xd7, 0x48, 0xbe, 0x95, 0x68, 0x2f, 0xbe,
  0x24, 0x7b, 0xc8, 0xbc, 0x3b, 0xe5, 0x04, 0x3f, 0xc4, 0x38, 0xf2, 0x3e,
  0x64, 0x7e, 0x28, 0xbe, 0x4e, 0xa4, 0x78, 0xbe, 0xe1, 0x73, 0x7b, 0xbe,
  0x58, 0xba, 0xb0, 0x3d, 0xa2, 0x63, 0x07, 0x3e, 0x1c, 0x86, 0x1b, 0x3f,
  0xc0, 0x8c, 0x82, 0xbb, 0x62, 0xc8, 0xcc, 0x3e, 0xc8, 0xab, 0xf1, 0x3e,
  0x9d, 0xeb, 0x1d, 0x3f, 0xbb, 0x20, 0x5b, 0x3f, 0xe2, 0xd8, 0x46, 0x3f,
  0xec, 0x50, 0x0b, 0x3f, 0xe2, 0xb8, 0xe2, 0x3e, 0xac, 0x40, 0x01, 0x3d,
  0x7e, 0x19, 0x0e, 0x3f, 0xd1, 0xb4, 0x0b, 0x3f, 0x35, 0xaf, 0x78, 0x3f,
  0x39, 0x06, 0x8b, 0x3f, 0xdf, 0xda, 0x97, 0x3f, 0xe1, 0x3a, 0x9a, 0x3f,
  0x2a, 0x1a, 0x6b, 0x3f, 0x41, 0x24, 0x69, 0x3e, 0x9f, 0xeb, 0x99, 0xbd,
  0xc0, 0x88, 0xb2, 0x3d, 0x18, 0x1f, 0xa5, 0x3e, 0xdc, 0xd2, 0x12, 0x3f,
  0x31, 0xa6, 0xab, 0x3e, 0xd0, 0x2d, 0x2f, 0xbc, 0x9a, 0x7b, 0x5d, 0x3e,
  0xb5, 0xd8, 0xc8, 0xbf, 0x14, 0xce, 0x3a, 0xbf, 0x99, 0x6b, 0xe0, 0xbe,
  0xdf, 0x37, 0x30, 0x3d, 0x5a, 0x83, 0x0f, 0x3e, 0x32, 0xaa, 0xd0, 0x3e,
  0x06, 0x97, 0x66, 0x3c, 0xcd, 0xa3, 0x85, 0x3e, 0xd5, 0x8f, 0xca, 0xbe,
  0x8c, 0xd4, 0x3c, 0x3e, 0x7e, 0x96, 0x93, 0x3c, 0xd1, 0x92, 0x00, 0x3f,
  0xb7, 0x32, 0xce, 0x3e, 0xd8, 0xf9, 0x5d, 0x3f, 0x4c, 0x0a, 0x2d, 0x3f,
  0xa2, 0xa1, 0x6c, 0x3f, 0xbf, 0xfc, 0xf7, 0x3d, 0x5a, 0x4d, 0xc8, 0xbe,
  0x87, 0x31, 0xdc, 0xbd, 0x97, 0x27, 0x5d, 0xbd, 0xf2, 0x9a, 0x8c, 0x3e,
  0x74, 0x3f, 0xf3, 0xbd, 0xec, 0x45, 0x8f, 0xbe, 0xd6, 0x50, 0x1f, 0xbe,
  0x5e, 0x36, 0x1d, 0xc0, 0xd7, 0xc4, 0xe8, 0xbf, 0x72, 0x4b, 0xc0, 0xbf,
  0x30, 0x1e, 0x8a, 0xbf, 0x61, 0xce, 0x0c, 0xbf, 0x75, 0xee, 0xaa, 0xbe,
  0xba, 0x01, 0x79, 0xbf, 0xef, 0xa2, 0x41, 0xbf, 0xc4, 0xd3, 0xc5, 0xbf,
  0xbc, 0x63, 0x7c, 0xbf, 0xed, 0xaa, 0xfe, 0xbe, 0xd1, 0xc4, 0x97, 0x3c,
  0x8f, 0x71, 0xd3, 0xbb, 0x6e, 0x24, 0x9c, 0x3e, 0x7f, 0x4c, 0x09, 0x3d,
  0x5a, 0xd7, 0x3e, 0x3e, 0x79, 0x99, 0xf0, 0xbe, 0x7d, 0x6d, 0x8c, 0xbe,
  0xed, 0x30, 0x44, 0xbd, 0x44, 0xa7, 0x2a, 0xbe, 0xca, 0xad, 0x19, 0x3e,
  0x8f, 0x05, 0xa7, 0xbd, 0x3f, 0x40, 0x8a, 0xbf, 0x9f, 0x9b, 0x96, 0xbf,
  0x88, 0x9d, 0xc6, 0x3e, 0xf7, 0x0b, 0x5d, 0x3e, 0xba, 0x96, 0xaa, 0x3e,
  0x3c, 0x7b, 0x97, 0x3e, 0x3b, 0x3c, 0x1d, 0x3e, 0xa0, 0x8c, 0xc5, 0x3e,
  0x56, 0xa8, 0x00, 0xbe, 0xd6, 0xa1, 0xde, 0x3e, 0x93, 0x84, 0xcc, 0x3e,
  0x3b, 0x31, 0x56, 0x3e, 0x5d, 0xd7, 0x0e, 0x3f, 0x77, 0x7d, 0x63, 0x3f,
  0xda, 0x89, 0x0f, 0x3f, 0x4f, 0x97, 0x5c, 0x3f, 0x27, 0xd4, 0x54, 0x3f,
  0x70, 0x2f, 0x39, 0x3f, 0x65, 0xd6, 0x80, 0xbf, 0xb9, 0xba, 0x81, 0xbf,
  0xe2, 0xe6, 0x8d, 0xbf, 0x49, 0x66, 0x99, 0xbe, 0x55, 0x77, 0x4b, 0xbf,
  0x1f, 0x2b, 0xab, 0xbe, 0x4b, 0xac, 0x9f, 0xbe, 0xc9, 0xe9, 0x74, 0xbf,
  0x26, 0x59, 0xdf, 0x3e, 0x3c, 0x6e, 0x85, 0x3d, 0x38, 0x30, 0x8e, 0x3e,
  0x8f, 0x23, 0x5d, 0x3e, 0x80, 0x02, 0x0f, 0x3d, 0xcb, 0x82, 0xb8, 0x3e,
  0x24, 0x61, 0x88, 0xbe, 0xa8, 0x86, 0xad, 0x3e, 0x76, 0x04, 0xa1, 0x3e,
  0x7d, 0x81, 0x4e, 0xbe, 0x5d, 0xf4, 0x18, 0x3f, 0xb6, 0xa3, 0x17, 0x3f,
  0x62, 0x1e, 0x31, 0x3e, 0x78, 0x5d, 0x76, 0x3f, 0xa9, 0xc0, 0x70, 0x3f,
  0x3d, 0x88, 0x1c, 0x3f, 0x5b, 0x36, 0xa1, 0xbf, 0x8e, 0x8e, 0x84, 0xbf,
  0xa8, 0x04, 0xb1, 0xbf, 0xa4, 0xb0, 0x3d, 0xbf, 0xd5, 0x9c, 0x77, 0xbf,
  0x4d, 0x85, 0x3b, 0xbf, 0xc0, 0x31, 0x35, 0xbf, 0x41, 0xdf, 0x95, 0xbf,
  0x07, 0xaa, 0x98, 0x3e, 0xee, 0x1d, 0x9f, 0x3d, 0x4e, 0x74, 0x95, 0x3e,
  0xe9, 0x89, 0x20, 0x3e, 0x1e, 0xbc, 0xa8, 0xbd, 0x62, 0x49, 0x6e, 0x3e,
  0xaf, 0xf3, 0xad, 0xbe, 0x61, 0x52, 0xbb, 0x3d, 0xda, 0x70, 0x6c, 0x3e,
  0x66, 0x9c, 0xb7, 0xbe, 0xd7, 0xbc, 0x09, 0x3f, 0xc8, 0x66, 0x24, 0x3f,
  0xdb, 0x10, 0xb7, 0x3d, 0x07, 0x31, 0x33, 0x3f, 0x0b, 0x16, 0x10, 0x3f,
  0x3d, 0xf2, 0x2e, 0x3e, 0x53, 0x56, 0xd9, 0xbf, 0x24, 0x16, 0xb8, 0xbf,
  0xa1, 0x28, 0x90, 0xbf, 0x59, 0x5c, 0x8d, 0xbf, 0x22, 0x49, 0x73, 0xbf,
  0x36, 0x9f, 0x50, 0xbf, 0x9e, 0xb5, 0x53, 0xbf, 0x73, 0xc9, 0xc2, 0xbf,
  0xb8, 0x73, 0x4a, 0x3f, 0x05, 0x09, 0xc7, 0x3e, 0x9b, 0xba, 0x18, 0x3f,
  0x2b, 0x43, 0xa3, 0x3e, 0xd5, 0xa6, 0x8d, 0x3e, 0x77, 0x16, 0x0a, 0x3f,
  0x48, 0xd7, 0x13, 0xbe, 0x39, 0x6b, 0x04, 0x3f, 0xa0, 0xde, 0x74, 0x3f,
  0xd0, 0xc3, 0x7c, 0x3e, 0x7f, 0x40, 0x46, 0x3f, 0xed, 0xeb, 0x82, 0x3f,
  0x37, 0x20, 0x49, 0x3f, 0xec, 0xfa, 0xa5, 0x3f, 0x99, 0x65, 0x88, 0x3f,
  0xf6, 0xd1, 0x35, 0x3f, 0xc2, 0x09, 0xc5, 0xbf, 0xd7, 0x7a, 0xa7, 0xbf,
  0x1b, 0xf0, 0x93, 0xbf, 0x00, 0x17, 0x06, 0xbf, 0x4c, 0x4e, 0x71, 0xbf,
  0x6a, 0x68, 0x11, 0xbf, 0x8b, 0x97, 0xdf, 0xbe, 0x0b, 0x4e, 0x8c, 0xbf,
  0xce, 0xb4, 0x20, 0x3f, 0x2c, 0xcf, 0x89, 0x3e, 0x2c, 0x47, 0x9f, 0x3e,
  0x4f, 0x7e, 0xa7, 0x3e, 0xf0, 0x4d, 0xc3, 0x3d, 0x5a, 0xb2, 0x01, 0x3f,
  0xa8, 0xdb, 0x88, 0xbe, 0x55, 0x0a, 0xd4, 0x3e, 0x75, 0x42, 0xc7, 0x3e,
  0x8b, 0xd7, 0x9c, 0xbc, 0xed, 0x35, 0x86, 0x3f, 0x3b, 0x58, 0x5e, 0x3f,
  0x95, 0xf9, 0x9f, 0x3e, 0xe7, 0xd9, 0x9d, 0x3f, 0x7b, 0x5d, 0x97, 0x3f,
  0x67, 0x3e, 0x2c, 0x3f, 0xb2, 0x33, 0x09, 0xc0, 0xc8, 0x5a, 0xe9, 0xbf,
  0x88, 0xec, 0xfa, 0xbf, 0xcb, 0x02, 0x92, 0xbf, 0xf4, 0xb5, 0x94, 0xbf,
  0xa4, 0xc4, 0x74, 0xbf, 0x07, 0xe2, 0x70, 0xbf, 0x7a, 0x62, 0xa0, 0xbf,
  0x60, 0x74, 0xbe, 0x3e, 0xbb, 0x00, 0x0c, 0xbd, 0xca, 0x93, 0xea, 0x3e,
  0x3e, 0xf8, 0x07, 0x3e, 0x4f, 0xce, 0x3e, 0xbe, 0xd4, 0x31, 0xa4, 0x3e,
  0x13, 0x25, 0xea, 0xbe, 0x5e, 0x2c, 0xf8, 0x3d, 0x7e, 0xa8, 0x17, 0xbe,
  0x61, 0x7d, 0x2d, 0xbf, 0x6e, 0x8d, 0x73, 0x3f, 0x24, 0x08, 0x56, 0x3f,
  0x00, 0xb5, 0x3d, 0xbd, 0xdf, 0x27, 0x86, 0x3f, 0x39, 0x82, 0x64, 0x3f,
  0xf6, 0xce, 0xbe, 0x3e, 0x08, 0xf3, 0x05, 0xc0, 0x1d, 0x18, 0xee, 0xbf,
  0x7e, 0xa0, 0x03, 0xc0, 0xd1, 0x1b, 0xbb, 0xbf, 0xd7, 0x15, 0xbc, 0xbf,
  0x5a, 0x3d, 0xac, 0xbf, 0x3b, 0x6b, 0xc1, 0xbf, 0x08, 0x06, 0xde, 0xbf,
  0x32, 0xfe, 0xff, 0xff, 0x04, 0x00, 0x00, 0x00, 0x28, 0x00, 0x00, 0x00,
  0x74, 0x6b, 0x7c, 0xbe, 0x5b, 0xf0, 0x96, 0xbe, 0xc8, 0xcf, 0x84, 0xbe,
  0xda, 0xce, 0x5a, 0x3d, 0xe2, 0xab, 0x50, 0x3f, 0x67, 0xf2, 0x82, 0xbe,
  0x8f, 0xac, 0x9e, 0xbe, 0x72, 0x63, 0x95, 0x3a, 0x4e, 0x77, 0x60, 0x3d,
  0x47, 0xa6, 0xb8, 0x3d, 0xac, 0xf6, 0xff, 0xff, 0xb0, 0xf6, 0xff, 0xff,
  0x0f, 0x00, 0x00, 0x00, 0x4d, 0x4c, 0x49, 0x52, 0x20, 0x43, 0x6f, 0x6e,
  0x76, 0x65, 0x72, 0x74, 0x65, 0x64, 0x2e, 0x00, 0x01, 0x00, 0x00, 0x00,
  0x14, 0x00, 0x00, 0x00, 0x00, 0x00, 0x0e, 0x00, 0x18, 0x00, 0x14, 0x00,
  0x10, 0x00, 0x0c, 0x00, 0x08, 0x00, 0x04, 0x00, 0x0e, 0x00, 0x00, 0x00,
  0x14, 0x00, 0x00, 0x00, 0x1c, 0x00, 0x00, 0x00, 0x24, 0x02, 0x00, 0x00,
  0x28, 0x02, 0x00, 0x00, 0x2c, 0x02, 0x00, 0x00, 0x04, 0x00, 0x00, 0x00,
  0x6d, 0x61, 0x69, 0x6e, 0x00, 0x00, 0x00, 0x00, 0x08, 0x00, 0x00, 0x00,
  0xd4, 0x01, 0x00, 0x00, 0x74, 0x01, 0x00, 0x00, 0x1c, 0x01, 0x00, 0x00,
  0xf4, 0x00, 0x00, 0x00, 0x94, 0x00, 0x00, 0x00, 0x60, 0x00, 0x00, 0x00,
  0x28, 0x00, 0x00, 0x00, 0x04, 0x00, 0x00, 0x00, 0x2a, 0xff, 0xff, 0xff,
  0x0c, 0x00, 0x00, 0x00, 0x10, 0x00, 0x00, 0x00, 0x07, 0x00, 0x00, 0x00,
  0x01, 0x00, 0x00, 0x00, 0x11, 0x00, 0x00, 0x00, 0x01, 0x00, 0x00, 0x00,
  0x10, 0x00, 0x00, 0x00, 0xd6, 0xfe, 0xff, 0xff, 0x14, 0x00, 0x00, 0x00,
  0x00, 0x00, 0x00, 0x08, 0x10, 0x00, 0x00, 0x00, 0x14, 0x00, 0x00, 0x00,
  0x06, 0x00, 0x00, 0x00, 0x60, 0xf7, 0xff, 0xff, 0x01, 0x00, 0x00, 0x00,
  0x10, 0x00, 0x00, 0x00, 0x03, 0x00, 0x00, 0x00, 0x0f, 0x00, 0x00, 0x00,
  0x09, 0x00, 0x00, 0x00, 0x03, 0x00, 0x00, 0x00, 0x0a, 0xff, 0xff, 0xff,
  0x14, 0x00, 0x00, 0x00, 0x00, 0x00, 0x00, 0x1b, 0x10, 0x00, 0x00, 0x00,
  0x14, 0x00, 0x00, 0x00, 0x05, 0x00, 0x00, 0x00, 0x94, 0xf7, 0xff, 0xff,
  0x01, 0x00, 0x00, 0x00, 0x0f, 0x00, 0x00, 0x00, 0x02, 0x00, 0x00, 0x00,
  0x0e, 0x00, 0x00, 0x00, 0x08, 0x00, 0x00, 0x00, 0x3a, 0xff, 0xff, 0xff,
  0x20, 0x00, 0x00, 0x00, 0x00, 0x00, 0x00, 0x01, 0x2c, 0x00, 0x00, 0x00,
  0x30, 0x00, 0x00, 0x00, 0x04, 0x00, 0x00, 0x00, 0x0c, 0x00, 0x14, 0x00,
  0x13, 0x00, 0x0c, 0x00, 0x08, 0x00, 0x07, 0x00, 0x0c, 0x00, 0x00, 0x00,
  0x00, 0x00, 0x00, 0x01, 0x01, 0x00, 0x00, 0x00, 0x01, 0x00, 0x00, 0x00,
  0x00, 0x00, 0x00, 0x01, 0x01, 0x00, 0x00, 0x00, 0x0e, 0x00, 0x00, 0x00,
  0x03, 0x00, 0x00, 0x00, 0x0d, 0x00, 0x00, 0x00, 0x02, 0x00, 0x00, 0x00,
  0x01, 0x00, 0x00, 0x00, 0x00, 0x00, 0x0a, 0x00, 0x10, 0x00, 0x0c, 0x00,
  0x08, 0x00, 0x04, 0x00, 0x0a, 0x00, 0x00, 0x00, 0x0c, 0x00, 0x00, 0x00,
  0x10, 0x00, 0x00, 0x00, 0x03, 0x00, 0x00, 0x00, 0x01, 0x00, 0x00, 0x00,
  0x0d, 0x00, 0x00, 0x00, 0x02, 0x00, 0x00, 0x00, 0x00, 0x00, 0x00, 0x00,
  0x0c, 0x00, 0x00, 0x00, 0xba, 0xff, 0xff, 0xff, 0x1c, 0x00, 0x00, 0x00,
  0x00, 0x00, 0x00, 0x3b, 0x1c, 0x00, 0x00, 0x00, 0x20, 0x00, 0x00, 0x00,
  0x02, 0x00, 0x00, 0x00, 0x00, 0x00, 0x06, 0x00, 0x08, 0x00, 0x04, 0x00,
  0x06, 0x00, 0x00, 0x00, 0x04, 0x00, 0x00, 0x00, 0x01, 0x00, 0x00, 0x00,
  0x0c, 0x00, 0x00, 0x00, 0x04, 0x00, 0x00, 0x00, 0x0b, 0x00, 0x00, 0x00,
  0x07, 0x00, 0x00, 0x00, 0x06, 0x00, 0x00, 0x00, 0x06, 0x00, 0x00, 0x00,
  0x00, 0x00, 0x0e, 0x00, 0x1a, 0x00, 0x14, 0x00, 0x10, 0x00, 0x0c, 0x00,
  0x0b, 0x00, 0x04, 0x00, 0x0e, 0x00, 0x00, 0x00, 0x24, 0x00, 0x00, 0x00,
  0x00, 0x00, 0x00, 0x20, 0x24, 0x00, 0x00, 0x00, 0x28, 0x00, 0x00, 0x00,
  0x01, 0x00, 0x00, 0x00, 0x00, 0x00, 0x0e, 0x00, 0x08, 0x00, 0x00, 0x00,
  0x00, 0x00, 0x00, 0x00, 0x00, 0x00, 0x04, 0x00, 0x0e, 0x00, 0x00, 0x00,
  0x01, 0x00, 0x00, 0x00, 0x01, 0x00, 0x00, 0x00, 0x0b, 0x00, 0x00, 0x00,
  0x04, 0x00, 0x00, 0x00, 0x0a, 0x00, 0x00, 0x00, 0x05, 0x00, 0x00, 0x00,
  0x04, 0x00, 0x00, 0x00, 0x04, 0x00, 0x00, 0x00, 0x00, 0x00, 0x0e, 0x00,
  0x16, 0x00, 0x00, 0x00, 0x10, 0x00, 0x0c, 0x00, 0x0b, 0x00, 0x04, 0x00,
  0x0e, 0x00, 0x00, 0x00, 0x18, 0x00, 0x00, 0x00, 0x00, 0x00, 0x00, 0x37,
  0x18, 0x00, 0x00, 0x00, 0x1c, 0x00, 0x00, 0x00, 0x00, 0x00, 0x06, 0x00,
  0x08, 0x00, 0x07, 0x00, 0x06, 0x00, 0x00, 0x00, 0x00, 0x00, 0x00, 0x02,
  0x01, 0x00, 0x00, 0x00, 0x0a, 0x00, 0x00, 0x00, 0x01, 0x00, 0x00, 0x00,
  0x00, 0x00, 0x00, 0x00, 0x01, 0x00, 0x00, 0x00, 0x11, 0x00, 0x00, 0x00,
  0x01, 0x00, 0x00, 0x00, 0x00, 0x00, 0x00, 0x00, 0x12, 0x00, 0x00, 0x00,
  0xb0, 0x06, 0x00, 0x00, 0x40, 0x06, 0x00, 0x00, 0xd4, 0x05, 0x00, 0x00,
  0x80, 0x05, 0x00, 0x00, 0x24, 0x05, 0x00, 0x00, 0xb4, 0x04, 0x00, 0x00,
  0x64, 0x04, 0x00, 0x00, 0x14, 0x04, 0x00, 0x00, 0xa8, 0x03, 0x00, 0x00,
  0x60, 0x03, 0x00, 0x00, 0x14, 0x03, 0x00, 0x00, 0xc4, 0x02, 0x00, 0x00,
  0x70, 0x02, 0x00, 0x00, 0x04, 0x02, 0x00, 0x00, 0x40, 0x01, 0x00, 0x00,
  0xd4, 0x00, 0x00, 0x00, 0x60, 0x00, 0x00, 0x00, 0x04, 0x00, 0x00, 0x00,
  0xae, 0xf9, 0xff, 0xff, 0x00, 0x00, 0x00, 0x01, 0x14, 0x00, 0x00, 0x00,
  0x1c, 0x00, 0x00, 0x00, 0x1c, 0x00, 0x00, 0x00, 0x12, 0x00, 0x00, 0x00,
  0x34, 0x00, 0x00, 0x00, 0x02, 0x00, 0x00, 0x00, 0xff, 0xff, 0xff, 0xff,
  0x01, 0x00, 0x00, 0x00, 0x94, 0xf9, 0xff, 0xff, 0x19, 0x00, 0x00, 0x00,
  0x53, 0x74, 0x61, 0x74, 0x65, 0x66, 0x75, 0x6c, 0x50, 0x61, 0x72, 0x74,
  0x69, 0x74, 0x69, 0x6f, 0x6e, 0x65, 0x64, 0x43, 0x61, 0x6c, 0x6c, 0x3a,
  0x30, 0x00, 0x00, 0x00, 0x02, 0x00, 0x00, 0x00, 0x01, 0x00, 0x00, 0x00,
  0x01, 0x00, 0x00, 0x00, 0x06, 0xfa, 0xff, 0xff, 0x00, 0x00, 0x00, 0x01,
  0x14, 0x00, 0x00, 0x00, 0x1c, 0x00, 0x00, 0x00, 0x1c, 0x00, 0x00, 0x00,
  0x11, 0x00, 0x00, 0x00, 0x4c, 0x00, 0x00, 0x00, 0x02, 0x00, 0x00, 0x00,
  0xff, 0xff, 0xff, 0xff, 0x01, 0x00, 0x00, 0x00, 0xec, 0xf9, 0xff, 0xff,
  0x30, 0x00, 0x00, 0x00, 0x73, 0x65, 0x71, 0x75, 0x65, 0x6e, 0x74, 0x69,
  0x61, 0x6c, 0x2f, 0x64, 0x65, 0x6e, 0x73, 0x65, 0x2f, 0x4d, 0x61, 0x74,
  0x4d, 0x75, 0x6c, 0x3b, 0x73, 0x65, 0x71, 0x75, 0x65, 0x6e, 0x74, 0x69,
  0x61, 0x6c, 0x2f, 0x64, 0x65, 0x6e, 0x73, 0x65, 0x2f, 0x42, 0x69, 0x61,
  0x73, 0x41, 0x64, 0x64, 0x00, 0x00, 0x00, 0x00, 0x02, 0x00, 0x00, 0x00,
  0x01, 0x00, 0x00, 0x00, 0x01, 0x00, 0x00, 0x00, 0x76, 0xfa, 0xff, 0xff,
  0x00, 0x00, 0x00, 0x01, 0x14, 0x00, 0x00, 0x00, 0x1c, 0x00, 0x00, 0x00,
  0x1c, 0x00, 0x00, 0x00, 0x10, 0x00, 0x00, 0x00, 0x44, 0x00, 0x00, 0x00,
  0x02, 0x00, 0x00, 0x00, 0xff, 0xff, 0xff, 0xff, 0x0a, 0x00, 0x00, 0x00,
  0x5c, 0xfa, 0xff, 0xff, 0x28, 0x00, 0x00, 0x00, 0x73, 0x65, 0x71, 0x75,
  0x65, 0x6e, 0x74, 0x69, 0x61, 0x6c, 0x2f, 0x67, 0x6c, 0x6f, 0x62, 0x61,
  0x6c, 0x5f, 0x61, 0x76, 0x65, 0x72, 0x61, 0x67, 0x65, 0x5f, 0x70, 0x6f,
  0x6f, 0x6c, 0x69, 0x6e, 0x67, 0x32, 0x64, 0x2f, 0x4d, 0x65, 0x61, 0x6e,
  0x00, 0x00, 0x00, 0x00, 0x02, 0x00, 0x00, 0x00, 0x01, 0x00, 0x00, 0x00,
  0x0a, 0x00, 0x00, 0x00, 0xde, 0xfa, 0xff, 0xff, 0x00, 0x00, 0x00, 0x01,
  0x14, 0x00, 0x00, 0x00, 0x24, 0x00, 0x00, 0x00, 0x24, 0x00, 0x00, 0x00,
  0x0f, 0x00, 0x00, 0x00, 0x94, 0x00, 0x00, 0x00, 0x04, 0x00, 0x00, 0x00,
  0xff, 0xff, 0xff, 0xff, 0x12, 0x00, 0x00, 0x00, 0x06, 0x00, 0x00, 0x00,
  0x0a, 0x00, 0x00, 0x00, 0xcc, 0xfa, 0xff, 0xff, 0x72, 0x00, 0x00, 0x00,
  0x73, 0x65, 0x71, 0x75, 0x65, 0x6e, 0x74, 0x69, 0x61, 0x6c, 0x2f, 0x63,
  0x6f, 0x6e, 0x76, 0x32, 0x64, 0x2f, 0x52, 0x65, 0x6c, 0x75, 0x3b, 0x73,
  0x65, 0x71, 0x75, 0x65, 0x6e, 0x74, 0x69, 0x61, 0x6c, 0x2f, 0x63, 0x6f,
  0x6e, 0x76, 0x32, 0x64, 0x2f, 0x42, 0x69, 0x61, 0x73, 0x41, 0x64, 0x64,
  0x3b, 0x73, 0x65, 0x71, 0x75, 0x65, 0x6e, 0x74, 0x69, 0x61, 0x6c, 0x2f,
  0x63, 0x6f, 0x6e, 0x76, 0x32, 0x64, 0x2f, 0x43, 0x6f, 0x6e, 0x76, 0x32,
  0x44, 0x3b, 0x73, 0x65, 0x71, 0x75, 0x65, 0x6e, 0x74, 0x69, 0x61, 0x6c,
  0x2f, 0x63, 0x6f, 0x6e, 0x76, 0x32, 0x64, 0x2f, 0x42, 0x69, 0x61, 0x73,
  0x41, 0x64, 0x64, 0x2f, 0x52, 0x65, 0x61, 0x64, 0x56, 0x61, 0x72, 0x69,
  0x61, 0x62, 0x6c, 0x65, 0x4f, 0x70, 0x00, 0x00, 0x04, 0x00, 0x00, 0x00,
  0x01, 0x00, 0x00, 0x00, 0x12, 0x00, 0x00, 0x00, 0x06, 0x00, 0x00, 0x00,
  0x0a, 0x00, 0x00, 0x00, 0x9e, 0xfb, 0xff, 0xff, 0x00, 0x00, 0x00, 0x01,
  0x14, 0x00, 0x00, 0x00, 0x24, 0x00, 0x00, 0x00, 0x24, 0x00, 0x00, 0x00,
  0x0e, 0x00, 0x00, 0x00, 0x3c, 0x00, 0x00, 0x00, 0x04, 0x00, 0x00, 0x00,
  0xff, 0xff, 0xff, 0xff, 0x14, 0x00, 0x00, 0x00, 0x08, 0x00, 0x00, 0x00,
  0x08, 0x00, 0x00, 0x00, 0x8c, 0xfb, 0xff, 0xff, 0x1a, 0x00, 0x00, 0x00,
  0x73, 0x65, 0x71, 0x75, 0x65, 0x6e, 0x74, 0x69, 0x61, 0x6c, 0x2f, 0x72,
  0x65, 0x73, 0x68, 0x61, 0x70, 0x65, 0x2f, 0x52, 0x65, 0x73, 0x68, 0x61,
  0x70, 0x65, 0x00, 0x00, 0x04, 0x00, 0x00, 0x00, 0x01, 0x00, 0x00, 0x00,
  0x14, 0x00, 0x00, 0x00, 0x08, 0x00, 0x00, 0x00, 0x08, 0x00, 0x00, 0x00,
  0x82, 0xfd, 0xff, 0xff, 0x00, 0x00, 0x00, 0x01, 0x14, 0x00, 0x00, 0x00,
  0x14, 0x00, 0x00, 0x00, 0x0d, 0x00, 0x00, 0x00, 0x00, 0x00, 0x00, 0x02,
  0x30, 0x00, 0x00, 0x00, 0xe0, 0xfb, 0xff, 0xff, 0x20, 0x00, 0x00, 0x00,
  0x73, 0x65, 0x71, 0x75, 0x65, 0x6e, 0x74, 0x69, 0x61, 0x6c, 0x2f, 0x72,
  0x65, 0x73, 0x68, 0x61, 0x70, 0x65, 0x2f, 0x52, 0x65, 0x73, 0x68, 0x61,
  0x70, 0x65, 0x2f, 0x73, 0x68, 0x61, 0x70, 0x65, 0x00, 0x00, 0x00, 0x00,
  0x01, 0x00, 0x00, 0x00, 0x04, 0x00, 0x00, 0x00, 0xd2, 0xfd, 0xff, 0xff,
  0x00, 0x00, 0x00, 0x01, 0x14, 0x00, 0x00, 0x00, 0x14, 0x00, 0x00, 0x00,
  0x0c, 0x00, 0x00, 0x00, 0x00, 0x00, 0x00, 0x02, 0x30, 0x00, 0x00, 0x00,
  0x30, 0xfc, 0xff, 0xff, 0x20, 0x00, 0x00, 0x00, 0x73, 0x65, 0x71, 0x75,
  0x65, 0x6e, 0x74, 0x69, 0x61, 0x6c, 0x2f, 0x72, 0x65, 0x73, 0x68, 0x61,
  0x70, 0x65, 0x2f, 0x73, 0x74, 0x72, 0x69, 0x64, 0x65, 0x64, 0x5f, 0x73,
  0x6c, 0x69, 0x63, 0x65, 0x00, 0x00, 0x00, 0x00, 0x00, 0x00, 0x00, 0x00,
  0x1e, 0xfe, 0xff, 0xff, 0x00, 0x00, 0x00, 0x01, 0x14, 0x00, 0x00, 0x00,
  0x14, 0x00, 0x00, 0x00, 0x0b, 0x00, 0x00, 0x00, 0x00, 0x00, 0x00, 0x02,
  0x28, 0x00, 0x00, 0x00, 0x7c, 0xfc, 0xff, 0xff, 0x18, 0x00, 0x00, 0x00,
  0x73, 0x65, 0x71, 0x75, 0x65, 0x6e, 0x74, 0x69, 0x61, 0x6c, 0x2f, 0x72,
  0x65, 0x73, 0x68, 0x61, 0x70, 0x65, 0x2f, 0x53, 0x68, 0x61, 0x70, 0x65,
  0x00, 0x00, 0x00, 0x00, 0x01, 0x00, 0x00, 0x00, 0x03, 0x00, 0x00, 0x00,
  0x56, 0xfd, 0xff, 0xff, 0x00, 0x00, 0x00, 0x01, 0x10, 0x00, 0x00, 0x00,
  0x10, 0x00, 0x00, 0x00, 0x0a, 0x00, 0x00, 0x00, 0x24, 0x00, 0x00, 0x00,
  0xc0, 0xfc, 0xff, 0xff, 0x17, 0x00, 0x00, 0x00, 0x73, 0x65, 0x71, 0x75,
  0x65, 0x6e, 0x74, 0x69, 0x61, 0x6c, 0x2f, 0x64, 0x65, 0x6e, 0x73, 0x65,
  0x2f, 0x4d, 0x61, 0x74, 0x4d, 0x75, 0x6c, 0x00, 0x02, 0x00, 0x00, 0x00,
  0x01, 0x00, 0x00, 0x00, 0x0a, 0x00, 0x00, 0x00, 0xaa, 0xfe, 0xff, 0xff,
  0x00, 0x00, 0x00, 0x01, 0x14, 0x00, 0x00, 0x00, 0x14, 0x00, 0x00, 0x00,
  0x09, 0x00, 0x00, 0x00, 0x00, 0x00, 0x00, 0x02, 0x48, 0x00, 0x00, 0x00,
  0x08, 0xfd, 0xff, 0xff, 0x3a, 0x00, 0x00, 0x00, 0x73, 0x65, 0x71, 0x75,
  0x65, 0x6e, 0x74, 0x69, 0x61, 0x6c, 0x2f, 0x67, 0x6c, 0x6f, 0x62, 0x61,
  0x6c, 0x5f, 0x61, 0x76, 0x65, 0x72, 0x61, 0x67, 0x65, 0x5f, 0x70, 0x6f,
  0x6f, 0x6c, 0x69, 0x6e, 0x67, 0x32, 0x64, 0x2f, 0x4d, 0x65, 0x61, 0x6e,
  0x2f, 0x72, 0x65, 0x64, 0x75, 0x63, 0x74, 0x69, 0x6f, 0x6e, 0x5f, 0x69,
  0x6e, 0x64, 0x69, 0x63, 0x65, 0x73, 0x00, 0x00, 0x01, 0x00, 0x00, 0x00,
  0x02, 0x00, 0x00, 0x00, 0x12, 0xff, 0xff, 0xff, 0x00, 0x00, 0x00, 0x01,
  0x14, 0x00, 0x00, 0x00, 0x14, 0x00, 0x00, 0x00, 0x08, 0x00, 0x00, 0x00,
  0x00, 0x00, 0x00, 0x02, 0x30, 0x00, 0x00, 0x00, 0x70, 0xfd, 0xff, 0xff,
  0x22, 0x00, 0x00, 0x00, 0x73, 0x65, 0x71, 0x75, 0x65, 0x6e, 0x74, 0x69,
  0x61, 0x6c, 0x2f, 0x72, 0x65, 0x73, 0x68, 0x61, 0x70, 0x65, 0x2f, 0x52,
  0x65, 0x73, 0x68, 0x61, 0x70, 0x65, 0x2f, 0x73, 0x68, 0x61, 0x70, 0x65,
  0x2f, 0x31, 0x00, 0x00, 0x00, 0x00, 0x00, 0x00, 0x5e, 0xff, 0xff, 0xff,
  0x00, 0x00, 0x00, 0x01, 0x14, 0x00, 0x00, 0x00, 0x14, 0x00, 0x00, 0x00,
  0x07, 0x00, 0x00, 0x00, 0x00, 0x00, 0x00, 0x02, 0x30, 0x00, 0x00, 0x00,
  0xbc, 0xfd, 0xff, 0xff, 0x22, 0x00, 0x00, 0x00, 0x73, 0x65, 0x71, 0x75,
  0x65, 0x6e, 0x74, 0x69, 0x61, 0x6c, 0x2f, 0x72, 0x65, 0x73, 0x68, 0x61,
  0x70, 0x65, 0x2f, 0x52, 0x65, 0x73, 0x68, 0x61, 0x70, 0x65, 0x2f, 0x73,
  0x68, 0x61, 0x70, 0x65, 0x2f, 0x32, 0x00, 0x00, 0x00, 0x00, 0x00, 0x00,
  0xaa, 0xff, 0xff, 0xff, 0x00, 0x00, 0x00, 0x01, 0x14, 0x00, 0x00, 0x00,
  0x14, 0x00, 0x00, 0x00, 0x06, 0x00, 0x00, 0x00, 0x00, 0x00, 0x00, 0x02,
  0x34, 0x00, 0x00, 0x00, 0x08, 0xfe, 0xff, 0xff, 0x26, 0x00, 0x00, 0x00,
  0x73, 0x65, 0x71, 0x75, 0x65, 0x6e, 0x74, 0x69, 0x61, 0x6c, 0x2f, 0x72,
  0x65, 0x73, 0x68, 0x61, 0x70, 0x65, 0x2f, 0x73, 0x74, 0x72, 0x69, 0x64,
  0x65, 0x64, 0x5f, 0x73, 0x6c, 0x69, 0x63, 0x65, 0x2f, 0x73, 0x74, 0x61,
  0x63, 0x6b, 0x00, 0x00, 0x01, 0x00, 0x00, 0x00, 0x01, 0x00, 0x00, 0x00,
  0x00, 0x00, 0x16, 0x00, 0x1c, 0x00, 0x18, 0x00, 0x17, 0x00, 0x10, 0x00,
  0x0c, 0x00, 0x08, 0x00, 0x00, 0x00, 0x00, 0x00, 0x00, 0x00, 0x07, 0x00,
  0x16, 0x00, 0x00, 0x00, 0x00, 0x00, 0x00, 0x01, 0x14, 0x00, 0x00, 0x00,
  0x14, 0x00, 0x00, 0x00, 0x05, 0x00, 0x00, 0x00, 0x00, 0x00, 0x00, 0x02,
  0x38, 0x00, 0x00, 0x00, 0x74, 0xfe, 0xff, 0xff, 0x28, 0x00, 0x00, 0x00,
  0x73, 0x65, 0x71, 0x75, 0x65, 0x6e, 0x74, 0x69, 0x61, 0x6c, 0x2f, 0x72,
  0x65, 0x73, 0x68, 0x61, 0x70, 0x65, 0x2f, 0x73, 0x74, 0x72, 0x69, 0x64,
  0x65, 0x64, 0x5f, 0x73, 0x6c, 0x69, 0x63, 0x65, 0x2f, 0x73, 0x74, 0x61,
  0x63, 0x6b, 0x5f, 0x31, 0x00, 0x00, 0x00, 0x00, 0x01, 0x00, 0x00, 0x00,
  0x01, 0x00, 0x00, 0x00, 0x5e, 0xff, 0xff, 0xff, 0x00, 0x00, 0x00, 0x01,
  0x10, 0x00, 0x00, 0x00, 0x10, 0x00, 0x00, 0x00, 0x04, 0x00, 0x00, 0x00,
  0x34, 0x00, 0x00, 0x00, 0xc8, 0xfe, 0xff, 0xff, 0x27, 0x00, 0x00, 0x00,
  0x73, 0x65, 0x71, 0x75, 0x65, 0x6e, 0x74, 0x69, 0x61, 0x6c, 0x2f, 0x64,
  0x65, 0x6e, 0x73, 0x65, 0x2f, 0x42, 0x69, 0x61, 0x73, 0x41, 0x64, 0x64,
  0x2f, 0x52, 0x65, 0x61, 0x64, 0x56, 0x61, 0x72, 0x69, 0x61, 0x62, 0x6c,
  0x65, 0x4f, 0x70, 0x00, 0x01, 0x00, 0x00, 0x00, 0x01, 0x00, 0x00, 0x00,
  0xae, 0xff, 0xff, 0xff, 0x00, 0x00, 0x00, 0x01, 0x10, 0x00, 0x00, 0x00,
  0x10, 0x00, 0x00, 0x00, 0x03, 0x00, 0x00, 0x00, 0x28, 0x00, 0x00, 0x00,
  0x18, 0xff, 0xff, 0xff, 0x18, 0x00, 0x00, 0x00, 0x73, 0x65, 0x71, 0x75,
  0x65, 0x6e, 0x74, 0x69, 0x61, 0x6c, 0x2f, 0x63, 0x6f, 0x6e, 0x76, 0x32,
  0x64, 0x2f, 0x43, 0x6f, 0x6e, 0x76, 0x32, 0x44, 0x00, 0x00, 0x00, 0x00,
  0x04, 0x00, 0x00, 0x00, 0x0a, 0x00, 0x00, 0x00, 0x03, 0x00, 0x00, 0x00,
  0x03, 0x00, 0x00, 0x00, 0x08, 0x00, 0x00, 0x00, 0x00, 0x00, 0x16, 0x00,
  0x18, 0x00, 0x14, 0x00, 0x00, 0x00, 0x10, 0x00, 0x0c, 0x00, 0x08, 0x00,
  0x00, 0x00, 0x00, 0x00, 0x00, 0x00, 0x07, 0x00, 0x16, 0x00, 0x00, 0x00,
  0x00, 0x00, 0x00, 0x01, 0x10, 0x00, 0x00, 0x00, 0x10, 0x00, 0x00, 0x00,
  0x02, 0x00, 0x00, 0x00, 0x38, 0x00, 0x00, 0x00, 0x80, 0xff, 0xff, 0xff,
  0x28, 0x00, 0x00, 0x00, 0x73, 0x65, 0x71, 0x75, 0x65, 0x6e, 0x74, 0x69,
  0x61, 0x6c, 0x2f, 0x63, 0x6f, 0x6e, 0x76, 0x32, 0x64, 0x2f, 0x42, 0x69,
  0x61, 0x73, 0x41, 0x64, 0x64, 0x2f, 0x52, 0x65, 0x61, 0x64, 0x56, 0x61,
  0x72, 0x69, 0x61, 0x62, 0x6c, 0x65, 0x4f, 0x70, 0x00, 0x00, 0x00, 0x00,
  0x01, 0x00, 0x00, 0x00, 0x0a, 0x00, 0x00, 0x00, 0x00, 0x00, 0x16, 0x00,
  0x1c, 0x00, 0x18, 0x00, 0x00, 0x00, 0x14, 0x00, 0x10, 0x00, 0x0c, 0x00,
  0x00, 0x00, 0x00, 0x00, 0x08, 0x00, 0x07, 0x00, 0x16, 0x00, 0x00, 0x00,
  0x00, 0x00, 0x00, 0x01, 0x14, 0x00, 0x00, 0x00, 0x24, 0x00, 0x00, 0x00,
  0x24, 0x00, 0x00, 0x00, 0x01, 0x00, 0x00, 0x00, 0x40, 0x00, 0x00, 0x00,
  0x03, 0x00, 0x00, 0x00, 0xff, 0xff, 0xff, 0xff, 0x14, 0x00, 0x00, 0x00,
  0x40, 0x00, 0x00, 0x00, 0x04, 0x00, 0x04, 0x00, 0x04, 0x00, 0x00, 0x00,
  0x1f, 0x00, 0x00, 0x00, 0x73, 0x65, 0x72, 0x76, 0x69, 0x6e, 0x67, 0x5f,
  0x64, 0x65, 0x66, 0x61, 0x75, 0x6c, 0x74, 0x5f, 0x72, 0x65, 0x73, 0x68,
  0x61, 0x70, 0x65, 0x5f, 0x69, 0x6e, 0x70, 0x75, 0x74, 0x3a, 0x30, 0x00,
  0x03, 0x00, 0x00, 0x00, 0x01, 0x00, 0x00, 0x00, 0x14, 0x00, 0x00, 0x00,
  0x40, 0x00, 0x00, 0x00, 0x08, 0x00, 0x00, 0x00, 0x80, 0x00, 0x00, 0x00,
  0x64, 0x00, 0x00, 0x00, 0x54, 0x00, 0x00, 0x00, 0x44, 0x00, 0x00, 0x00,
  0x34, 0x00, 0x00, 0x00, 0x24, 0x00, 0x00, 0x00, 0x14, 0x00, 0x00, 0x00,
  0x04, 0x00, 0x00, 0x00, 0xac, 0xff, 0xff, 0xff, 0x0e, 0x00, 0x00, 0x00,
  0x00, 0x00, 0x00, 0x0e, 0xb8, 0xff, 0xff, 0xff, 0x09, 0x00, 0x00, 0x00,
  0x00, 0x00, 0x00, 0x09, 0xc4, 0xff, 0xff, 0xff, 0x28, 0x00, 0x00, 0x00,
  0x00, 0x00, 0x00, 0x28, 0xd0, 0xff, 0xff, 0xff, 0x03, 0x00, 0x00, 0x00,
  0x00, 0x00, 0x00, 0x03, 0xdc, 0xff, 0xff, 0xff, 0x16, 0x00, 0x00, 0x00,
  0x00, 0x00, 0x00, 0x16, 0xe8, 0xff, 0xff, 0xff, 0x53, 0x00, 0x00, 0x00,
  0x00, 0x00, 0x00, 0x53, 0xf4, 0xff, 0xff, 0xff, 0x2d, 0x00, 0x00, 0x00,
  0x00, 0x00, 0x00, 0x2d, 0x0c, 0x00, 0x0c, 0x00, 0x0b, 0x00, 0x00, 0x00,
  0x00, 0x00, 0x04, 0x00, 0x0c, 0x00, 0x00, 0x00, 0x4d, 0x00, 0x00, 0x00,
  0x00, 0x00, 0x00, 0x4d};
extern const int model_tflite_len PROGMEM = 6208;

#endif  // TENSORFLOW_LITE_MICRO_MODEL_DATA_H_