/* Copyright 2019 The TensorFlow Authors. All Rights Reserved.

Licensed under the Apache License, Version 2.0 (the "License");
you may not use this file except in compliance with the License.
You may obtain a copy of the License at

    http://www.apache.org/licenses/LICENSE-2.0

Unless required by applicable law or agreed to in writing, software
distributed under the License is distributed on an "AS IS" BASIS,
WITHOUT WARRANTIES OR CONDITIONS OF ANY KIND, either express or implied.
See the License for the specific language governing permissions and
limitations under the License.
==============================================================================*/

// This is a standard TensorFlow Lite model file that has been converted into a
// C data array, so it can be easily compiled into a binary for devices that
// don't have a file system. It was created using the command:
// xxd -i magic_wand_model.tflite > magic_wand_model_data.cc

#ifndef TENSORFLOW_LITE_MICRO_MODEL_DATA_H_
#define TENSORFLOW_LITE_MICRO_MODEL_DATA_H_

extern const unsigned char g_model_data[] PROGMEM = {
  0x1c, 0x00, 0x00, 0x00, 0x54, 0x46, 0x4c, 0x33, 0x14, 0x00, 0x20, 0x00,
  0x1c, 0x00, 0x18, 0x00, 0x14, 0x00, 0x10, 0x00, 0x0c, 0x00, 0x00, 0x00,
  0x08, 0x00, 0x04, 0x00, 0x14, 0x00, 0x00, 0x00, 0x1c, 0x00, 0x00, 0x00,
  0x90, 0x00, 0x00, 0x00, 0xe8, 0x00, 0x00, 0x00, 0x08, 0x0c, 0x00, 0x00,
  0x18, 0x0c, 0x00, 0x00, 0xdc, 0x17, 0x00, 0x00, 0x03, 0x00, 0x00, 0x00,
  0x01, 0x00, 0x00, 0x00, 0x04, 0x00, 0x00, 0x00, 0x7e, 0xf2, 0xff, 0xff,
  0x0c, 0x00, 0x00, 0x00, 0x1c, 0x00, 0x00, 0x00, 0x3c, 0x00, 0x00, 0x00,
  0x0f, 0x00, 0x00, 0x00, 0x73, 0x65, 0x72, 0x76, 0x69, 0x6e, 0x67, 0x5f,
  0x64, 0x65, 0x66, 0x61, 0x75, 0x6c, 0x74, 0x00, 0x01, 0x00, 0x00, 0x00,
  0x04, 0x00, 0x00, 0x00, 0x8c, 0xff, 0xff, 0xff, 0x14, 0x00, 0x00, 0x00,
  0x04, 0x00, 0x00, 0x00, 0x08, 0x00, 0x00, 0x00, 0x64, 0x65, 0x6e, 0x73,
  0x65, 0x5f, 0x31, 0x30, 0x00, 0x00, 0x00, 0x00, 0x01, 0x00, 0x00, 0x00,
  0x04, 0x00, 0x00, 0x00, 0x86, 0xf2, 0xff, 0xff, 0x04, 0x00, 0x00, 0x00,
  0x10, 0x00, 0x00, 0x00, 0x72, 0x65, 0x73, 0x68, 0x61, 0x70, 0x65, 0x5f,
  0x31, 0x30, 0x5f, 0x69, 0x6e, 0x70, 0x75, 0x74, 0x00, 0x00, 0x00, 0x00,
  0x02, 0x00, 0x00, 0x00, 0x34, 0x00, 0x00, 0x00, 0x04, 0x00, 0x00, 0x00,
  0xdc, 0xff, 0xff, 0xff, 0x17, 0x00, 0x00, 0x00, 0x04, 0x00, 0x00, 0x00,
  0x13, 0x00, 0x00, 0x00, 0x43, 0x4f, 0x4e, 0x56, 0x45, 0x52, 0x53, 0x49,
  0x4f, 0x4e, 0x5f, 0x4d, 0x45, 0x54, 0x41, 0x44, 0x41, 0x54, 0x41, 0x00,
  0x08, 0x00, 0x0c, 0x00, 0x08, 0x00, 0x04, 0x00, 0x08, 0x00, 0x00, 0x00,
  0x16, 0x00, 0x00, 0x00, 0x04, 0x00, 0x00, 0x00, 0x13, 0x00, 0x00, 0x00,
  0x6d, 0x69, 0x6e, 0x5f, 0x72, 0x75, 0x6e, 0x74, 0x69, 0x6d, 0x65, 0x5f,
  0x76, 0x65, 0x72, 0x73, 0x69, 0x6f, 0x6e, 0x00, 0x18, 0x00, 0x00, 0x00,
  0x1c, 0x0b, 0x00, 0x00, 0x14, 0x0b, 0x00, 0x00, 0xec, 0x0a, 0x00, 0x00,
  0xd0, 0x0a, 0x00, 0x00, 0x00, 0x04, 0x00, 0x00, 0x68, 0x01, 0x00, 0x00,
  0x54, 0x01, 0x00, 0x00, 0x40, 0x01, 0x00, 0x00, 0x2c, 0x01, 0x00, 0x00,
  0x18, 0x01, 0x00, 0x00, 0x04, 0x01, 0x00, 0x00, 0xec, 0x00, 0x00, 0x00,
  0xd0, 0x00, 0x00, 0x00, 0xc8, 0x00, 0x00, 0x00, 0xc0, 0x00, 0x00, 0x00,
  0xb8, 0x00, 0x00, 0x00, 0xb0, 0x00, 0x00, 0x00, 0xa8, 0x00, 0x00, 0x00,
  0xa0, 0x00, 0x00, 0x00, 0x98, 0x00, 0x00, 0x00, 0x90, 0x00, 0x00, 0x00,
  0x88, 0x00, 0x00, 0x00, 0x68, 0x00, 0x00, 0x00, 0x04, 0x00, 0x00, 0x00,
  0x66, 0xf3, 0xff, 0xff, 0x04, 0x00, 0x00, 0x00, 0x54, 0x00, 0x00, 0x00,
  0x0c, 0x00, 0x00, 0x00, 0x08, 0x00, 0x0e, 0x00, 0x08, 0x00, 0x04, 0x00,
  0x08, 0x00, 0x00, 0x00, 0x10, 0x00, 0x00, 0x00, 0x24, 0x00, 0x00, 0x00,
  0x00, 0x00, 0x06, 0x00, 0x08, 0x00, 0x04, 0x00, 0x06, 0x00, 0x00, 0x00,
  0x04, 0x00, 0x00, 0x00, 0x00, 0x00, 0x00, 0x00, 0x00, 0x00, 0x0a, 0x00,
  0x10, 0x00, 0x0c, 0x00, 0x08, 0x00, 0x04, 0x00, 0x0a, 0x00, 0x00, 0x00,
  0x02, 0x00, 0x00, 0x00, 0x02, 0x00, 0x00, 0x00, 0x04, 0x00, 0x00, 0x00,
  0x06, 0x00, 0x00, 0x00, 0x32, 0x2e, 0x31, 0x35, 0x2e, 0x30, 0x00, 0x00,
  0xc6, 0xf3, 0xff, 0xff, 0x04, 0x00, 0x00, 0x00, 0x10, 0x00, 0x00, 0x00,
  0x31, 0x2e, 0x31, 0x34, 0x2e, 0x30, 0x00, 0x00, 0x00, 0x00, 0x00, 0x00,
  0x00, 0x00, 0x00, 0x00, 0x20, 0xea, 0xff, 0xff, 0x24, 0xea, 0xff, 0xff,
  0x28, 0xea, 0xff, 0xff, 0x2c, 0xea, 0xff, 0xff, 0x30, 0xea, 0xff, 0xff,
  0x34, 0xea, 0xff, 0xff, 0x38, 0xea, 0xff, 0xff, 0x3c, 0xea, 0xff, 0xff,
  0x40, 0xea, 0xff, 0xff, 0x06, 0xf4, 0xff, 0xff, 0x04, 0x00, 0x00, 0x00,
  0x0c, 0x00, 0x00, 0x00, 0x71, 0x21, 0x05, 0xc0, 0xe7, 0xe4, 0x2b, 0xc0,
  0x47, 0x6f, 0x35, 0xc0, 0x1e, 0xf4, 0xff, 0xff, 0x04, 0x00, 0x00, 0x00,
  0x08, 0x00, 0x00, 0x00, 0x01, 0x00, 0x00, 0x00, 0x02, 0x00, 0x00, 0x00,
  0x32, 0xf4, 0xff, 0xff, 0x04, 0x00, 0x00, 0x00, 0x04, 0x00, 0x00, 0x00,
  0x14, 0x00, 0x00, 0x00, 0x42, 0xf4, 0xff, 0xff, 0x04, 0x00, 0x00, 0x00,
  0x04, 0x00, 0x00, 0x00, 0x08, 0x00, 0x00, 0x00, 0x52, 0xf4, 0xff, 0xff,
  0x04, 0x00, 0x00, 0x00, 0x04, 0x00, 0x00, 0x00, 0x00, 0x00, 0x00, 0x00,
  0x62, 0xf4, 0xff, 0xff, 0x04, 0x00, 0x00, 0x00, 0x04, 0x00, 0x00, 0x00,
  0x01, 0x00, 0x00, 0x00, 0x72, 0xf4, 0xff, 0xff, 0x04, 0x00, 0x00, 0x00,
  0x04, 0x00, 0x00, 0x00, 0x9c, 0xf0, 0x3c, 0x40, 0x82, 0xf4, 0xff, 0xff,
  0x04, 0x00, 0x00, 0x00, 0x88, 0x02, 0x00, 0x00, 0x82, 0x5b, 0x83, 0xbf,
  0xac, 0xa7, 0x4b, 0xbf, 0x0f, 0x33, 0x38, 0x3f, 0xb9, 0x58, 0x3f, 0x3f,
  0x79, 0x0f, 0x3f, 0x3f, 0xfa, 0xb6, 0x76, 0x3f, 0x03, 0xbb, 0xf6, 0xbe,
  0xe1, 0x88, 0x8b, 0xbe, 0xab, 0xc8, 0xbc, 0x3e, 0x69, 0xe4, 0xbc, 0x3e,
  0xb1, 0x01, 0xea, 0x3e, 0xd4, 0x5c, 0xa4, 0xbe, 0x3d, 0x09, 0xb6, 0x3e,
  0x7c, 0xe0, 0x9e, 0xbd, 0xbc, 0x61, 0x83, 0x3f, 0x1a, 0x89, 0x5d, 0x3f,
  0xce, 0xe2, 0x61, 0x3f, 0x22, 0xba, 0x3d, 0xbf, 0xee, 0x17, 0x44, 0xbf,
  0x0d, 0xfb, 0x36, 0xbf, 0x0c, 0x71, 0x04, 0x3f, 0xe1, 0x1a, 0x38, 0x3f,
  0x24, 0x72, 0x6b, 0x3f, 0xbf, 0x17, 0x28, 0x3f, 0xdb, 0x7f, 0x0f, 0xbf,
  0x60, 0xdb, 0x8e, 0xbe, 0x32, 0xd3, 0xa8, 0x3e, 0x97, 0xb2, 0x5e, 0x3e,
  0x22, 0x82, 0x07, 0x3f, 0x82, 0x04, 0x10, 0xbf, 0x41, 0xb7, 0x01, 0x3f,
  0xc0, 0x92, 0x0c, 0x3e, 0x92, 0x54, 0x05, 0x3f, 0x03, 0x28, 0x88, 0x3f,
  0x99, 0xaf, 0x28, 0x3f, 0xd3, 0xdc, 0x30, 0xbf, 0xa2, 0xb9, 0x85, 0xbf,
  0xa7, 0x38, 0x82, 0xbf, 0x64, 0x28, 0xed, 0x3e, 0x4a, 0x2a, 0x40, 0x3f,
  0xc1, 0x69, 0x81, 0x3f, 0x73, 0xf9, 0x33, 0x3f, 0x4c, 0x10, 0xec, 0xbe,
  0xff, 0x34, 0xc5, 0xbe, 0xaf, 0x08, 0xcd, 0x3d, 0x9a, 0x04, 0x23, 0x3f,
  0xde, 0x9d, 0x51, 0x3f, 0xac, 0x2f, 0x08, 0xbf, 0xe3, 0xa0, 0x90, 0x3e,
  0x5d, 0x0e, 0x35, 0x3d, 0xe4, 0xf7, 0x5d, 0x3f, 0x24, 0x3e, 0x6b, 0x3f,
  0xe1, 0xe2, 0x85, 0x3f, 0xab, 0x34, 0x8b, 0xbf, 0x41, 0x2a, 0x2d, 0xbf,
  0xee, 0x26, 0x44, 0xbf, 0xff, 0xfa, 0x01, 0x3f, 0xa1, 0xf5, 0x26, 0x3f,
  0xf5, 0xb3, 0x32, 0x3f, 0xde, 0x42, 0x30, 0x3f, 0x78, 0x48, 0x11, 0xbf,
  0x3e, 0x84, 0x73, 0xbd, 0xfb, 0x9c, 0xeb, 0x3e, 0x5c, 0xed, 0x86, 0x3e,
  0x3f, 0xbb, 0xc3, 0x3e, 0x0f, 0x55, 0xa1, 0xbd, 0x55, 0x16, 0x9c, 0x3e,
  0xea, 0x77, 0x3a, 0xbe, 0xa7, 0x28, 0x3c, 0x3f, 0x66, 0xa6, 0x43, 0x3f,
  0xf9, 0x89, 0x24, 0x3f, 0xeb, 0x34, 0x47, 0xbf, 0x49, 0x70, 0x31, 0xbf,
  0x6f, 0x45, 0x35, 0xbf, 0xa2, 0x2b, 0x1d, 0x3f, 0x2f, 0x25, 0x2d, 0x3f,
  0xdf, 0xfc, 0x4d, 0x3f, 0xf1, 0x7d, 0x04, 0x3f, 0x56, 0x56, 0x39, 0xbe,
  0xea, 0x8d, 0x6b, 0xbe, 0xe7, 0x7e, 0x45, 0xbb, 0x9f, 0x85, 0x9d, 0x3e,
  0x3b, 0xfd, 0x33, 0x3e, 0x90, 0xef, 0xbd, 0xbe, 0x30, 0x8d, 0xaa, 0x3e,
  0x43, 0x89, 0x1f, 0x3e, 0x0d, 0x9e, 0xd2, 0x3e, 0x7d, 0x84, 0x16, 0x3f,
  0x3b, 0xf8, 0x03, 0x3f, 0x66, 0x9b, 0x49, 0xbf, 0x67, 0xb6, 0x75, 0xbf,
  0x9c, 0xe2, 0x35, 0xbf, 0x7a, 0xba, 0x02, 0x3f, 0x77, 0x74, 0x3e, 0x3f,
  0xea, 0xb8, 0x3d, 0x3f, 0xd2, 0x70, 0x0e, 0x3f, 0xf2, 0xed, 0x85, 0xbe,
  0x11, 0xcf, 0x81, 0xbe, 0xa0, 0xa3, 0xe7, 0x3d, 0x79, 0xcf, 0xd4, 0x3e,
  0x97, 0x57, 0xf0, 0x3e, 0xa8, 0x66, 0xb6, 0xbe, 0x54, 0x99, 0x84, 0x3e,
  0x62, 0xbe, 0x3b, 0xbd, 0x64, 0x2d, 0x07, 0x3f, 0x2f, 0x4a, 0x77, 0x3f,
  0x1d, 0x6d, 0x5c, 0x3f, 0x61, 0x5a, 0x48, 0xbf, 0x24, 0x7f, 0x3f, 0xbf,
  0x72, 0xca, 0x0f, 0xbf, 0x25, 0x2e, 0x1e, 0x3f, 0xf3, 0x7a, 0x21, 0x3f,
  0x67, 0xa1, 0x12, 0x3f, 0x4d, 0x47, 0x24, 0x3f, 0x2a, 0xe2, 0xd8, 0xbe,
  0x13, 0x7b, 0xf0, 0xbd, 0x28, 0x18, 0xb4, 0x3e, 0x01, 0x67, 0x3f, 0x3e,
  0x68, 0x51, 0x02, 0x3f, 0xf7, 0x62, 0x2d, 0xbc, 0x7a, 0x3f, 0xb3, 0x3e,
  0x77, 0xa7, 0x37, 0xbe, 0xcd, 0xe4, 0x0c, 0x3f, 0xf6, 0x4f, 0x1b, 0x3f,
  0xf1, 0xfe, 0x26, 0x3f, 0x69, 0xfa, 0x32, 0xbf, 0x95, 0x89, 0x30, 0xbf,
  0x42, 0x66, 0x23, 0xbf, 0xe3, 0x50, 0xab, 0x3e, 0x28, 0x93, 0x2f, 0x3f,
  0x4e, 0xa2, 0x2c, 0x3f, 0xe3, 0x4f, 0xde, 0x3e, 0xa5, 0x71, 0x71, 0xbe,
  0xff, 0xc0, 0xa8, 0xbe, 0xac, 0x76, 0xc8, 0x3d, 0x82, 0xab, 0x67, 0x3e,
  0x14, 0x05, 0xdd, 0x3e, 0x20, 0xb2, 0x08, 0xbf, 0x76, 0xe1, 0x4d, 0x3e,
  0x04, 0x24, 0x7b, 0x3e, 0x42, 0xc4, 0x1c, 0x3f, 0x8c, 0x5a, 0x57, 0x3f,
  0x32, 0x5d, 0x0e, 0x3f, 0x1b, 0xac, 0x13, 0xbf, 0xa4, 0xb1, 0x61, 0xbf,
  0x41, 0x78, 0x33, 0xbf, 0xba, 0x00, 0xb1, 0x3e, 0x57, 0xf5, 0x14, 0x3f,
  0xf3, 0x5d, 0x27, 0x3f, 0xd7, 0x65, 0x1c, 0x3f, 0x18, 0x05, 0xa9, 0xbd,
  0x3c, 0xf5, 0x48, 0xbe, 0x88, 0x48, 0x18, 0x3e, 0x41, 0x06, 0xbb, 0x3e,
  0x07, 0x6b, 0x0f, 0x3f, 0xd6, 0x47, 0x75, 0xbe, 0x13, 0xb7, 0x97, 0x3d,
  0xc2, 0x96, 0x4b, 0xbd, 0x39, 0x37, 0x14, 0x3f, 0x19, 0x84, 0x3e, 0x3f,
  0x77, 0x1f, 0x16, 0x3f, 0x64, 0x72, 0x63, 0xbf, 0x16, 0xf7, 0xff, 0xff,
  0x04, 0x00, 0x00, 0x00, 0xc0, 0x06, 0x00, 0x00, 0x9f, 0xa1, 0x06, 0xbf,
  0x8d, 0x98, 0x81, 0xbe, 0x93, 0xba, 0x1a, 0xbe, 0xa7, 0x38, 0x26, 0x3b,
  0x83, 0x90, 0x3c, 0x3f, 0x8d, 0x42, 0x3c, 0x3f, 0x17, 0xea, 0xad, 0x3e,
  0xa1, 0x13, 0x00, 0x3f, 0xba, 0x6e, 0x32, 0x3e, 0xbf, 0xc3, 0xc2, 0x3e,
  0x84, 0xc7, 0xbe, 0xbe, 0x86, 0x83, 0xdd, 0xbd, 0x49, 0x3d, 0x79, 0x3e,
  0x22, 0x1c, 0x42, 0x3e, 0x0e, 0x93, 0x90, 0xbc, 0x29, 0x9e, 0x81, 0x3e,
  0x55, 0x4d, 0x8e, 0x3e, 0xac, 0xcb, 0x90, 0x3e, 0x00, 0x9e, 0xa9, 0x3e,
  0x8f, 0x22, 0xbb, 0x3e, 0x52, 0xab, 0x7a, 0x3e, 0xd4, 0x3d, 0x38, 0x3e,
  0x5e, 0xdc, 0x73, 0x3e, 0x88, 0x51, 0xaa, 0x3e, 0x25, 0xe0, 0xed, 0xbe,
  0x37, 0x4a, 0x7d, 0xbe, 0xbf, 0x7f, 0x9d, 0xbe, 0x4e, 0x56, 0x00, 0xbe,
  0x92, 0x4a, 0x57, 0x3e, 0x41, 0x9f, 0x47, 0x3e, 0xd5, 0x25, 0x70, 0x3e,
  0x0f, 0x7c, 0x86, 0x3e, 0x44, 0x25, 0x53, 0xbf, 0x87, 0x28, 0x02, 0x3e,
  0x88, 0xbe, 0x85, 0xbc, 0xd1, 0x67, 0xe4, 0x3d, 0xd0, 0x9f, 0xcc, 0xbe,
  0x0e, 0x6e, 0x5c, 0xbe, 0xab, 0x58, 0xa9, 0xbd, 0x8a, 0xe0, 0x70, 0x3e,
  0xde, 0x13, 0x8c, 0xbe, 0x78, 0xc8, 0x6e, 0xbd, 0x5f, 0x37, 0xa5, 0x3e,
  0xe6, 0x7f, 0xf1, 0x3e, 0xf7, 0x9c, 0xd4, 0x3d, 0xcc, 0x0c, 0x0e, 0x3f,
  0x63, 0x89, 0x4c, 0x3e, 0xf4, 0xd5, 0x6c, 0x3e, 0x03, 0xd9, 0x32, 0xbf,
  0x1c, 0x23, 0x25, 0xbf, 0x57, 0x61, 0x10, 0xbf, 0x58, 0x9c, 0x66, 0xbe,
  0x1c, 0x40, 0x95, 0xbe, 0x62, 0x76, 0x7e, 0xbe, 0xe7, 0xbc, 0x63, 0xbe,
  0x09, 0x00, 0x87, 0x3e, 0x65, 0x73, 0x6d, 0xbf, 0xe1, 0xbd, 0xe1, 0x3d,
  0x90, 0x90, 0x63, 0xbe, 0x12, 0x76, 0xcb, 0xbd, 0xe3, 0x92, 0x12, 0xbf,
  0x0d, 0xe7, 0x03, 0xbe, 0x55, 0x2d, 0xa9, 0xbe, 0xee, 0x05, 0x85, 0xbd,
  0x77, 0xec, 0x4a, 0xbf, 0xb4, 0xde, 0x38, 0xbe, 0xb5, 0xe6, 0xc6, 0xbd,
  0x74, 0xad, 0xfe, 0x3d, 0x49, 0x8c, 0xe0, 0x3d, 0x77, 0xfd, 0x9e, 0x3e,
  0xa4, 0xe3, 0xd9, 0x3e, 0xe9, 0xe3, 0x61, 0x3e, 0xef, 0xc4, 0xcc, 0xbe,
  0xb8, 0x3e, 0xbb, 0xbd, 0x75, 0x75, 0xd9, 0xbe, 0x7d, 0xcf, 0x0a, 0xbf,
  0xce, 0x81, 0xcf, 0xbe, 0xc7, 0x70, 0x15, 0xbf, 0x67, 0x30, 0xab, 0xbe,
  0x98, 0x51, 0x4a, 0xbf, 0xc1, 0x31, 0x50, 0x3e, 0x7e, 0xc0, 0xc8, 0x3e,
  0xe9, 0x9c, 0xd4, 0xbe, 0xd8, 0xd7, 0x54, 0x3e, 0x23, 0x73, 0x20, 0xbe,
  0xff, 0x22, 0x8c, 0x3e, 0xdc, 0x3e, 0xcf, 0x3e, 0xbd, 0x31, 0x02, 0x3f,
  0x55, 0x7f, 0x55, 0x3e, 0xf6, 0xd7, 0xcc, 0x3e, 0xc4, 0xc0, 0xeb, 0x3e,
  0x03, 0xbd, 0xbd, 0x3e, 0x99, 0x05, 0x5a, 0x3e, 0x43, 0x85, 0x00, 0x3f,
  0x47, 0xe0, 0x39, 0x3f, 0x62, 0x84, 0x2d, 0x3f, 0x4f, 0x07, 0xfb, 0xbe,
  0x64, 0x19, 0x99, 0x3d, 0x76, 0x3f, 0xdb, 0xbe, 0xb1, 0x54, 0xb7, 0xbe,
  0xf1, 0xaa, 0x08, 0xbe, 0x6b, 0x54, 0x28, 0xbe, 0x6c, 0x6f, 0xea, 0xbd,
  0x3f, 0xc4, 0xb8, 0xbe, 0x8d, 0xf8, 0x51, 0x3e, 0x76, 0xff, 0xb6, 0x3e,
  0xb2, 0xa7, 0xda, 0xbd, 0x30, 0xab, 0xae, 0xbc, 0x8e, 0xc3, 0x51, 0xbe,
  0xca, 0x62, 0x85, 0x3c, 0x9a, 0x4e, 0x8d, 0x3e, 0xf1, 0x18, 0x3d, 0x3e,
  0xf0, 0x65, 0xe8, 0xbc, 0x25, 0x66, 0x33, 0x3e, 0x50, 0xb0, 0x54, 0x3e,
  0x48, 0x60, 0xac, 0x3e, 0xb7, 0xda, 0x2c, 0x3e, 0x59, 0x90, 0x41, 0x3e,
  0xaa, 0x4e, 0x84, 0x3e, 0x5d, 0xaa, 0xd2, 0x3e, 0x6d, 0xa2, 0xa8, 0x3e,
  0xf1, 0x41, 0x20, 0x3d, 0x83, 0xa8, 0xd8, 0xbe, 0xe6, 0x73, 0x5c, 0xbd,
  0x17, 0x9e, 0x53, 0xbe, 0x32, 0x97, 0xc3, 0xbe, 0xb0, 0x6c, 0xe6, 0xbd,
  0x2d, 0xff, 0xc4, 0xbe, 0x87, 0xa1, 0x84, 0x3f, 0x41, 0x52, 0x22, 0x3f,
  0xb2, 0xa4, 0xa1, 0x3b, 0xc7, 0x66, 0xb8, 0x3c, 0x7b, 0x07, 0x97, 0xbe,
  0x40, 0x7d, 0xce, 0x3c, 0x7c, 0x47, 0x50, 0x3e, 0xb7, 0xb6, 0xbe, 0x3e,
  0x02, 0xb3, 0x1a, 0x3f, 0x7a, 0xcd, 0x21, 0x3f, 0x4e, 0xc8, 0x63, 0x3f,
  0x49, 0xcb, 0x00, 0x3f, 0xae, 0xfb, 0xf8, 0x3e, 0xcf, 0x65, 0xe0, 0x3e,
  0x03, 0x0d, 0x12, 0x3f, 0x9e, 0x66, 0x18, 0x3f, 0xf1, 0xd9, 0xbb, 0x3e,
  0x49, 0xc3, 0x8e, 0x3e, 0xeb, 0x4b, 0x36, 0x3e, 0x2c, 0xe4, 0x82, 0xbe,
  0x40, 0x73, 0x97, 0x3d, 0x97, 0xff, 0xfa, 0x3c, 0xd5, 0x42, 0x85, 0x3d,
  0x18, 0xdc, 0x24, 0xbe, 0x84, 0x45, 0xdf, 0x3e, 0xfc, 0x6e, 0xa4, 0x3e,
  0xb2, 0xb1, 0x05, 0x3e, 0x58, 0x3a, 0x4b, 0xbd, 0xbf, 0x37, 0x0d, 0xbe,
  0xee, 0x9f, 0xb7, 0xbd, 0xb9, 0xb8, 0x29, 0xbd, 0x43, 0x86, 0x1f, 0xbe,
  0x19, 0x74, 0xae, 0x3e, 0x77, 0x02, 0xd4, 0x3e, 0xc8, 0x10, 0xcf, 0x3e,
  0x50, 0xe5, 0x88, 0x3e, 0x64, 0x54, 0xd0, 0x3d, 0xa8, 0xf4, 0x84, 0x3c,
  0xba, 0xa4, 0x2d, 0xbe, 0x32, 0xb8, 0x8b, 0x3d, 0xab, 0x0b, 0xfb, 0x3d,
  0xe7, 0xbb, 0x65, 0x3d, 0x56, 0xa1, 0x62, 0x3e, 0x0f, 0x6a, 0x82, 0xbe,
  0x32, 0x56, 0xd2, 0x3d, 0xf1, 0xa2, 0x9f, 0xbd, 0x3e, 0x48, 0x08, 0x3e,
  0x3b, 0x18, 0x40, 0xbd, 0x16, 0x93, 0x3a, 0xbd, 0x05, 0xca, 0x91, 0x3e,
  0xfb, 0xef, 0x8b, 0x3e, 0xcd, 0x6e, 0x16, 0xbe, 0x5c, 0x2d, 0xec, 0xbd,
  0xa7, 0x14, 0xc8, 0xbd, 0x17, 0xd8, 0x34, 0xbe, 0xc6, 0x33, 0x8d, 0xbe,
  0x89, 0x6c, 0x17, 0x3d, 0x66, 0xab, 0x9b, 0x3e, 0xf8, 0xf9, 0x96, 0x3e,
  0x43, 0x37, 0x98, 0x3e, 0x6e, 0xab, 0xc9, 0x3e, 0xa2, 0xdc, 0x38, 0x3e,
  0xc0, 0x91, 0xfb, 0xbe, 0xf6, 0x7b, 0x09, 0xbf, 0x95, 0xad, 0xa0, 0xbd,
  0x3a, 0x2c, 0x9f, 0xbe, 0x76, 0x81, 0x16, 0xbe, 0x15, 0x1a, 0x8e, 0xbe,
  0xc9, 0x3f, 0x63, 0x3e, 0x77, 0x69, 0x38, 0xbe, 0xb1, 0x21, 0xba, 0xbb,
  0xd6, 0x16, 0x51, 0xbe, 0x2b, 0xa1, 0x15, 0xbe, 0x78, 0xe1, 0x35, 0xbd,
  0x2d, 0x25, 0xd3, 0xbd, 0x1b, 0xbc, 0xb0, 0xbc, 0x50, 0xad, 0x60, 0xbe,
  0x8c, 0xcb, 0x4a, 0xbe, 0xfd, 0xc9, 0xbe, 0xbe, 0xf3, 0xa5, 0xf4, 0xbe,
  0xe8, 0x56, 0x59, 0x3d, 0x94, 0x80, 0xc7, 0x3d, 0x2d, 0x8d, 0xd5, 0x3d,
  0xff, 0xd0, 0xfd, 0x3d, 0x56, 0x20, 0x08, 0x3e, 0x9d, 0x22, 0x9d, 0x3d,
  0x41, 0xae, 0xa7, 0x3c, 0x32, 0xb2, 0x0a, 0xbe, 0xef, 0x47, 0xbb, 0x3d,
  0xc0, 0xd8, 0xc0, 0x3e, 0x0a, 0xa4, 0x95, 0x3d, 0x41, 0x2b, 0x4d, 0xbe,
  0xb8, 0xee, 0x19, 0xbe, 0x92, 0xe0, 0x9a, 0xbc, 0xbc, 0x25, 0xc6, 0x3e,
  0x49, 0xcd, 0x2e, 0x3e, 0xb9, 0xa2, 0x2d, 0x3e, 0xb6, 0x61, 0x03, 0x3e,
  0xca, 0x7d, 0x4c, 0xbe, 0x52, 0x38, 0xb7, 0xbe, 0xfa, 0xb4, 0x26, 0xbe,
  0xab, 0x23, 0x39, 0xbe, 0x53, 0x7e, 0x1e, 0x3e, 0xf6, 0xd1, 0x15, 0xbe,
  0xae, 0x8d, 0xb2, 0x3d, 0x9f, 0x33, 0x1a, 0x3e, 0x3b, 0x1f, 0x91, 0xbd,
  0xb3, 0x5f, 0x9c, 0xbd, 0xed, 0x28, 0x1e, 0xbe, 0xdb, 0xdd, 0x30, 0x3e,
  0x55, 0xe0, 0x87, 0xbc, 0x67, 0x9d, 0xbc, 0x3e, 0x22, 0x10, 0x56, 0x3e,
  0xdf, 0x76, 0x40, 0xbe, 0xd6, 0x9a, 0x23, 0xbe, 0xc3, 0x1c, 0x2d, 0xbd,
  0xbb, 0x77, 0x78, 0xbe, 0x27, 0x15, 0x64, 0x3e, 0x6a, 0x48, 0xdf, 0x3d,
  0xc6, 0x5b, 0x73, 0x3e, 0x07, 0x10, 0xbc, 0x3d, 0xe2, 0x85, 0x33, 0xbe,
  0x32, 0x7b, 0xa6, 0xbe, 0xf0, 0x10, 0xf7, 0xbe, 0x02, 0xa7, 0x0e, 0xbe,
  0xbf, 0x0e, 0x35, 0xbe, 0xde, 0x53, 0x22, 0xbd, 0x11, 0x75, 0x51, 0x3e,
  0xb3, 0xec, 0x0c, 0x3e, 0x4d, 0x00, 0xc5, 0xbc, 0x04, 0x2f, 0xe1, 0xbe,
  0x14, 0x4b, 0x1e, 0xbe, 0xe1, 0xa7, 0x88, 0xbe, 0x2d, 0x3a, 0x8d, 0xbd,
  0xbe, 0x07, 0x2c, 0x3e, 0x04, 0xc3, 0xe1, 0x3e, 0x5c, 0x27, 0xe0, 0xbc,
  0xd7, 0xb3, 0x1f, 0x3e, 0x71, 0x5c, 0xbd, 0xbd, 0x92, 0xe8, 0x50, 0xbe,
  0xfb, 0xe7, 0xc9, 0xbd, 0x5e, 0x08, 0xc6, 0x3e, 0xb1, 0x4d, 0xc4, 0x3e,
  0xe0, 0xc9, 0xa7, 0x3e, 0xe0, 0x8c, 0x88, 0x3d, 0x36, 0xdb, 0x2e, 0x3e,
  0x87, 0x38, 0x88, 0xbe, 0x26, 0xf3, 0xba, 0xbe, 0x28, 0x99, 0x79, 0xbe,
  0x4c, 0xf4, 0x32, 0x3e, 0x2b, 0xe2, 0xca, 0x3e, 0x13, 0xae, 0x97, 0x3e,
  0x10, 0x56, 0x64, 0x3e, 0xfe, 0xc9, 0x6e, 0x3e, 0x9a, 0xcf, 0x86, 0xbe,
  0x71, 0x5c, 0xa3, 0xbe, 0xae, 0x79, 0x28, 0xbe, 0x2a, 0x41, 0xb1, 0x3e,
  0x14, 0x32, 0xf7, 0x3e, 0x92, 0x6d, 0xc3, 0x3e, 0xda, 0xd2, 0x88, 0xbe,
  0x56, 0x4f, 0x55, 0xbe, 0xfd, 0x43, 0x36, 0xbd, 0xa7, 0x45, 0x5b, 0xbe,
  0x1d, 0x7d, 0x8d, 0xbe, 0xa3, 0xb7, 0x00, 0xbe, 0x00, 0x28, 0x13, 0x3b,
  0x2b, 0xf3, 0x63, 0xbd, 0xb5, 0xbd, 0xad, 0xbe, 0x53, 0x19, 0x08, 0xbe,
  0x93, 0xd2, 0x2f, 0xbd, 0xd3, 0x0d, 0xb3, 0xbe, 0xad, 0x38, 0xe8, 0xbd,
  0x5b, 0x42, 0x9b, 0x3d, 0xdf, 0x0b, 0x06, 0x3e, 0x6f, 0x73, 0x6f, 0xb9,
  0x49, 0xe0, 0x4c, 0xbf, 0x3e, 0xd3, 0x47, 0xbe, 0xd9, 0x01, 0x97, 0xbe,
  0xdc, 0x35, 0xd3, 0x3c, 0x9c, 0xef, 0x77, 0x3d, 0xee, 0xfb, 0xe7, 0x3c,
  0x9f, 0x6a, 0x41, 0x3e, 0xff, 0x70, 0x1a, 0x3d, 0xc1, 0x09, 0x02, 0xbf,
  0xc8, 0xc4, 0xe7, 0xbd, 0xd6, 0x91, 0xae, 0xbe, 0x82, 0x53, 0x1e, 0x3d,
  0x33, 0x3b, 0x1f, 0xbe, 0x51, 0x6a, 0xe1, 0x3e, 0x94, 0xe3, 0x9d, 0x3d,
  0xf7, 0x1b, 0x1f, 0x3e, 0x09, 0x8d, 0x9f, 0xbe, 0x06, 0x09, 0x82, 0xbe,
  0x21, 0x4c, 0x17, 0xbd, 0x70, 0x2b, 0x92, 0x3d, 0xc2, 0xf1, 0x1e, 0x3c,
  0x08, 0x4b, 0x46, 0x3d, 0xcd, 0x93, 0x2b, 0x3d, 0x28, 0x37, 0x7e, 0x3e,
  0x0f, 0xe0, 0xd0, 0xbe, 0xb7, 0x19, 0xa7, 0xbe, 0x70, 0xac, 0x0f, 0xbe,
  0xad, 0xf7, 0x82, 0x3e, 0xa1, 0x3e, 0x91, 0x3e, 0x04, 0x79, 0x07, 0x3d,
  0xbe, 0x79, 0x9f, 0x3e, 0x44, 0x99, 0x03, 0x3f, 0x5c, 0xab, 0xe9, 0xbe,
  0x57, 0xeb, 0x70, 0xbd, 0x7f, 0xb1, 0x5e, 0xbe, 0x4e, 0xdb, 0x7c, 0x3e,
  0xa8, 0x05, 0x2c, 0x3e, 0xfa, 0xee, 0xc7, 0x3e, 0x21, 0x73, 0x98, 0xbc,
  0xb8, 0xcd, 0x96, 0xbc, 0x1b, 0x40, 0xc6, 0xbd, 0x40, 0xf8, 0x5e, 0xbd,
  0xa4, 0x86, 0xe8, 0xbc, 0xa4, 0x9a, 0x2b, 0xbc, 0x0f, 0x6f, 0x8f, 0x3e,
  0xd9, 0xd0, 0x47, 0x3e, 0x98, 0xb7, 0x6e, 0x3e, 0xbf, 0x93, 0x16, 0x3e,
  0xd9, 0x45, 0x65, 0xbe, 0x55, 0x7b, 0x8b, 0x3e, 0xba, 0x7e, 0xe6, 0x3d,
  0x49, 0x48, 0x2c, 0x3d, 0x6c, 0xb4, 0x44, 0x3e, 0x08, 0xcd, 0xa2, 0x3e,
  0xf7, 0x41, 0xed, 0x3e, 0xad, 0x89, 0x0f, 0x3e, 0x13, 0x2c, 0xe4, 0x3e,
  0xc7, 0xe8, 0x28, 0x3e, 0x4e, 0x62, 0xb8, 0x3e, 0xa5, 0x9f, 0x5f, 0xbe,
  0xc9, 0x19, 0x40, 0xbf, 0x89, 0x1d, 0x50, 0x3e, 0xd4, 0x38, 0xf4, 0x3e,
  0x4e, 0xd1, 0x05, 0xbf, 0xfd, 0x57, 0x9c, 0xbe, 0xaf, 0xbc, 0x8d, 0xbf,
  0xdf, 0xb3, 0xe0, 0xbf, 0xae, 0x1e, 0x8b, 0xbf, 0x5e, 0x3a, 0x99, 0xbe,
  0xc3, 0x09, 0x47, 0xbf, 0xf5, 0x5f, 0xf3, 0x3d, 0xf9, 0xee, 0xda, 0x3d,
  0x82, 0xbb, 0x89, 0x3e, 0xb4, 0x88, 0xe2, 0x3e, 0xd1, 0x58, 0x4d, 0xbf,
  0x3c, 0xbf, 0xd0, 0xbd, 0xda, 0x82, 0x9c, 0xbf, 0x1c, 0x27, 0xb9, 0xbf,
  0x2f, 0x43, 0x4f, 0xbf, 0x7d, 0x7a, 0xa5, 0xbf, 0x9d, 0xbc, 0x2a, 0x3e,
  0xcc, 0xf2, 0x88, 0x3e, 0x3c, 0xdd, 0x7d, 0xbe, 0xd7, 0xdd, 0xe4, 0x3e,
  0x18, 0xf1, 0xfb, 0xbe, 0x74, 0x70, 0x03, 0x3f, 0x0c, 0xd2, 0x8f, 0x3f,
  0x95, 0x50, 0x25, 0x3e, 0x95, 0x2f, 0x1e, 0x3f, 0x28, 0xd2, 0x5c, 0x3e,
  0x14, 0x1f, 0x2e, 0x3e, 0x80, 0xa4, 0x13, 0xbf, 0x95, 0x2f, 0xc1, 0xbe,
  0x96, 0x9c, 0x92, 0xbf, 0xf9, 0x5b, 0x48, 0x3f, 0x7e, 0x37, 0xa3, 0x3e,
  0x99, 0x62, 0x96, 0x3e, 0x62, 0xad, 0x14, 0x3f, 0x0e, 0x30, 0xa4, 0xbe,
  0x1e, 0xcb, 0xbd, 0x3e, 0x3c, 0xa1, 0x97, 0xbf, 0xfe, 0x58, 0xa6, 0xbf,
  0x3e, 0xe0, 0x67, 0xbf, 0x66, 0x83, 0x84, 0x3e, 0xea, 0x0e, 0x00, 0xbf,
  0x83, 0xfb, 0x16, 0xbe, 0xc0, 0xb1, 0x0e, 0xbf, 0x35, 0xab, 0x00, 0x3f,
  0x04, 0xe3, 0xdc, 0xbd, 0x00, 0xa9, 0x80, 0x3f, 0xb7, 0x54, 0xae, 0x3f,
  0x0f, 0x5c, 0x28, 0x3f, 0xff, 0x4a, 0x2f, 0xbe, 0x15, 0xac, 0x22, 0xbf,
  0xd9, 0x38, 0x7b, 0xbf, 0xc9, 0xd5, 0x2a, 0xbf, 0x20, 0x1b, 0xd1, 0xbc,
  0x9f, 0x6a, 0x31, 0xbf, 0x94, 0x09, 0xfb, 0xbd, 0x5a, 0x74, 0x99, 0x3e,
  0x74, 0x70, 0xde, 0x3d, 0xce, 0xa0, 0x8c, 0xbe, 0x4d, 0x0d, 0x72, 0xbf,
  0xb9, 0x16, 0x9e, 0xbf, 0xc1, 0x75, 0x16, 0xbf, 0x0c, 0x25, 0x0f, 0xbd,
  0xc1, 0xe8, 0xcf, 0xbe, 0x2e, 0xa4, 0x9f, 0xbd, 0xe2, 0xfd, 0xff, 0xff,
  0x04, 0x00, 0x00, 0x00, 0x0c, 0x00, 0x00, 0x00, 0x26, 0x5b, 0x59, 0xbe,
  0xbc, 0x79, 0x96, 0xbd, 0x1e, 0xa8, 0x06, 0xbe, 0xfa, 0xfd, 0xff, 0xff,
  0x04, 0x00, 0x00, 0x00, 0x18, 0x00, 0x00, 0x00, 0xa3, 0x11, 0xa8, 0x3c,
  0xfa, 0xde, 0x5f, 0xbd, 0xda, 0x70, 0xfb, 0x3d, 0x32, 0x5b, 0xbb, 0x3d,
  0x5f, 0xf6, 0x61, 0x3e, 0x52, 0x8d, 0x77, 0x3f, 0x5c, 0xf4, 0xff, 0xff,
  0x60, 0xf4, 0xff, 0xff, 0x0f, 0x00, 0x00, 0x00, 0x4d, 0x4c, 0x49, 0x52,
  0x20, 0x43, 0x6f, 0x6e, 0x76, 0x65, 0x72, 0x74, 0x65, 0x64, 0x2e, 0x00,
  0x01, 0x00, 0x00, 0x00, 0x14, 0x00, 0x00, 0x00, 0x00, 0x00, 0x0e, 0x00,
  0x18, 0x00, 0x14, 0x00, 0x10, 0x00, 0x0c, 0x00, 0x08, 0x00, 0x04, 0x00,
  0x0e, 0x00, 0x00, 0x00, 0x14, 0x00, 0x00, 0x00, 0x1c, 0x00, 0x00, 0x00,
  0x6c, 0x02, 0x00, 0x00, 0x70, 0x02, 0x00, 0x00, 0x74, 0x02, 0x00, 0x00,
  0x04, 0x00, 0x00, 0x00, 0x6d, 0x61, 0x69, 0x6e, 0x00, 0x00, 0x00, 0x00,
  0x09, 0x00, 0x00, 0x00, 0x1c, 0x02, 0x00, 0x00, 0xbc, 0x01, 0x00, 0x00,
  0x64, 0x01, 0x00, 0x00, 0x3c, 0x01, 0x00, 0x00, 0xdc, 0x00, 0x00, 0x00,
  0x94, 0x00, 0x00, 0x00, 0x60, 0x00, 0x00, 0x00, 0x28, 0x00, 0x00, 0x00,
  0x04, 0x00, 0x00, 0x00, 0xe6, 0xfe, 0xff, 0xff, 0x0c, 0x00, 0x00, 0x00,
  0x10, 0x00, 0x00, 0x00, 0x07, 0x00, 0x00, 0x00, 0x01, 0x00, 0x00, 0x00,
  0x14, 0x00, 0x00, 0x00, 0x01, 0x00, 0x00, 0x00, 0x13, 0x00, 0x00, 0x00,
  0x92, 0xfe, 0xff, 0xff, 0x14, 0x00, 0x00, 0x00, 0x00, 0x00, 0x00, 0x08,
  0x10, 0x00, 0x00, 0x00, 0x14, 0x00, 0x00, 0x00, 0x06, 0x00, 0x00, 0x00,
  0x14, 0xf5, 0xff, 0xff, 0x01, 0x00, 0x00, 0x00, 0x13, 0x00, 0x00, 0x00,
  0x03, 0x00, 0x00, 0x00, 0x12, 0x00, 0x00, 0x00, 0x0b, 0x00, 0x00, 0x00,
  0x05, 0x00, 0x00, 0x00, 0xc6, 0xfe, 0xff, 0xff, 0x14, 0x00, 0x00, 0x00,
  0x00, 0x00, 0x00, 0x1b, 0x10, 0x00, 0x00, 0x00, 0x14, 0x00, 0x00, 0x00,
  0x05, 0x00, 0x00, 0x00, 0x48, 0xf5, 0xff, 0xff, 0x01, 0x00, 0x00, 0x00,
  0x12, 0x00, 0x00, 0x00, 0x02, 0x00, 0x00, 0x00, 0x11, 0x00, 0x00, 0x00,
  0x0a, 0x00, 0x00, 0x00, 0xf6, 0xfe, 0xff, 0xff, 0x14, 0x00, 0x00, 0x00,
  0x00, 0x00, 0x00, 0x01, 0x20, 0x00, 0x00, 0x00, 0x24, 0x00, 0x00, 0x00,
  0x04, 0x00, 0x00, 0x00, 0xbc, 0xff, 0xff, 0xff, 0x00, 0x00, 0x00, 0x01,
  0x01, 0x00, 0x00, 0x00, 0x01, 0x00, 0x00, 0x00, 0x00, 0x00, 0x00, 0x01,
  0x01, 0x00, 0x00, 0x00, 0x11, 0x00, 0x00, 0x00, 0x03, 0x00, 0x00, 0x00,
  0x10, 0x00, 0x00, 0x00, 0x04, 0x00, 0x00, 0x00, 0x02, 0x00, 0x00, 0x00,
  0x3a, 0xff, 0xff, 0xff, 0x20, 0x00, 0x00, 0x00, 0x00, 0x00, 0x00, 0x01,
  0x2c, 0x00, 0x00, 0x00, 0x30, 0x00, 0x00, 0x00, 0x04, 0x00, 0x00, 0x00,
  0x0c, 0x00, 0x14, 0x00, 0x13, 0x00, 0x0c, 0x00, 0x08, 0x00, 0x07, 0x00,
  0x0c, 0x00, 0x00, 0x00, 0x00, 0x00, 0x00, 0x01, 0x01, 0x00, 0x00, 0x00,
  0x01, 0x00, 0x00, 0x00, 0x00, 0x00, 0x00, 0x01, 0x01, 0x00, 0x00, 0x00,
  0x10, 0x00, 0x00, 0x00, 0x03, 0x00, 0x00, 0x00, 0x0f, 0x00, 0x00, 0x00,
  0x03, 0x00, 0x00, 0x00, 0x01, 0x00, 0x00, 0x00, 0x00, 0x00, 0x0a, 0x00,
  0x10, 0x00, 0x0c, 0x00, 0x08, 0x00, 0x04, 0x00, 0x0a, 0x00, 0x00, 0x00,
  0x0c, 0x00, 0x00, 0x00, 0x10, 0x00, 0x00, 0x00, 0x03, 0x00, 0x00, 0x00,
  0x01, 0x00, 0x00, 0x00, 0x0f, 0x00, 0x00, 0x00, 0x02, 0x00, 0x00, 0x00,
  0x00, 0x00, 0x00, 0x00, 0x0e, 0x00, 0x00, 0x00, 0xba, 0xff, 0xff, 0xff,
  0x1c, 0x00, 0x00, 0x00, 0x00, 0x00, 0x00, 0x3b, 0x1c, 0x00, 0x00, 0x00,
  0x20, 0x00, 0x00, 0x00, 0x02, 0x00, 0x00, 0x00, 0x00, 0x00, 0x06, 0x00,
  0x08, 0x00, 0x04, 0x00, 0x06, 0x00, 0x00, 0x00, 0x04, 0x00, 0x00, 0x00,
  0x01, 0x00, 0x00, 0x00, 0x0e, 0x00, 0x00, 0x00, 0x04, 0x00, 0x00, 0x00,
  0x0d, 0x00, 0x00, 0x00, 0x09, 0x00, 0x00, 0x00, 0x08, 0x00, 0x00, 0x00,
  0x08, 0x00, 0x00, 0x00, 0x00, 0x00, 0x0e, 0x00, 0x1a, 0x00, 0x14, 0x00,
  0x10, 0x00, 0x0c, 0x00, 0x0b, 0x00, 0x04, 0x00, 0x0e, 0x00, 0x00, 0x00,
  0x24, 0x00, 0x00, 0x00, 0x00, 0x00, 0x00, 0x20, 0x24, 0x00, 0x00, 0x00,
  0x28, 0x00, 0x00, 0x00, 0x01, 0x00, 0x00, 0x00, 0x00, 0x00, 0x0e, 0x00,
  0x08, 0x00, 0x00, 0x00, 0x00, 0x00, 0x00, 0x00, 0x00, 0x00, 0x04, 0x00,
  0x0e, 0x00, 0x00, 0x00, 0x01, 0x00, 0x00, 0x00, 0x01, 0x00, 0x00, 0x00,
  0x0d, 0x00, 0x00, 0x00, 0x04, 0x00, 0x00, 0x00, 0x0c, 0x00, 0x00, 0x00,
  0x07, 0x00, 0x00, 0x00, 0x06, 0x00, 0x00, 0x00, 0x06, 0x00, 0x00, 0x00,
  0x00, 0x00, 0x0e, 0x00, 0x16, 0x00, 0x00, 0x00, 0x10, 0x00, 0x0c, 0x00,
  0x0b, 0x00, 0x04, 0x00, 0x0e, 0x00, 0x00, 0x00, 0x18, 0x00, 0x00, 0x00,
  0x00, 0x00, 0x00, 0x37, 0x18, 0x00, 0x00, 0x00, 0x1c, 0x00, 0x00, 0x00,
  0x00, 0x00, 0x06, 0x00, 0x08, 0x00, 0x07, 0x00, 0x06, 0x00, 0x00, 0x00,
  0x00, 0x00, 0x00, 0x02, 0x01, 0x00, 0x00, 0x00, 0x0c, 0x00, 0x00, 0x00,
  0x01, 0x00, 0x00, 0x00, 0x00, 0x00, 0x00, 0x00, 0x01, 0x00, 0x00, 0x00,
  0x14, 0x00, 0x00, 0x00, 0x01, 0x00, 0x00, 0x00, 0x00, 0x00, 0x00, 0x00,
  0x15, 0x00, 0x00, 0x00, 0xb8, 0x08, 0x00, 0x00, 0x44, 0x08, 0x00, 0x00,
  0xd0, 0x07, 0x00, 0x00, 0x78, 0x07, 0x00, 0x00, 0x20, 0x07, 0x00, 0x00,
  0xc4, 0x06, 0x00, 0x00, 0x64, 0x06, 0x00, 0x00, 0xec, 0x05, 0x00, 0x00,
  0x94, 0x05, 0x00, 0x00, 0x3c, 0x05, 0x00, 0x00, 0xc8, 0x04, 0x00, 0x00,
  0x78, 0x04, 0x00, 0x00, 0x28, 0x04, 0x00, 0x00, 0xd4, 0x03, 0x00, 0x00,
  0x7c, 0x03, 0x00, 0x00, 0x08, 0x03, 0x00, 0x00, 0x2c, 0x02, 0x00, 0x00,
  0x50, 0x01, 0x00, 0x00, 0xe0, 0x00, 0x00, 0x00, 0x60, 0x00, 0x00, 0x00,
  0x04, 0x00, 0x00, 0x00, 0xb2, 0xf7, 0xff, 0xff, 0x00, 0x00, 0x00, 0x01,
  0x14, 0x00, 0x00, 0x00, 0x1c, 0x00, 0x00, 0x00, 0x1c, 0x00, 0x00, 0x00,
  0x15, 0x00, 0x00, 0x00, 0x34, 0x00, 0x00, 0x00, 0x02, 0x00, 0x00, 0x00,
  0xff, 0xff, 0xff, 0xff, 0x01, 0x00, 0x00, 0x00, 0x98, 0xf7, 0xff, 0xff,
  0x19, 0x00, 0x00, 0x00, 0x53, 0x74, 0x61, 0x74, 0x65, 0x66, 0x75, 0x6c,
  0x50, 0x61, 0x72, 0x74, 0x69, 0x74, 0x69, 0x6f, 0x6e, 0x65, 0x64, 0x43,
  0x61, 0x6c, 0x6c, 0x3a, 0x30, 0x00, 0x00, 0x00, 0x02, 0x00, 0x00, 0x00,
  0x01, 0x00, 0x00, 0x00, 0x01, 0x00, 0x00, 0x00, 0x0a, 0xf8, 0xff, 0xff,
  0x00, 0x00, 0x00, 0x01, 0x14, 0x00, 0x00, 0x00, 0x1c, 0x00, 0x00, 0x00,
  0x1c, 0x00, 0x00, 0x00, 0x14, 0x00, 0x00, 0x00, 0x58, 0x00, 0x00, 0x00,
  0x02, 0x00, 0x00, 0x00, 0xff, 0xff, 0xff, 0xff, 0x01, 0x00, 0x00, 0x00,
  0xf0, 0xf7, 0xff, 0xff, 0x3c, 0x00, 0x00, 0x00, 0x73, 0x65, 0x71, 0x75,
  0x65, 0x6e, 0x74, 0x69, 0x61, 0x6c, 0x5f, 0x31, 0x30, 0x2f, 0x64, 0x65,
  0x6e, 0x73, 0x65, 0x5f, 0x31, 0x30, 0x2f, 0x4d, 0x61, 0x74, 0x4d, 0x75,
  0x6c, 0x3b, 0x73, 0x65, 0x71, 0x75, 0x65, 0x6e, 0x74, 0x69, 0x61, 0x6c,
  0x5f, 0x31, 0x30, 0x2f, 0x64, 0x65, 0x6e, 0x73, 0x65, 0x5f, 0x31, 0x30,
  0x2f, 0x42, 0x69, 0x61, 0x73, 0x41, 0x64, 0x64, 0x00, 0x00, 0x00, 0x00,
  0x02, 0x00, 0x00, 0x00, 0x01, 0x00, 0x00, 0x00, 0x01, 0x00, 0x00, 0x00,
  0x86, 0xf8, 0xff, 0xff, 0x00, 0x00, 0x00, 0x01, 0x14, 0x00, 0x00, 0x00,
  0x1c, 0x00, 0x00, 0x00, 0x1c, 0x00, 0x00, 0x00, 0x13, 0x00, 0x00, 0x00,
  0x48, 0x00, 0x00, 0x00, 0x02, 0x00, 0x00, 0x00, 0xff, 0xff, 0xff, 0xff,
  0x03, 0x00, 0x00, 0x00, 0x6c, 0xf8, 0xff, 0xff, 0x2e, 0x00, 0x00, 0x00,
  0x73, 0x65, 0x71, 0x75, 0x65, 0x6e, 0x74, 0x69, 0x61, 0x6c, 0x5f, 0x31,
  0x30, 0x2f, 0x67, 0x6c, 0x6f, 0x62, 0x61, 0x6c, 0x5f, 0x61, 0x76, 0x65,
  0x72, 0x61, 0x67, 0x65, 0x5f, 0x70, 0x6f, 0x6f, 0x6c, 0x69, 0x6e, 0x67,
  0x32, 0x64, 0x5f, 0x31, 0x30, 0x2f, 0x4d, 0x65, 0x61, 0x6e, 0x00, 0x00,
  0x02, 0x00, 0x00, 0x00, 0x01, 0x00, 0x00, 0x00, 0x03, 0x00, 0x00, 0x00,
  0xf2, 0xf8, 0xff, 0xff, 0x00, 0x00, 0x00, 0x01, 0x14, 0x00, 0x00, 0x00,
  0x24, 0x00, 0x00, 0x00, 0x24, 0x00, 0x00, 0x00, 0x12, 0x00, 0x00, 0x00,
  0xac, 0x00, 0x00, 0x00, 0x04, 0x00, 0x00, 0x00, 0xff, 0xff, 0xff, 0xff,
  0x10, 0x00, 0x00, 0x00, 0x04, 0x00, 0x00, 0x00, 0x03, 0x00, 0x00, 0x00,
  0xe0, 0xf8, 0xff, 0xff, 0x8a, 0x00, 0x00, 0x00, 0x73, 0x65, 0x71, 0x75,
  0x65, 0x6e, 0x74, 0x69, 0x61, 0x6c, 0x5f, 0x31, 0x30, 0x2f, 0x63, 0x6f,
  0x6e, 0x76, 0x32, 0x64, 0x5f, 0x32, 0x31, 0x2f, 0x52, 0x65, 0x6c, 0x75,
  0x3b, 0x73, 0x65, 0x71, 0x75, 0x65, 0x6e, 0x74, 0x69, 0x61, 0x6c, 0x5f,
  0x31, 0x30, 0x2f, 0x63, 0x6f, 0x6e, 0x76, 0x32, 0x64, 0x5f, 0x32, 0x31,
  0x2f, 0x42, 0x69, 0x61, 0x73, 0x41, 0x64, 0x64, 0x3b, 0x73, 0x65, 0x71,
  0x75, 0x65, 0x6e, 0x74, 0x69, 0x61, 0x6c, 0x5f, 0x31, 0x30, 0x2f, 0x63,
  0x6f, 0x6e, 0x76, 0x32, 0x64, 0x5f, 0x32, 0x31, 0x2f, 0x43, 0x6f, 0x6e,
  0x76, 0x32, 0x44, 0x3b, 0x73, 0x65, 0x71, 0x75, 0x65, 0x6e, 0x74, 0x69,
  0x61, 0x6c, 0x5f, 0x31, 0x30, 0x2f, 0x63, 0x6f, 0x6e, 0x76, 0x32, 0x64,
  0x5f, 0x32, 0x31, 0x2f, 0x42, 0x69, 0x61, 0x73, 0x41, 0x64, 0x64, 0x2f,
  0x52, 0x65, 0x61, 0x64, 0x56, 0x61, 0x72, 0x69, 0x61, 0x62, 0x6c, 0x65,
  0x4f, 0x70, 0x00, 0x00, 0x04, 0x00, 0x00, 0x00, 0x01, 0x00, 0x00, 0x00,
  0x10, 0x00, 0x00, 0x00, 0x04, 0x00, 0x00, 0x00, 0x03, 0x00, 0x00, 0x00,
  0xca, 0xf9, 0xff, 0xff, 0x00, 0x00, 0x00, 0x01, 0x14, 0x00, 0x00, 0x00,
  0x24, 0x00, 0x00, 0x00, 0x24, 0x00, 0x00, 0x00, 0x11, 0x00, 0x00, 0x00,
  0xac, 0x00, 0x00, 0x00, 0x04, 0x00, 0x00, 0x00, 0xff, 0xff, 0xff, 0xff,
  0x12, 0x00, 0x00, 0x00, 0x06, 0x00, 0x00, 0x00, 0x06, 0x00, 0x00, 0x00,
  0xb8, 0xf9, 0xff, 0xff, 0x8a, 0x00, 0x00, 0x00, 0x73, 0x65, 0x71, 0x75,
  0x65, 0x6e, 0x74, 0x69, 0x61, 0x6c, 0x5f, 0x31, 0x30, 0x2f, 0x63, 0x6f,
  0x6e, 0x76, 0x32, 0x64, 0x5f, 0x32, 0x30, 0x2f, 0x52, 0x65, 0x6c, 0x75,
  0x3b, 0x73, 0x65, 0x71, 0x75, 0x65, 0x6e, 0x74, 0x69, 0x61, 0x6c, 0x5f,
  0x31, 0x30, 0x2f, 0x63, 0x6f, 0x6e, 0x76, 0x32, 0x64, 0x5f, 0x32, 0x30,
  0x2f, 0x42, 0x69, 0x61, 0x73, 0x41, 0x64, 0x64, 0x3b, 0x73, 0x65, 0x71,
  0x75, 0x65, 0x6e, 0x74, 0x69, 0x61, 0x6c, 0x5f, 0x31, 0x30, 0x2f, 0x63,
  0x6f, 0x6e, 0x76, 0x32, 0x64, 0x5f, 0x32, 0x30, 0x2f, 0x43, 0x6f, 0x6e,
  0x76, 0x32, 0x44, 0x3b, 0x73, 0x65, 0x71, 0x75, 0x65, 0x6e, 0x74, 0x69,
  0x61, 0x6c, 0x5f, 0x31, 0x30, 0x2f, 0x63, 0x6f, 0x6e, 0x76, 0x32, 0x64,
  0x5f, 0x32, 0x30, 0x2f, 0x42, 0x69, 0x61, 0x73, 0x41, 0x64, 0x64, 0x2f,
  0x52, 0x65, 0x61, 0x64, 0x56, 0x61, 0x72, 0x69, 0x61, 0x62, 0x6c, 0x65,
  0x4f, 0x70, 0x00, 0x00, 0x04, 0x00, 0x00, 0x00, 0x01, 0x00, 0x00, 0x00,
  0x12, 0x00, 0x00, 0x00, 0x06, 0x00, 0x00, 0x00, 0x06, 0x00, 0x00, 0x00,
  0xa2, 0xfa, 0xff, 0xff, 0x00, 0x00, 0x00, 0x01, 0x14, 0x00, 0x00, 0x00,
  0x24, 0x00, 0x00, 0x00, 0x24, 0x00, 0x00, 0x00, 0x10, 0x00, 0x00, 0x00,
  0x44, 0x00, 0x00, 0x00, 0x04, 0x00, 0x00, 0x00, 0xff, 0xff, 0xff, 0xff,
  0x14, 0x00, 0x00, 0x00, 0x08, 0x00, 0x00, 0x00, 0x08, 0x00, 0x00, 0x00,
  0x90, 0xfa, 0xff, 0xff, 0x20, 0x00, 0x00, 0x00, 0x73, 0x65, 0x71, 0x75,
  0x65, 0x6e, 0x74, 0x69, 0x61, 0x6c, 0x5f, 0x31, 0x30, 0x2f, 0x72, 0x65,
  0x73, 0x68, 0x61, 0x70, 0x65, 0x5f, 0x31, 0x30, 0x2f, 0x52, 0x65, 0x73,
  0x68, 0x61, 0x70, 0x65, 0x00, 0x00, 0x00, 0x00, 0x04, 0x00, 0x00, 0x00,
  0x01, 0x00, 0x00, 0x00, 0x14, 0x00, 0x00, 0x00, 0x08, 0x00, 0x00, 0x00,
  0x08, 0x00, 0x00, 0x00, 0x4e, 0xfd, 0xff, 0xff, 0x00, 0x00, 0x00, 0x01,
  0x14, 0x00, 0x00, 0x00, 0x14, 0x00, 0x00, 0x00, 0x0f, 0x00, 0x00, 0x00,
  0x00, 0x00, 0x00, 0x02, 0x34, 0x00, 0x00, 0x00, 0xec, 0xfa, 0xff, 0xff,
  0x26, 0x00, 0x00, 0x00, 0x73, 0x65, 0x71, 0x75, 0x65, 0x6e, 0x74, 0x69,
  0x61, 0x6c, 0x5f, 0x31, 0x30, 0x2f, 0x72, 0x65, 0x73, 0x68, 0x61, 0x70,
  0x65, 0x5f, 0x31, 0x30, 0x2f, 0x52, 0x65, 0x73, 0x68, 0x61, 0x70, 0x65,
  0x2f, 0x73, 0x68, 0x61, 0x70, 0x65, 0x00, 0x00, 0x01, 0x00, 0x00, 0x00,
  0x04, 0x00, 0x00, 0x00, 0xa2, 0xfd, 0xff, 0xff, 0x00, 0x00, 0x00, 0x01,
  0x14, 0x00, 0x00, 0x00, 0x14, 0x00, 0x00, 0x00, 0x0e, 0x00, 0x00, 0x00,
  0x00, 0x00, 0x00, 0x02, 0x34, 0x00, 0x00, 0x00, 0x40, 0xfb, 0xff, 0xff,
  0x26, 0x00, 0x00, 0x00, 0x73, 0x65, 0x71, 0x75, 0x65, 0x6e, 0x74, 0x69,
  0x61, 0x6c, 0x5f, 0x31, 0x30, 0x2f, 0x72, 0x65, 0x73, 0x68, 0x61, 0x70,
  0x65, 0x5f, 0x31, 0x30, 0x2f, 0x73, 0x74, 0x72, 0x69, 0x64, 0x65, 0x64,
  0x5f, 0x73, 0x6c, 0x69, 0x63, 0x65, 0x00, 0x00, 0x00, 0x00, 0x00, 0x00,
  0xf2, 0xfd, 0xff, 0xff, 0x00, 0x00, 0x00, 0x01, 0x14, 0x00, 0x00, 0x00,
  0x14, 0x00, 0x00, 0x00, 0x0d, 0x00, 0x00, 0x00, 0x00, 0x00, 0x00, 0x02,
  0x2c, 0x00, 0x00, 0x00, 0x90, 0xfb, 0xff, 0xff, 0x1e, 0x00, 0x00, 0x00,
  0x73, 0x65, 0x71, 0x75, 0x65, 0x6e, 0x74, 0x69, 0x61, 0x6c, 0x5f, 0x31,
  0x30, 0x2f, 0x72, 0x65, 0x73, 0x68, 0x61, 0x70, 0x65, 0x5f, 0x31, 0x30,
  0x2f, 0x53, 0x68, 0x61, 0x70, 0x65, 0x00, 0x00, 0x01, 0x00, 0x00, 0x00,
  0x03, 0x00, 0x00, 0x00, 0x72, 0xfc, 0xff, 0xff, 0x00, 0x00, 0x00, 0x01,
  0x10, 0x00, 0x00, 0x00, 0x10, 0x00, 0x00, 0x00, 0x0c, 0x00, 0x00, 0x00,
  0x2c, 0x00, 0x00, 0x00, 0xd8, 0xfb, 0xff, 0xff, 0x1d, 0x00, 0x00, 0x00,
  0x73, 0x65, 0x71, 0x75, 0x65, 0x6e, 0x74, 0x69, 0x61, 0x6c, 0x5f, 0x31,
  0x30, 0x2f, 0x64, 0x65, 0x6e, 0x73, 0x65, 0x5f, 0x31, 0x30, 0x2f, 0x4d,
  0x61, 0x74, 0x4d, 0x75, 0x6c, 0x00, 0x00, 0x00, 0x02, 0x00, 0x00, 0x00,
  0x01, 0x00, 0x00, 0x00, 0x03, 0x00, 0x00, 0x00, 0x8a, 0xfe, 0xff, 0xff,
  0x00, 0x00, 0x00, 0x01, 0x14, 0x00, 0x00, 0x00, 0x14, 0x00, 0x00, 0x00,
  0x0b, 0x00, 0x00, 0x00, 0x00, 0x00, 0x00, 0x02, 0x50, 0x00, 0x00, 0x00,
  0x28, 0xfc, 0xff, 0xff, 0x40, 0x00, 0x00, 0x00, 0x73, 0x65, 0x71, 0x75,
  0x65, 0x6e, 0x74, 0x69, 0x61, 0x6c, 0x5f, 0x31, 0x30, 0x2f, 0x67, 0x6c,
  0x6f, 0x62, 0x61, 0x6c, 0x5f, 0x61, 0x76, 0x65, 0x72, 0x61, 0x67, 0x65,
  0x5f, 0x70, 0x6f, 0x6f, 0x6c, 0x69, 0x6e, 0x67, 0x32, 0x64, 0x5f, 0x31,
  0x30, 0x2f, 0x4d, 0x65, 0x61, 0x6e, 0x2f, 0x72, 0x65, 0x64, 0x75, 0x63,
  0x74, 0x69, 0x6f, 0x6e, 0x5f, 0x69, 0x6e, 0x64, 0x69, 0x63, 0x65, 0x73,
  0x00, 0x00, 0x00, 0x00, 0x01, 0x00, 0x00, 0x00, 0x02, 0x00, 0x00, 0x00,
  0xfa, 0xfe, 0xff, 0xff, 0x00, 0x00, 0x00, 0x01, 0x14, 0x00, 0x00, 0x00,
  0x14, 0x00, 0x00, 0x00, 0x0a, 0x00, 0x00, 0x00, 0x00, 0x00, 0x00, 0x02,
  0x38, 0x00, 0x00, 0x00, 0x98, 0xfc, 0xff, 0xff, 0x28, 0x00, 0x00, 0x00,
  0x73, 0x65, 0x71, 0x75, 0x65, 0x6e, 0x74, 0x69, 0x61, 0x6c, 0x5f, 0x31,
  0x30, 0x2f, 0x72, 0x65, 0x73, 0x68, 0x61, 0x70, 0x65, 0x5f, 0x31, 0x30,
  0x2f, 0x52, 0x65, 0x73, 0x68, 0x61, 0x70, 0x65, 0x2f, 0x73, 0x68, 0x61,
  0x70, 0x65, 0x2f, 0x31, 0x00, 0x00, 0x00, 0x00, 0x00, 0x00, 0x00, 0x00,
  0x4e, 0xff, 0xff, 0xff, 0x00, 0x00, 0x00, 0x01, 0x14, 0x00, 0x00, 0x00,
  0x14, 0x00, 0x00, 0x00, 0x09, 0x00, 0x00, 0x00, 0x00, 0x00, 0x00, 0x02,
  0x38, 0x00, 0x00, 0x00, 0xec, 0xfc, 0xff, 0xff, 0x28, 0x00, 0x00, 0x00,
  0x73, 0x65, 0x71, 0x75, 0x65, 0x6e, 0x74, 0x69, 0x61, 0x6c, 0x5f, 0x31,
  0x30, 0x2f, 0x72, 0x65, 0x73, 0x68, 0x61, 0x70, 0x65, 0x5f, 0x31, 0x30,
  0x2f, 0x52, 0x65, 0x73, 0x68, 0x61, 0x70, 0x65, 0x2f, 0x73, 0x68, 0x61,
  0x70, 0x65, 0x2f, 0x32, 0x00, 0x00, 0x00, 0x00, 0x00, 0x00, 0x00, 0x00,
  0xa2, 0xff, 0xff, 0xff, 0x00, 0x00, 0x00, 0x01, 0x14, 0x00, 0x00, 0x00,
  0x14, 0x00, 0x00, 0x00, 0x08, 0x00, 0x00, 0x00, 0x00, 0x00, 0x00, 0x02,
  0x3c, 0x00, 0x00, 0x00, 0x40, 0xfd, 0xff, 0xff, 0x2c, 0x00, 0x00, 0x00,
  0x73, 0x65, 0x71, 0x75, 0x65, 0x6e, 0x74, 0x69, 0x61, 0x6c, 0x5f, 0x31,
  0x30, 0x2f, 0x72, 0x65, 0x73, 0x68, 0x61, 0x70, 0x65, 0x5f, 0x31, 0x30,
  0x2f, 0x73, 0x74, 0x72, 0x69, 0x64, 0x65, 0x64, 0x5f, 0x73, 0x6c, 0x69,
  0x63, 0x65, 0x2f, 0x73, 0x74, 0x61, 0x63, 0x6b, 0x00, 0x00, 0x00, 0x00,
  0x01, 0x00, 0x00, 0x00, 0x01, 0x00, 0x00, 0x00, 0x00, 0x00, 0x16, 0x00,
  0x1c, 0x00, 0x18, 0x00, 0x17, 0x00, 0x10, 0x00, 0x0c, 0x00, 0x08, 0x00,
  0x00, 0x00, 0x00, 0x00, 0x00, 0x00, 0x07, 0x00, 0x16, 0x00, 0x00, 0x00,
  0x00, 0x00, 0x00, 0x01, 0x14, 0x00, 0x00, 0x00, 0x14, 0x00, 0x00, 0x00,
  0x07, 0x00, 0x00, 0x00, 0x00, 0x00, 0x00, 0x02, 0x3c, 0x00, 0x00, 0x00,
  0xb4, 0xfd, 0xff, 0xff, 0x2e, 0x00, 0x00, 0x00, 0x73, 0x65, 0x71, 0x75,
  0x65, 0x6e, 0x74, 0x69, 0x61, 0x6c, 0x5f, 0x31, 0x30, 0x2f, 0x72, 0x65,
  0x73, 0x68, 0x61, 0x70, 0x65, 0x5f, 0x31, 0x30, 0x2f, 0x73, 0x74, 0x72,
  0x69, 0x64, 0x65, 0x64, 0x5f, 0x73, 0x6c, 0x69, 0x63, 0x65, 0x2f, 0x73,
  0x74, 0x61, 0x63, 0x6b, 0x5f, 0x31, 0x00, 0x00, 0x01, 0x00, 0x00, 0x00,
  0x01, 0x00, 0x00, 0x00, 0xa6, 0xfe, 0xff, 0xff, 0x00, 0x00, 0x00, 0x01,
  0x10, 0x00, 0x00, 0x00, 0x10, 0x00, 0x00, 0x00, 0x06, 0x00, 0x00, 0x00,
  0x3c, 0x00, 0x00, 0x00, 0x0c, 0xfe, 0xff, 0xff, 0x2d, 0x00, 0x00, 0x00,
  0x73, 0x65, 0x71, 0x75, 0x65, 0x6e, 0x74, 0x69, 0x61, 0x6c, 0x5f, 0x31,
  0x30, 0x2f, 0x64, 0x65, 0x6e, 0x73, 0x65, 0x5f, 0x31, 0x30, 0x2f, 0x42,
  0x69, 0x61, 0x73, 0x41, 0x64, 0x64, 0x2f, 0x52, 0x65, 0x61, 0x64, 0x56,
  0x61, 0x72, 0x69, 0x61, 0x62, 0x6c, 0x65, 0x4f, 0x70, 0x00, 0x00, 0x00,
  0x01, 0x00, 0x00, 0x00, 0x01, 0x00, 0x00, 0x00, 0xfe, 0xfe, 0xff, 0xff,
  0x00, 0x00, 0x00, 0x01, 0x10, 0x00, 0x00, 0x00, 0x10, 0x00, 0x00, 0x00,
  0x05, 0x00, 0x00, 0x00, 0x2c, 0x00, 0x00, 0x00, 0x64, 0xfe, 0xff, 0xff,
  0x1e, 0x00, 0x00, 0x00, 0x73, 0x65, 0x71, 0x75, 0x65, 0x6e, 0x74, 0x69,
  0x61, 0x6c, 0x5f, 0x31, 0x30, 0x2f, 0x63, 0x6f, 0x6e, 0x76, 0x32, 0x64,
  0x5f, 0x32, 0x31, 0x2f, 0x43, 0x6f, 0x6e, 0x76, 0x32, 0x44, 0x00, 0x00,
  0x04, 0x00, 0x00, 0x00, 0x03, 0x00, 0x00, 0x00, 0x03, 0x00, 0x00, 0x00,
  0x03, 0x00, 0x00, 0x00, 0x06, 0x00, 0x00, 0x00, 0x52, 0xff, 0xff, 0xff,
  0x00, 0x00, 0x00, 0x01, 0x10, 0x00, 0x00, 0x00, 0x10, 0x00, 0x00, 0x00,
  0x04, 0x00, 0x00, 0x00, 0x2c, 0x00, 0x00, 0x00, 0xb8, 0xfe, 0xff, 0xff,
  0x1e, 0x00, 0x00, 0x00, 0x73, 0x65, 0x71, 0x75, 0x65, 0x6e, 0x74, 0x69,
  0x61, 0x6c, 0x5f, 0x31, 0x30, 0x2f, 0x63, 0x6f, 0x6e, 0x76, 0x32, 0x64,
  0x5f, 0x32, 0x30, 0x2f, 0x43, 0x6f, 0x6e, 0x76, 0x32, 0x44, 0x00, 0x00,
  0x04, 0x00, 0x00, 0x00, 0x06, 0x00, 0x00, 0x00, 0x03, 0x00, 0x00, 0x00,
  0x03, 0x00, 0x00, 0x00, 0x08, 0x00, 0x00, 0x00, 0xa6, 0xff, 0xff, 0xff,
  0x00, 0x00, 0x00, 0x01, 0x10, 0x00, 0x00, 0x00, 0x10, 0x00, 0x00, 0x00,
  0x03, 0x00, 0x00, 0x00, 0x3c, 0x00, 0x00, 0x00, 0x0c, 0xff, 0xff, 0xff,
  0x2e, 0x00, 0x00, 0x00, 0x73, 0x65, 0x71, 0x75, 0x65, 0x6e, 0x74, 0x69,
  0x61, 0x6c, 0x5f, 0x31, 0x30, 0x2f, 0x63, 0x6f, 0x6e, 0x76, 0x32, 0x64,
  0x5f, 0x32, 0x31, 0x2f, 0x42, 0x69, 0x61, 0x73, 0x41, 0x64, 0x64, 0x2f,
  0x52, 0x65, 0x61, 0x64, 0x56, 0x61, 0x72, 0x69, 0x61, 0x62, 0x6c, 0x65,
  0x4f, 0x70, 0x00, 0x00, 0x01, 0x00, 0x00, 0x00, 0x03, 0x00, 0x00, 0x00,
  0x00, 0x00, 0x16, 0x00, 0x18, 0x00, 0x14, 0x00, 0x00, 0x00, 0x10, 0x00,
  0x0c, 0x00, 0x08, 0x00, 0x00, 0x00, 0x00, 0x00, 0x00, 0x00, 0x07, 0x00,
  0x16, 0x00, 0x00, 0x00, 0x00, 0x00, 0x00, 0x01, 0x10, 0x00, 0x00, 0x00,
  0x10, 0x00, 0x00, 0x00, 0x02, 0x00, 0x00, 0x00, 0x3c, 0x00, 0x00, 0x00,
  0x7c, 0xff, 0xff, 0xff, 0x2e, 0x00, 0x00, 0x00, 0x73, 0x65, 0x71, 0x75,
  0x65, 0x6e, 0x74, 0x69, 0x61, 0x6c, 0x5f, 0x31, 0x30, 0x2f, 0x63, 0x6f,
  0x6e, 0x76, 0x32, 0x64, 0x5f, 0x32, 0x30, 0x2f, 0x42, 0x69, 0x61, 0x73,
  0x41, 0x64, 0x64, 0x2f, 0x52, 0x65, 0x61, 0x64, 0x56, 0x61, 0x72, 0x69,
  0x61, 0x62, 0x6c, 0x65, 0x4f, 0x70, 0x00, 0x00, 0x01, 0x00, 0x00, 0x00,
  0x06, 0x00, 0x00, 0x00, 0x00, 0x00, 0x16, 0x00, 0x1c, 0x00, 0x18, 0x00,
  0x00, 0x00, 0x14, 0x00, 0x10, 0x00, 0x0c, 0x00, 0x00, 0x00, 0x00, 0x00,
  0x08, 0x00, 0x07, 0x00, 0x16, 0x00, 0x00, 0x00, 0x00, 0x00, 0x00, 0x01,
  0x14, 0x00, 0x00, 0x00, 0x24, 0x00, 0x00, 0x00, 0x24, 0x00, 0x00, 0x00,
  0x01, 0x00, 0x00, 0x00, 0x44, 0x00, 0x00, 0x00, 0x03, 0x00, 0x00, 0x00,
  0xff, 0xff, 0xff, 0xff, 0x14, 0x00, 0x00, 0x00, 0x40, 0x00, 0x00, 0x00,
  0x04, 0x00, 0x04, 0x00, 0x04, 0x00, 0x00, 0x00, 0x22, 0x00, 0x00, 0x00,
  0x73, 0x65, 0x72, 0x76, 0x69, 0x6e, 0x67, 0x5f, 0x64, 0x65, 0x66, 0x61,
  0x75, 0x6c, 0x74, 0x5f, 0x72, 0x65, 0x73, 0x68, 0x61, 0x70, 0x65, 0x5f,
  0x31, 0x30, 0x5f, 0x69, 0x6e, 0x70, 0x75, 0x74, 0x3a, 0x30, 0x00, 0x00,
  0x03, 0x00, 0x00, 0x00, 0x01, 0x00, 0x00, 0x00, 0x14, 0x00, 0x00, 0x00,
  0x40, 0x00, 0x00, 0x00, 0x08, 0x00, 0x00, 0x00, 0x80, 0x00, 0x00, 0x00,
  0x64, 0x00, 0x00, 0x00, 0x54, 0x00, 0x00, 0x00, 0x44, 0x00, 0x00, 0x00,
  0x34, 0x00, 0x00, 0x00, 0x24, 0x00, 0x00, 0x00, 0x14, 0x00, 0x00, 0x00,
  0x04, 0x00, 0x00, 0x00, 0xac, 0xff, 0xff, 0xff, 0x0e, 0x00, 0x00, 0x00,
  0x00, 0x00, 0x00, 0x0e, 0xb8, 0xff, 0xff, 0xff, 0x09, 0x00, 0x00, 0x00,
  0x00, 0x00, 0x00, 0x09, 0xc4, 0xff, 0xff, 0xff, 0x28, 0x00, 0x00, 0x00,
  0x00, 0x00, 0x00, 0x28, 0xd0, 0xff, 0xff, 0xff, 0x03, 0x00, 0x00, 0x00,
  0x00, 0x00, 0x00, 0x03, 0xdc, 0xff, 0xff, 0xff, 0x16, 0x00, 0x00, 0x00,
  0x00, 0x00, 0x00, 0x16, 0xe8, 0xff, 0xff, 0xff, 0x53, 0x00, 0x00, 0x00,
  0x00, 0x00, 0x00, 0x53, 0xf4, 0xff, 0xff, 0xff, 0x2d, 0x00, 0x00, 0x00,
  0x00, 0x00, 0x00, 0x2d, 0x0c, 0x00, 0x0c, 0x00, 0x0b, 0x00, 0x00, 0x00,
  0x00, 0x00, 0x04, 0x00, 0x0c, 0x00, 0x00, 0x00, 0x4d, 0x00, 0x00, 0x00,
  0x00, 0x00, 0x00, 0x4d};
extern const int model_tflite_len PROGMEM = 6304;

#endif  // TENSORFLOW_LITE_MICRO_MODEL_DATA_H_