/*
 * Copyright (c) 2024 EdgeImpulse Inc.
 *
 * Generated by Edge Impulse and licensed under the applicable Edge Impulse
 * Terms of Service. Community and Professional Terms of Service
 * (https://docs.edgeimpulse.com/page/terms-of-service) or Enterprise Terms of
 * Service (https://docs.edgeimpulse.com/page/enterprise-terms-of-service),
 * according to your product plan subscription (the “License”).
 *
 * This software, documentation and other associated files (collectively referred
 * to as the “Software”) is a single SDK variation generated by the Edge Impulse
 * platform and requires an active paid Edge Impulse subscription to use this
 * Software for any purpose.
 *
 * You may NOT use this Software unless you have an active Edge Impulse subscription
 * that meets the eligibility requirements for the applicable License, subject to
 * your full and continued compliance with the terms and conditions of the License,
 * including without limitation any usage restrictions under the applicable License.
 *
 * If you do not have an active Edge Impulse product plan subscription, or if use
 * of this Software exceeds the usage limitations of your Edge Impulse product plan
 * subscription, you are not permitted to use this Software and must immediately
 * delete and erase all copies of this Software within your control or possession.
 * Edge Impulse reserves all rights and remedies available to enforce its rights.
 *
 * Unless required by applicable law or agreed to in writing, the Software is
 * distributed on an "AS IS" BASIS, WITHOUT WARRANTIES OR CONDITIONS OF ANY KIND,
 * either express or implied. See the License for the specific language governing
 * permissions, disclaimers and limitations under the License.
 */

#ifndef _EI_CLASSIFIER_TFLITE_LEARN_5_H_
#define _EI_CLASSIFIER_TFLITE_LEARN_5_H_

#define EI_CLASSIFIER_TFLITE_LEARN_5_ARENA_SIZE     3020
const size_t tflite_learn_5_arena_size = 3020;

#ifdef EI_CLASSIFIER_TFLITE_ARENA_SIZE
#if EI_CLASSIFIER_TFLITE_ARENA_SIZE < EI_CLASSIFIER_TFLITE_LEARN_5_ARENA_SIZE
#undef EI_CLASSIFIER_TFLITE_ARENA_SIZE
#define EI_CLASSIFIER_TFLITE_ARENA_SIZE EI_CLASSIFIER_TFLITE_LEARN_5_ARENA_SIZE
#endif // #if EI_CLASSIFIER_TFLITE_ARENA_SIZE < EI_CLASSIFIER_TFLITE_LEARN_5_ARENA_SIZE
#else
#define EI_CLASSIFIER_TFLITE_ARENA_SIZE EI_CLASSIFIER_TFLITE_LEARN_5_ARENA_SIZE
#endif // #ifdef EI_CLASSIFIER_TFLITE_ARENA_SIZE

#if defined __GNUC__
#define ALIGN(X) __attribute__((aligned(X)))
#elif defined _MSC_VER
#define ALIGN(X) __declspec(align(X))
#elif defined __TASKING__
#define ALIGN(X) __align(X)
#else
#define ALIGN(X)
#endif

ALIGN(16) const unsigned char tflite_learn_5[] = {
  0x1c, 0x00, 0x00, 0x00, 0x54, 0x46, 0x4c, 0x33, 0x14, 0x00, 0x20, 0x00,
  0x1c, 0x00, 0x18, 0x00, 0x14, 0x00, 0x10, 0x00, 0x0c, 0x00, 0x00, 0x00,
  0x08, 0x00, 0x04, 0x00, 0x14, 0x00, 0x00, 0x00, 0x1c, 0x00, 0x00, 0x00,
  0x8c, 0x00, 0x00, 0x00, 0xe4, 0x00, 0x00, 0x00, 0x80, 0x09, 0x00, 0x00,
  0x90, 0x09, 0x00, 0x00, 0x54, 0x10, 0x00, 0x00, 0x03, 0x00, 0x00, 0x00,
  0x01, 0x00, 0x00, 0x00, 0x10, 0x00, 0x00, 0x00, 0x00, 0x00, 0x0a, 0x00,
  0x10, 0x00, 0x0c, 0x00, 0x08, 0x00, 0x04, 0x00, 0x0a, 0x00, 0x00, 0x00,
  0x0c, 0x00, 0x00, 0x00, 0x1c, 0x00, 0x00, 0x00, 0x3c, 0x00, 0x00, 0x00,
  0x0f, 0x00, 0x00, 0x00, 0x73, 0x65, 0x72, 0x76, 0x69, 0x6e, 0x67, 0x5f,
  0x64, 0x65, 0x66, 0x61, 0x75, 0x6c, 0x74, 0x00, 0x01, 0x00, 0x00, 0x00,
  0x04, 0x00, 0x00, 0x00, 0x9c, 0xff, 0xff, 0xff, 0x0a, 0x00, 0x00, 0x00,
  0x04, 0x00, 0x00, 0x00, 0x08, 0x00, 0x00, 0x00, 0x6f, 0x75, 0x74, 0x70,
  0x75, 0x74, 0x5f, 0x30, 0x00, 0x00, 0x00, 0x00, 0x01, 0x00, 0x00, 0x00,
  0x04, 0x00, 0x00, 0x00, 0x66, 0xf6, 0xff, 0xff, 0x04, 0x00, 0x00, 0x00,
  0x01, 0x00, 0x00, 0x00, 0x78, 0x00, 0x00, 0x00, 0x02, 0x00, 0x00, 0x00,
  0x34, 0x00, 0x00, 0x00, 0x04, 0x00, 0x00, 0x00, 0xdc, 0xff, 0xff, 0xff,
  0x0d, 0x00, 0x00, 0x00, 0x04, 0x00, 0x00, 0x00, 0x13, 0x00, 0x00, 0x00,
  0x43, 0x4f, 0x4e, 0x56, 0x45, 0x52, 0x53, 0x49, 0x4f, 0x4e, 0x5f, 0x4d,
  0x45, 0x54, 0x41, 0x44, 0x41, 0x54, 0x41, 0x00, 0x08, 0x00, 0x0c, 0x00,
  0x08, 0x00, 0x04, 0x00, 0x08, 0x00, 0x00, 0x00, 0x0c, 0x00, 0x00, 0x00,
  0x04, 0x00, 0x00, 0x00, 0x13, 0x00, 0x00, 0x00, 0x6d, 0x69, 0x6e, 0x5f,
  0x72, 0x75, 0x6e, 0x74, 0x69, 0x6d, 0x65, 0x5f, 0x76, 0x65, 0x72, 0x73,
  0x69, 0x6f, 0x6e, 0x00, 0x0e, 0x00, 0x00, 0x00, 0x98, 0x08, 0x00, 0x00,
  0x90, 0x08, 0x00, 0x00, 0x74, 0x08, 0x00, 0x00, 0x44, 0x08, 0x00, 0x00,
  0x0c, 0x08, 0x00, 0x00, 0x34, 0x07, 0x00, 0x00, 0xd4, 0x06, 0x00, 0x00,
  0xac, 0x00, 0x00, 0x00, 0xa4, 0x00, 0x00, 0x00, 0x9c, 0x00, 0x00, 0x00,
  0x94, 0x00, 0x00, 0x00, 0x8c, 0x00, 0x00, 0x00, 0x6c, 0x00, 0x00, 0x00,
  0x04, 0x00, 0x00, 0x00, 0x0e, 0xf7, 0xff, 0xff, 0x04, 0x00, 0x00, 0x00,
  0x58, 0x00, 0x00, 0x00, 0x0c, 0x00, 0x00, 0x00, 0x08, 0x00, 0x0e, 0x00,
  0x08, 0x00, 0x04, 0x00, 0x08, 0x00, 0x00, 0x00, 0x10, 0x00, 0x00, 0x00,
  0x28, 0x00, 0x00, 0x00, 0x00, 0x00, 0x06, 0x00, 0x08, 0x00, 0x04, 0x00,
  0x06, 0x00, 0x00, 0x00, 0x04, 0x00, 0x00, 0x00, 0x01, 0x00, 0x00, 0x00,
  0xeb, 0x03, 0x00, 0x00, 0x00, 0x00, 0x0a, 0x00, 0x10, 0x00, 0x0c, 0x00,
  0x08, 0x00, 0x04, 0x00, 0x0a, 0x00, 0x00, 0x00, 0x03, 0x00, 0x00, 0x00,
  0x02, 0x00, 0x00, 0x00, 0x04, 0x00, 0x00, 0x00, 0x06, 0x00, 0x00, 0x00,
  0x32, 0x2e, 0x31, 0x31, 0x2e, 0x31, 0x00, 0x00, 0x72, 0xf7, 0xff, 0xff,
  0x04, 0x00, 0x00, 0x00, 0x10, 0x00, 0x00, 0x00, 0x31, 0x2e, 0x31, 0x34,
  0x2e, 0x30, 0x00, 0x00, 0x00, 0x00, 0x00, 0x00, 0x00, 0x00, 0x00, 0x00,
  0x5c, 0xf7, 0xff, 0xff, 0x60, 0xf7, 0xff, 0xff, 0x64, 0xf7, 0xff, 0xff,
  0x68, 0xf7, 0xff, 0xff, 0x9e, 0xf7, 0xff, 0xff, 0x04, 0x00, 0x00, 0x00,
  0x18, 0x06, 0x00, 0x00, 0x15, 0x0a, 0xd5, 0x6c, 0x33, 0x4d, 0x2f, 0xcc,
  0x2c, 0xb4, 0x01, 0x26, 0xa6, 0xc0, 0xe1, 0x64, 0x21, 0x38, 0xec, 0xeb,
  0x75, 0xff, 0x6b, 0x26, 0xb6, 0x56, 0xe5, 0xb3, 0xb5, 0xbe, 0x25, 0x3f,
  0x5b, 0xc7, 0xba, 0x45, 0xd8, 0x61, 0x0e, 0xcd, 0x1c, 0xf3, 0xcb, 0xe8,
  0xbf, 0x63, 0xe9, 0x62, 0xc3, 0xbc, 0xf1, 0xa3, 0x3b, 0xd1, 0xcf, 0x54,
  0x61, 0x5d, 0x71, 0x42, 0x29, 0xd7, 0x0b, 0xb6, 0xee, 0xd4, 0xf0, 0x0e,
  0x75, 0x0e, 0x21, 0xa9, 0xbe, 0xdd, 0xe0, 0xbd, 0x3a, 0x22, 0x94, 0xdd,
  0x56, 0x07, 0xde, 0x08, 0x1b, 0x18, 0x2f, 0x63, 0xc5, 0x32, 0x12, 0x05,
  0x43, 0xc9, 0x48, 0x2a, 0x5f, 0xba, 0xe5, 0xeb, 0x4d, 0xe3, 0x28, 0x27,
  0xe3, 0x60, 0xd4, 0xae, 0xf0, 0x56, 0x4e, 0x59, 0x3b, 0xd6, 0xa4, 0xeb,
  0x10, 0xc3, 0xc8, 0xcc, 0x5d, 0x4b, 0x30, 0xdf, 0x47, 0xbb, 0x0b, 0x03,
  0xa7, 0xf8, 0xf9, 0xee, 0xe6, 0x92, 0x9c, 0x4b, 0x5a, 0xb5, 0xf3, 0x4c,
  0xdd, 0xf5, 0xed, 0xf7, 0x3e, 0x9b, 0x32, 0xe0, 0x5b, 0xc9, 0x42, 0x00,
  0x16, 0x5a, 0xe7, 0xcd, 0x3b, 0xdc, 0xb8, 0xae, 0x23, 0xc1, 0x39, 0x50,
  0x5e, 0xf9, 0xb6, 0x16, 0xbe, 0x2c, 0xc6, 0x4b, 0x1c, 0x40, 0xf5, 0x1f,
  0x58, 0x94, 0x2c, 0xa4, 0x01, 0xda, 0x5a, 0x30, 0xd5, 0xa6, 0xc8, 0x37,
  0x27, 0xa9, 0xdf, 0xd1, 0x9b, 0xec, 0x2e, 0xab, 0x37, 0x3d, 0x99, 0xf7,
  0x17, 0xdf, 0xbe, 0xa3, 0x1b, 0xdd, 0x2d, 0xe3, 0xe7, 0x15, 0x21, 0xa7,
  0x14, 0x06, 0x09, 0xe8, 0x64, 0xe5, 0xf7, 0x19, 0xec, 0x32, 0x13, 0xd8,
  0xd5, 0xd0, 0xf9, 0xa2, 0x0d, 0x5f, 0xf8, 0xb1, 0xb3, 0x41, 0xb1, 0x42,
  0xe0, 0x43, 0xfd, 0x43, 0xfd, 0x6c, 0x37, 0xb7, 0x5c, 0x5e, 0x38, 0x44,
  0x23, 0xfb, 0xb8, 0xd5, 0x28, 0x46, 0xc3, 0x2f, 0xc3, 0xdf, 0x43, 0x39,
  0xbd, 0x49, 0x68, 0x4a, 0xde, 0x31, 0x5d, 0xda, 0x45, 0x14, 0x6b, 0xa5,
  0x1b, 0x4c, 0xa5, 0x4c, 0x07, 0x50, 0x68, 0xb8, 0x01, 0xc5, 0x41, 0x34,
  0xbc, 0xfb, 0xf2, 0xa5, 0x28, 0xb8, 0xae, 0xa3, 0xd6, 0xef, 0x57, 0x1d,
  0x5b, 0x43, 0xb6, 0xaa, 0x26, 0xc1, 0xc6, 0xa8, 0x44, 0xc7, 0xc4, 0xb1,
  0x11, 0x1d, 0xe1, 0x61, 0x51, 0x19, 0x0b, 0xad, 0x9b, 0xc5, 0x6a, 0xfc,
  0xe5, 0x51, 0xf7, 0x28, 0xd5, 0xd1, 0xc1, 0x3d, 0x2f, 0x41, 0x06, 0xf8,
  0x05, 0x70, 0xfe, 0x03, 0xf3, 0x18, 0x47, 0x4c, 0xa6, 0xa5, 0x43, 0xca,
  0x69, 0xc6, 0xf0, 0xdf, 0xf2, 0xb4, 0x28, 0x3a, 0xf5, 0x0b, 0x9a, 0xe8,
  0x4d, 0xd5, 0x60, 0x53, 0x01, 0x5a, 0x56, 0x60, 0xae, 0xe0, 0xf7, 0x62,
  0x55, 0x64, 0x6f, 0x50, 0xbd, 0xc2, 0x72, 0x73, 0x1a, 0x38, 0xbe, 0x4f,
  0xaf, 0xd4, 0xbc, 0x30, 0x5b, 0x38, 0x3e, 0x44, 0xf2, 0xf8, 0xdc, 0x4f,
  0x06, 0x02, 0xea, 0xb0, 0x07, 0x60, 0xd3, 0x11, 0x9c, 0xd5, 0x94, 0x23,
  0x07, 0x0a, 0x9e, 0x11, 0xe1, 0x09, 0xb4, 0xac, 0xf4, 0xc9, 0x47, 0xe3,
  0x12, 0xdf, 0xce, 0x69, 0xeb, 0xf9, 0x52, 0xc2, 0x18, 0xa1, 0x45, 0xc5,
  0x2a, 0x4f, 0x3a, 0x31, 0xbe, 0xe9, 0x13, 0x99, 0xb3, 0xb8, 0xf9, 0x3d,
  0x55, 0xeb, 0x19, 0xca, 0x49, 0x3d, 0x1a, 0xf9, 0x40, 0x0a, 0x1c, 0x9f,
  0x44, 0xaf, 0xe3, 0xfa, 0xce, 0x45, 0x67, 0x41, 0x5b, 0xce, 0x42, 0xb0,
  0x95, 0xb9, 0xef, 0xeb, 0x43, 0xee, 0xca, 0xd6, 0xcf, 0xae, 0xf4, 0x5e,
  0xf4, 0x21, 0x15, 0x10, 0x19, 0x4c, 0x3f, 0xec, 0xe5, 0xda, 0x77, 0x62,
  0xe2, 0x27, 0xe6, 0x56, 0xeb, 0x0a, 0x76, 0xbd, 0x48, 0x2a, 0x59, 0xb2,
  0x13, 0x05, 0xc2, 0x4e, 0xb5, 0x3c, 0xc0, 0x76, 0xe3, 0x01, 0x07, 0x15,
  0xe1, 0xbe, 0x7a, 0xe1, 0x0e, 0x02, 0xd3, 0x6c, 0xb7, 0x40, 0x25, 0x04,
  0x1a, 0x6e, 0x4d, 0xe2, 0xc2, 0x0b, 0x48, 0xc0, 0x2f, 0x2b, 0x8d, 0x2a,
  0xc7, 0xd4, 0x2a, 0x62, 0xe3, 0x2a, 0x17, 0x36, 0x28, 0x49, 0x39, 0xac,
  0x13, 0x54, 0x58, 0x0d, 0x02, 0x12, 0xc9, 0x42, 0xd9, 0x52, 0xcb, 0x12,
  0xa9, 0xa2, 0xd0, 0xb3, 0xac, 0x51, 0x49, 0xaf, 0xb8, 0xec, 0xd9, 0x53,
  0xd1, 0xf3, 0x9e, 0xe9, 0x01, 0x53, 0x09, 0x96, 0xcc, 0x91, 0xde, 0x0e,
  0x37, 0xc9, 0xec, 0x25, 0x60, 0x52, 0x15, 0xe9, 0x0c, 0xa0, 0xba, 0x2a,
  0xb1, 0xdb, 0xd9, 0xf6, 0xf8, 0xba, 0xa0, 0x38, 0x3a, 0x96, 0xb7, 0xda,
  0x31, 0xb2, 0x32, 0x0c, 0x24, 0xc6, 0xd0, 0x6d, 0xb1, 0x0a, 0xe6, 0x26,
  0xfa, 0x0f, 0xd7, 0x37, 0x2c, 0x4d, 0x4f, 0xe2, 0xa1, 0x2f, 0xe3, 0xb3,
  0xe6, 0xdf, 0xf5, 0x2e, 0x2c, 0xcf, 0x05, 0xee, 0x24, 0xd4, 0x53, 0x03,
  0x4b, 0x33, 0x49, 0x18, 0x2d, 0x2f, 0x3e, 0xf4, 0x68, 0x99, 0x34, 0x8d,
  0xe0, 0xee, 0x9a, 0xd2, 0x95, 0x45, 0xaa, 0xff, 0xe6, 0xe8, 0x97, 0xdf,
  0x93, 0x0c, 0xc9, 0xe1, 0xb9, 0x0d, 0x91, 0x8b, 0x5b, 0xd0, 0x2d, 0x26,
  0x0d, 0x18, 0xdc, 0xc5, 0x30, 0xdb, 0x4a, 0xcc, 0xfb, 0x91, 0x73, 0x66,
  0x28, 0xc1, 0xc2, 0xd1, 0x03, 0xa6, 0xdc, 0xa1, 0xb4, 0xd1, 0xa5, 0x24,
  0xa9, 0xf5, 0xc1, 0x37, 0x9b, 0xf9, 0xc7, 0x9a, 0xac, 0xbd, 0x9d, 0xdf,
  0xcd, 0x57, 0xee, 0x32, 0x42, 0xb8, 0xe3, 0x3a, 0x0e, 0x59, 0x60, 0x3f,
  0xff, 0x1d, 0xf9, 0x28, 0xc7, 0xdc, 0xae, 0xf5, 0x41, 0x18, 0x3e, 0x47,
  0xea, 0x08, 0x24, 0x20, 0xc2, 0x12, 0xcb, 0x91, 0x3f, 0x29, 0x58, 0xb0,
  0x36, 0x62, 0x97, 0xb2, 0xb5, 0x0e, 0x37, 0x0b, 0xa3, 0x21, 0xa7, 0xcb,
  0xbd, 0x51, 0x05, 0xe1, 0xaa, 0xdb, 0xb4, 0x24, 0xc1, 0x48, 0x5d, 0x06,
  0xf2, 0xb7, 0x63, 0xe8, 0x5d, 0x1f, 0x29, 0x8b, 0x9d, 0xe6, 0x4c, 0x21,
  0x0b, 0x33, 0xc3, 0x30, 0x2d, 0xaa, 0x36, 0xc1, 0xef, 0xf8, 0x35, 0x28,
  0xba, 0x42, 0xb3, 0x62, 0x67, 0xff, 0xc7, 0xe5, 0x45, 0x36, 0xaf, 0xbe,
  0xc0, 0xfb, 0x78, 0x6c, 0xf4, 0xc1, 0xc1, 0x15, 0x16, 0xe7, 0xf5, 0xed,
  0xf0, 0x59, 0x19, 0xb1, 0x4e, 0x3a, 0xf2, 0xd2, 0xe7, 0xf5, 0x54, 0x56,
  0xc9, 0xe6, 0x28, 0x01, 0x2c, 0x34, 0x54, 0x57, 0x2b, 0x97, 0x92, 0x1c,
  0x3c, 0x0a, 0x61, 0x1d, 0xfa, 0xe8, 0x10, 0x6d, 0x2e, 0xd1, 0xe7, 0x22,
  0x6c, 0xd6, 0xa6, 0x9a, 0x5a, 0xcd, 0x3c, 0xdd, 0x4b, 0x56, 0x35, 0x51,
  0xc4, 0x3b, 0xcb, 0xd2, 0x52, 0xf7, 0xde, 0xdf, 0x57, 0xf8, 0x13, 0x1c,
  0x37, 0x34, 0x76, 0x1e, 0xf3, 0xe1, 0xfb, 0xcd, 0x12, 0xe0, 0xaf, 0x11,
  0x11, 0x2c, 0x17, 0x60, 0x4f, 0xec, 0xc0, 0xd6, 0x0e, 0x28, 0xa4, 0xfc,
  0xba, 0x4b, 0x14, 0x1d, 0x78, 0x2f, 0x23, 0xe4, 0x11, 0xb8, 0x58, 0x41,
  0x07, 0xee, 0x52, 0x33, 0x2a, 0xee, 0xe2, 0xe1, 0xa4, 0x0d, 0xcf, 0xcc,
  0x5c, 0x26, 0x36, 0x5c, 0xe8, 0xa6, 0x00, 0xde, 0x33, 0xb8, 0xdb, 0xb4,
  0xc7, 0x48, 0xff, 0xb7, 0x2f, 0x53, 0x05, 0x29, 0x1e, 0xf6, 0x6a, 0xfa,
  0x43, 0x51, 0xda, 0x5a, 0x4d, 0xfa, 0x1e, 0xe9, 0x41, 0xea, 0xdb, 0x27,
  0xae, 0x70, 0x53, 0x54, 0x68, 0xd0, 0xbe, 0xd9, 0x02, 0xe4, 0xaf, 0xc1,
  0xaf, 0xf0, 0x75, 0x51, 0x07, 0x7b, 0x5a, 0xbb, 0xb1, 0x28, 0x90, 0xa7,
  0xd3, 0x2a, 0xf5, 0x31, 0xe2, 0xba, 0xb6, 0x47, 0x14, 0x31, 0x54, 0x36,
  0xfe, 0x34, 0x16, 0xdf, 0x3e, 0x4d, 0x27, 0xa5, 0xe1, 0x58, 0x13, 0x9e,
  0xc3, 0xee, 0x50, 0x76, 0xbf, 0x74, 0x05, 0x2c, 0x26, 0x2e, 0x6e, 0x17,
  0xee, 0xb5, 0x90, 0xeb, 0xbc, 0xe9, 0xc0, 0xbe, 0x0a, 0xed, 0xe3, 0xa8,
  0xb8, 0x5b, 0xec, 0x00, 0x26, 0xaa, 0xc1, 0xab, 0x00, 0x27, 0x3d, 0x07,
  0x62, 0xde, 0x45, 0x27, 0x4c, 0xb8, 0x65, 0xdb, 0x08, 0x47, 0x74, 0x4c,
  0x2f, 0x3d, 0xb0, 0xcc, 0x67, 0xd4, 0x15, 0x60, 0x4b, 0x05, 0x17, 0xf3,
  0x04, 0xc6, 0x59, 0x4a, 0x36, 0x33, 0x19, 0x53, 0xbe, 0xff, 0x52, 0xfd,
  0x41, 0xc5, 0xd9, 0xe1, 0x74, 0xbf, 0xb3, 0x2b, 0x1c, 0xde, 0xea, 0x38,
  0x44, 0x31, 0x70, 0xa5, 0xb1, 0x78, 0xa2, 0xd2, 0xb6, 0x10, 0x55, 0xc9,
  0x71, 0x7d, 0xe4, 0x61, 0xb6, 0xdb, 0x05, 0xac, 0x45, 0xfe, 0x7f, 0xe3,
  0xeb, 0x58, 0x08, 0xd4, 0xc5, 0x2f, 0x69, 0xb6, 0x81, 0x43, 0xb5, 0x49,
  0x08, 0x53, 0xeb, 0xcb, 0xa8, 0xdf, 0xf5, 0x37, 0x37, 0xda, 0xc8, 0xd5,
  0x69, 0xfe, 0x6c, 0xd1, 0x0d, 0x2e, 0xc5, 0x5e, 0x0f, 0x74, 0x3f, 0x26,
  0x0d, 0x4d, 0x1c, 0xc7, 0x5e, 0xd2, 0x51, 0x28, 0xcb, 0x10, 0xfe, 0x54,
  0xb1, 0x9e, 0x9f, 0x1a, 0xf2, 0x0f, 0x23, 0x1e, 0xf5, 0x23, 0xc1, 0x2e,
  0x32, 0x50, 0x0f, 0x2c, 0x22, 0x3b, 0xa0, 0x54, 0xaa, 0x2b, 0x16, 0xff,
  0xd0, 0xda, 0xeb, 0xc6, 0x1a, 0xdb, 0xd9, 0x34, 0xf6, 0x14, 0xfe, 0x9f,
  0x18, 0x59, 0x3e, 0xd4, 0x1d, 0xb7, 0x46, 0xbe, 0xa1, 0xe3, 0xb1, 0x43,
  0x27, 0xf3, 0x46, 0x57, 0x27, 0xc4, 0x58, 0x2b, 0xb4, 0x56, 0x03, 0xc1,
  0x14, 0xd4, 0x11, 0x28, 0x10, 0xbe, 0x08, 0x41, 0xa4, 0x53, 0x53, 0x59,
  0x2b, 0x4b, 0xd6, 0x18, 0x0c, 0xe4, 0xc3, 0x0b, 0x65, 0xf5, 0xdf, 0xaf,
  0x13, 0x87, 0x88, 0xc2, 0xf9, 0x32, 0xcd, 0x25, 0xb9, 0xc7, 0x3b, 0xed,
  0xbb, 0xd2, 0x30, 0xdb, 0x31, 0xe7, 0xf5, 0x26, 0xb7, 0x5c, 0x2c, 0x10,
  0x60, 0xd1, 0xef, 0xd7, 0x2a, 0xb5, 0xde, 0x08, 0x04, 0xf8, 0x22, 0x4b,
  0x01, 0xad, 0x4c, 0x95, 0xe8, 0xc7, 0xf6, 0xe0, 0xf5, 0x98, 0x17, 0xae,
  0xf8, 0xdb, 0x2d, 0xa4, 0xaa, 0x44, 0xb0, 0xf2, 0xa3, 0x3c, 0x0d, 0xc7,
  0x12, 0x78, 0x91, 0xd5, 0xb5, 0x43, 0x37, 0x21, 0xbb, 0x06, 0xe5, 0x30,
  0x56, 0x41, 0x43, 0xd7, 0xcd, 0x4b, 0x18, 0xe6, 0xd2, 0x5c, 0xd2, 0x41,
  0xad, 0xd6, 0xb0, 0x11, 0x57, 0xc0, 0x2f, 0xcc, 0xac, 0x5d, 0xc0, 0xa8,
  0xc4, 0x1a, 0xf1, 0xbc, 0xe7, 0xaa, 0xfc, 0x11, 0x01, 0x5d, 0x5a, 0xc1,
  0x40, 0xa2, 0xae, 0xeb, 0x5f, 0xd6, 0x17, 0xb5, 0x04, 0x61, 0xb3, 0x35,
  0xd4, 0xc7, 0x57, 0x2e, 0x14, 0xaa, 0x41, 0x97, 0xe5, 0xd1, 0x22, 0xb3,
  0x36, 0x65, 0xef, 0x2f, 0x0f, 0x1d, 0x18, 0xdd, 0x42, 0xdc, 0x45, 0x63,
  0x36, 0x1f, 0xb3, 0xba, 0xc1, 0xc9, 0x44, 0xa5, 0x3e, 0x0d, 0xc4, 0xf7,
  0xfa, 0xdd, 0x9e, 0xd7, 0xa9, 0xa2, 0xbb, 0xe2, 0x1a, 0xdf, 0xb1, 0x0f,
  0xb5, 0x42, 0xb5, 0x40, 0xc2, 0x92, 0xe6, 0xfe, 0xbc, 0xc3, 0x42, 0xbf,
  0xa9, 0x90, 0x53, 0x40, 0x0b, 0xa9, 0x9f, 0xc3, 0xbf, 0x32, 0xcf, 0x50,
  0xf1, 0xdf, 0x56, 0x07, 0x9f, 0x92, 0xf7, 0x9a, 0x43, 0xda, 0x32, 0xc5,
  0xd1, 0xb7, 0xd9, 0x40, 0xd6, 0xc3, 0xb3, 0x49, 0x2c, 0xc6, 0x4b, 0xca,
  0x0b, 0x5e, 0x3a, 0x30, 0x45, 0xca, 0x98, 0x18, 0x55, 0x0c, 0x0b, 0x2a,
  0x1b, 0xd1, 0xf6, 0xdb, 0x26, 0xf4, 0x48, 0x4a, 0xac, 0x53, 0x4d, 0xde,
  0x02, 0xf1, 0x14, 0xcb, 0xa7, 0xf9, 0xb7, 0x84, 0x35, 0x96, 0xe0, 0xe7,
  0x9c, 0xea, 0x40, 0x57, 0xcd, 0xf0, 0x38, 0xa4, 0xee, 0x0a, 0x89, 0xfd,
  0xed, 0xd0, 0xc9, 0xda, 0x24, 0x56, 0xe8, 0x97, 0x89, 0x08, 0xe4, 0xf1,
  0x09, 0x1f, 0xb3, 0x42, 0x21, 0xd6, 0x49, 0xa0, 0xaf, 0x4e, 0xa9, 0x41,
  0xae, 0x20, 0xaf, 0xe2, 0xde, 0xdb, 0xb4, 0xbd, 0x97, 0x3e, 0xda, 0xed,
  0xe7, 0x1f, 0xa7, 0x99, 0xc2, 0xfd, 0xff, 0xff, 0x04, 0x00, 0x00, 0x00,
  0x50, 0x00, 0x00, 0x00, 0x55, 0x00, 0x00, 0x00, 0xe5, 0xff, 0xff, 0xff,
  0xdc, 0xff, 0xff, 0xff, 0x17, 0x00, 0x00, 0x00, 0xc5, 0xff, 0xff, 0xff,
  0x0d, 0x00, 0x00, 0x00, 0x33, 0x00, 0x00, 0x00, 0xef, 0xff, 0xff, 0xff,
  0xd3, 0xff, 0xff, 0xff, 0xed, 0xff, 0xff, 0xff, 0xc0, 0xff, 0xff, 0xff,
  0xdc, 0xff, 0xff, 0xff, 0x14, 0x00, 0x00, 0x00, 0xd1, 0xff, 0xff, 0xff,
  0x54, 0x00, 0x00, 0x00, 0xfb, 0xff, 0xff, 0xff, 0x41, 0x00, 0x00, 0x00,
  0xe4, 0xff, 0xff, 0xff, 0x1b, 0x00, 0x00, 0x00, 0x04, 0x00, 0x00, 0x00,
  0x1e, 0xfe, 0xff, 0xff, 0x04, 0x00, 0x00, 0x00, 0xc8, 0x00, 0x00, 0x00,
  0x1e, 0xbe, 0xc8, 0x13, 0x52, 0x01, 0x69, 0xa8, 0xea, 0xc9, 0x0e, 0x19,
  0x32, 0x60, 0x2a, 0xb4, 0x0a, 0xd9, 0xba, 0x12, 0xd6, 0xa8, 0x58, 0x44,
  0x39, 0xe6, 0xe7, 0xb7, 0xa7, 0x06, 0xcb, 0xde, 0x53, 0x13, 0x60, 0x6d,
  0xe6, 0x2b, 0xd5, 0xe2, 0x00, 0x9a, 0xff, 0x78, 0xd1, 0xde, 0xd5, 0x24,
  0xf5, 0x00, 0x1f, 0x3b, 0xea, 0xb5, 0xf8, 0xae, 0x64, 0x9f, 0xb4, 0xcb,
  0x34, 0x09, 0x58, 0x00, 0xbf, 0x46, 0xc4, 0xcb, 0xe4, 0x48, 0x62, 0x2c,
  0xb5, 0xa8, 0xf8, 0xd2, 0xdf, 0xca, 0x71, 0x60, 0xd0, 0x36, 0x9e, 0xd1,
  0xad, 0x3e, 0xd8, 0x15, 0x9f, 0x3c, 0x55, 0x31, 0xe6, 0x2e, 0x11, 0xa1,
  0xcc, 0x5d, 0x3e, 0x2f, 0xad, 0x46, 0xbf, 0x32, 0xe3, 0x91, 0xfb, 0x4e,
  0x91, 0xd3, 0x4b, 0x3b, 0xd2, 0x3c, 0xec, 0xbf, 0xe0, 0x3d, 0xbf, 0x04,
  0x58, 0x30, 0xc8, 0xbe, 0x45, 0x45, 0x03, 0xee, 0xdf, 0x01, 0x35, 0x28,
  0xb2, 0xd0, 0x01, 0xf1, 0x49, 0xec, 0xe6, 0xd1, 0xf8, 0x55, 0x2c, 0x32,
  0x05, 0x62, 0x61, 0x87, 0x7f, 0xe4, 0xd1, 0x6c, 0x50, 0xf6, 0xae, 0x2e,
  0x44, 0x12, 0x18, 0x60, 0x3e, 0x25, 0x33, 0x25, 0x53, 0x1e, 0x94, 0xe4,
  0xe1, 0x0e, 0x5c, 0x12, 0xfc, 0x99, 0xdc, 0x5a, 0xae, 0x42, 0xd1, 0xe0,
  0x32, 0xb4, 0xea, 0x09, 0x40, 0x56, 0xe1, 0x17, 0x3d, 0xa7, 0xbe, 0x29,
  0xa8, 0xbf, 0x29, 0xea, 0x00, 0x47, 0xfe, 0x45, 0xf2, 0xfe, 0xff, 0xff,
  0x04, 0x00, 0x00, 0x00, 0x28, 0x00, 0x00, 0x00, 0x69, 0x00, 0x00, 0x00,
  0xc4, 0x00, 0x00, 0x00, 0xa4, 0x00, 0x00, 0x00, 0xb2, 0xff, 0xff, 0xff,
  0xcd, 0xff, 0xff, 0xff, 0x1c, 0x00, 0x00, 0x00, 0x6e, 0x00, 0x00, 0x00,
  0xb7, 0xff, 0xff, 0xff, 0xed, 0xff, 0xff, 0xff, 0x36, 0x00, 0x00, 0x00,
  0x26, 0xff, 0xff, 0xff, 0x04, 0x00, 0x00, 0x00, 0x1e, 0x00, 0x00, 0x00,
  0x3b, 0xfa, 0x7f, 0x9d, 0xd2, 0x34, 0x57, 0x90, 0x88, 0x4e, 0x55, 0x59,
  0xd8, 0xb2, 0x90, 0x0c, 0x1c, 0xa9, 0x0d, 0xe5, 0xa6, 0xdb, 0x5f, 0x04,
  0x98, 0xa1, 0x9d, 0xd2, 0x6f, 0x29, 0x00, 0x00, 0x52, 0xff, 0xff, 0xff,
  0x04, 0x00, 0x00, 0x00, 0x0c, 0x00, 0x00, 0x00, 0xdc, 0xff, 0xff, 0xff,
  0x50, 0x00, 0x00, 0x00, 0xc9, 0xff, 0xff, 0xff, 0x38, 0xff, 0xff, 0xff,
  0x3c, 0xff, 0xff, 0xff, 0x0f, 0x00, 0x00, 0x00, 0x4d, 0x4c, 0x49, 0x52,
  0x20, 0x43, 0x6f, 0x6e, 0x76, 0x65, 0x72, 0x74, 0x65, 0x64, 0x2e, 0x00,
  0x01, 0x00, 0x00, 0x00, 0x14, 0x00, 0x00, 0x00, 0x00, 0x00, 0x0e, 0x00,
  0x18, 0x00, 0x14, 0x00, 0x10, 0x00, 0x0c, 0x00, 0x08, 0x00, 0x04, 0x00,
  0x0e, 0x00, 0x00, 0x00, 0x14, 0x00, 0x00, 0x00, 0x1c, 0x00, 0x00, 0x00,
  0x28, 0x01, 0x00, 0x00, 0x2c, 0x01, 0x00, 0x00, 0x30, 0x01, 0x00, 0x00,
  0x04, 0x00, 0x00, 0x00, 0x6d, 0x61, 0x69, 0x6e, 0x00, 0x00, 0x00, 0x00,
  0x04, 0x00, 0x00, 0x00, 0xd0, 0x00, 0x00, 0x00, 0x88, 0x00, 0x00, 0x00,
  0x50, 0x00, 0x00, 0x00, 0x14, 0x00, 0x00, 0x00, 0x00, 0x00, 0x0e, 0x00,
  0x1a, 0x00, 0x14, 0x00, 0x10, 0x00, 0x0c, 0x00, 0x0b, 0x00, 0x04, 0x00,
  0x0e, 0x00, 0x00, 0x00, 0x1c, 0x00, 0x00, 0x00, 0x00, 0x00, 0x00, 0x09,
  0x1c, 0x00, 0x00, 0x00, 0x20, 0x00, 0x00, 0x00, 0x01, 0x00, 0x00, 0x00,
  0x00, 0x00, 0x06, 0x00, 0x08, 0x00, 0x04, 0x00, 0x06, 0x00, 0x00, 0x00,
  0x00, 0x00, 0x80, 0x3f, 0x01, 0x00, 0x00, 0x00, 0x0a, 0x00, 0x00, 0x00,
  0x01, 0x00, 0x00, 0x00, 0x09, 0x00, 0x00, 0x00, 0x96, 0xff, 0xff, 0xff,
  0x14, 0x00, 0x00, 0x00, 0x00, 0x00, 0x00, 0x08, 0x10, 0x00, 0x00, 0x00,
  0x14, 0x00, 0x00, 0x00, 0x04, 0x00, 0x04, 0x00, 0x04, 0x00, 0x00, 0x00,
  0x01, 0x00, 0x00, 0x00, 0x09, 0x00, 0x00, 0x00, 0x03, 0x00, 0x00, 0x00,
  0x08, 0x00, 0x00, 0x00, 0x02, 0x00, 0x00, 0x00, 0x01, 0x00, 0x00, 0x00,
  0xca, 0xff, 0xff, 0xff, 0x10, 0x00, 0x00, 0x00, 0x00, 0x00, 0x00, 0x08,
  0x10, 0x00, 0x00, 0x00, 0x14, 0x00, 0x00, 0x00, 0xba, 0xff, 0xff, 0xff,
  0x00, 0x00, 0x00, 0x01, 0x01, 0x00, 0x00, 0x00, 0x08, 0x00, 0x00, 0x00,
  0x03, 0x00, 0x00, 0x00, 0x07, 0x00, 0x00, 0x00, 0x04, 0x00, 0x00, 0x00,
  0x03, 0x00, 0x00, 0x00, 0x00, 0x00, 0x0e, 0x00, 0x16, 0x00, 0x00, 0x00,
  0x10, 0x00, 0x0c, 0x00, 0x0b, 0x00, 0x04, 0x00, 0x0e, 0x00, 0x00, 0x00,
  0x18, 0x00, 0x00, 0x00, 0x00, 0x00, 0x00, 0x08, 0x18, 0x00, 0x00, 0x00,
  0x1c, 0x00, 0x00, 0x00, 0x00, 0x00, 0x06, 0x00, 0x08, 0x00, 0x07, 0x00,
  0x06, 0x00, 0x00, 0x00, 0x00, 0x00, 0x00, 0x01, 0x01, 0x00, 0x00, 0x00,
  0x07, 0x00, 0x00, 0x00, 0x03, 0x00, 0x00, 0x00, 0x00, 0x00, 0x00, 0x00,
  0x06, 0x00, 0x00, 0x00, 0x05, 0x00, 0x00, 0x00, 0x01, 0x00, 0x00, 0x00,
  0x0a, 0x00, 0x00, 0x00, 0x01, 0x00, 0x00, 0x00, 0x00, 0x00, 0x00, 0x00,
  0x0b, 0x00, 0x00, 0x00, 0xf8, 0x04, 0x00, 0x00, 0x68, 0x04, 0x00, 0x00,
  0xfc, 0x03, 0x00, 0x00, 0x80, 0x03, 0x00, 0x00, 0x14, 0x03, 0x00, 0x00,
  0xa0, 0x02, 0x00, 0x00, 0x34, 0x02, 0x00, 0x00, 0x98, 0x01, 0x00, 0x00,
  0xf4, 0x00, 0x00, 0x00, 0x70, 0x00, 0x00, 0x00, 0x04, 0x00, 0x00, 0x00,
  0x4a, 0xfb, 0xff, 0xff, 0x00, 0x00, 0x00, 0x01, 0x14, 0x00, 0x00, 0x00,
  0x30, 0x00, 0x00, 0x00, 0x0b, 0x00, 0x00, 0x00, 0x00, 0x00, 0x00, 0x09,
  0x44, 0x00, 0x00, 0x00, 0x34, 0xfb, 0xff, 0xff, 0x08, 0x00, 0x00, 0x00,
  0x10, 0x00, 0x00, 0x00, 0x01, 0x00, 0x00, 0x00, 0x80, 0xff, 0xff, 0xff,
  0xff, 0xff, 0xff, 0xff, 0x01, 0x00, 0x00, 0x00, 0x00, 0x00, 0x80, 0x3b,
  0x19, 0x00, 0x00, 0x00, 0x53, 0x74, 0x61, 0x74, 0x65, 0x66, 0x75, 0x6c,
  0x50, 0x61, 0x72, 0x74, 0x69, 0x74, 0x69, 0x6f, 0x6e, 0x65, 0x64, 0x43,
  0x61, 0x6c, 0x6c, 0x3a, 0x30, 0x00, 0x00, 0x00, 0x02, 0x00, 0x00, 0x00,
  0x01, 0x00, 0x00, 0x00, 0x03, 0x00, 0x00, 0x00, 0xb2, 0xfb, 0xff, 0xff,
  0x00, 0x00, 0x00, 0x01, 0x14, 0x00, 0x00, 0x00, 0x30, 0x00, 0x00, 0x00,
  0x0a, 0x00, 0x00, 0x00, 0x00, 0x00, 0x00, 0x09, 0x5c, 0x00, 0x00, 0x00,
  0x9c, 0xfb, 0xff, 0xff, 0x08, 0x00, 0x00, 0x00, 0x10, 0x00, 0x00, 0x00,
  0x01, 0x00, 0x00, 0x00, 0x5b, 0x00, 0x00, 0x00, 0x00, 0x00, 0x00, 0x00,
  0x01, 0x00, 0x00, 0x00, 0xc4, 0xf0, 0xed, 0x3d, 0x32, 0x00, 0x00, 0x00,
  0x73, 0x65, 0x71, 0x75, 0x65, 0x6e, 0x74, 0x69, 0x61, 0x6c, 0x2f, 0x79,
  0x5f, 0x70, 0x72, 0x65, 0x64, 0x2f, 0x4d, 0x61, 0x74, 0x4d, 0x75, 0x6c,
  0x3b, 0x73, 0x65, 0x71, 0x75, 0x65, 0x6e, 0x74, 0x69, 0x61, 0x6c, 0x2f,
  0x79, 0x5f, 0x70, 0x72, 0x65, 0x64, 0x2f, 0x42, 0x69, 0x61, 0x73, 0x41,
  0x64, 0x64, 0x00, 0x00, 0x02, 0x00, 0x00, 0x00, 0x01, 0x00, 0x00, 0x00,
  0x03, 0x00, 0x00, 0x00, 0x32, 0xfc, 0xff, 0xff, 0x00, 0x00, 0x00, 0x01,
  0x14, 0x00, 0x00, 0x00, 0x34, 0x00, 0x00, 0x00, 0x09, 0x00, 0x00, 0x00,
  0x00, 0x00, 0x00, 0x09, 0x7c, 0x00, 0x00, 0x00, 0x1c, 0xfc, 0xff, 0xff,
  0x08, 0x00, 0x00, 0x00, 0x14, 0x00, 0x00, 0x00, 0x01, 0x00, 0x00, 0x00,
  0x80, 0xff, 0xff, 0xff, 0xff, 0xff, 0xff, 0xff, 0x00, 0x00, 0x00, 0x00,
  0x01, 0x00, 0x00, 0x00, 0xb6, 0x84, 0x07, 0x3e, 0x4c, 0x00, 0x00, 0x00,
  0x73, 0x65, 0x71, 0x75, 0x65, 0x6e, 0x74, 0x69, 0x61, 0x6c, 0x2f, 0x64,
  0x65, 0x6e, 0x73, 0x65, 0x5f, 0x31, 0x2f, 0x4d, 0x61, 0x74, 0x4d, 0x75,
  0x6c, 0x3b, 0x73, 0x65, 0x71, 0x75, 0x65, 0x6e, 0x74, 0x69, 0x61, 0x6c,
  0x2f, 0x64, 0x65, 0x6e, 0x73, 0x65, 0x5f, 0x31, 0x2f, 0x52, 0x65, 0x6c,
  0x75, 0x3b, 0x73, 0x65, 0x71, 0x75, 0x65, 0x6e, 0x74, 0x69, 0x61, 0x6c,
  0x2f, 0x64, 0x65, 0x6e, 0x73, 0x65, 0x5f, 0x31, 0x2f, 0x42, 0x69, 0x61,
  0x73, 0x41, 0x64, 0x64, 0x00, 0x00, 0x00, 0x00, 0x02, 0x00, 0x00, 0x00,
  0x01, 0x00, 0x00, 0x00, 0x0a, 0x00, 0x00, 0x00, 0xd2, 0xfc, 0xff, 0xff,
  0x00, 0x00, 0x00, 0x01, 0x14, 0x00, 0x00, 0x00, 0x34, 0x00, 0x00, 0x00,
  0x08, 0x00, 0x00, 0x00, 0x00, 0x00, 0x00, 0x09, 0x74, 0x00, 0x00, 0x00,
  0xbc, 0xfc, 0xff, 0xff, 0x08, 0x00, 0x00, 0x00, 0x14, 0x00, 0x00, 0x00,
  0x01, 0x00, 0x00, 0x00, 0x80, 0xff, 0xff, 0xff, 0xff, 0xff, 0xff, 0xff,
  0x00, 0x00, 0x00, 0x00, 0x01, 0x00, 0x00, 0x00, 0x21, 0x94, 0xd6, 0x3d,
  0x46, 0x00, 0x00, 0x00, 0x73, 0x65, 0x71, 0x75, 0x65, 0x6e, 0x74, 0x69,
  0x61, 0x6c, 0x2f, 0x64, 0x65, 0x6e, 0x73, 0x65, 0x2f, 0x4d, 0x61, 0x74,
  0x4d, 0x75, 0x6c, 0x3b, 0x73, 0x65, 0x71, 0x75, 0x65, 0x6e, 0x74, 0x69,
  0x61, 0x6c, 0x2f, 0x64, 0x65, 0x6e, 0x73, 0x65, 0x2f, 0x52, 0x65, 0x6c,
  0x75, 0x3b, 0x73, 0x65, 0x71, 0x75, 0x65, 0x6e, 0x74, 0x69, 0x61, 0x6c,
  0x2f, 0x64, 0x65, 0x6e, 0x73, 0x65, 0x2f, 0x42, 0x69, 0x61, 0x73, 0x41,
  0x64, 0x64, 0x00, 0x00, 0x02, 0x00, 0x00, 0x00, 0x01, 0x00, 0x00, 0x00,
  0x14, 0x00, 0x00, 0x00, 0x6a, 0xfd, 0xff, 0xff, 0x00, 0x00, 0x00, 0x01,
  0x14, 0x00, 0x00, 0x00, 0x34, 0x00, 0x00, 0x00, 0x07, 0x00, 0x00, 0x00,
  0x00, 0x00, 0x00, 0x09, 0x44, 0x00, 0x00, 0x00, 0x54, 0xfd, 0xff, 0xff,
  0x08, 0x00, 0x00, 0x00, 0x14, 0x00, 0x00, 0x00, 0x01, 0x00, 0x00, 0x00,
  0x00, 0x00, 0x00, 0x00, 0x00, 0x00, 0x00, 0x00, 0x00, 0x00, 0x00, 0x00,
  0x01, 0x00, 0x00, 0x00, 0x64, 0x64, 0x1c, 0x3b, 0x17, 0x00, 0x00, 0x00,
  0x73, 0x65, 0x71, 0x75, 0x65, 0x6e, 0x74, 0x69, 0x61, 0x6c, 0x2f, 0x64,
  0x65, 0x6e, 0x73, 0x65, 0x2f, 0x4d, 0x61, 0x74, 0x4d, 0x75, 0x6c, 0x00,
  0x02, 0x00, 0x00, 0x00, 0x14, 0x00, 0x00, 0x00, 0x4e, 0x00, 0x00, 0x00,
  0xd2, 0xfd, 0xff, 0xff, 0x00, 0x00, 0x00, 0x01, 0x14, 0x00, 0x00, 0x00,
  0x30, 0x00, 0x00, 0x00, 0x06, 0x00, 0x00, 0x00, 0x00, 0x00, 0x00, 0x02,
  0x50, 0x00, 0x00, 0x00, 0xbc, 0xfd, 0xff, 0xff, 0x08, 0x00, 0x00, 0x00,
  0x10, 0x00, 0x00, 0x00, 0x01, 0x00, 0x00, 0x00, 0x00, 0x00, 0x00, 0x00,
  0x00, 0x00, 0x00, 0x00, 0x01, 0x00, 0x00, 0x00, 0xed, 0xaf, 0x2f, 0x3a,
  0x27, 0x00, 0x00, 0x00, 0x73, 0x65, 0x71, 0x75, 0x65, 0x6e, 0x74, 0x69,
  0x61, 0x6c, 0x2f, 0x64, 0x65, 0x6e, 0x73, 0x65, 0x2f, 0x42, 0x69, 0x61,
  0x73, 0x41, 0x64, 0x64, 0x2f, 0x52, 0x65, 0x61, 0x64, 0x56, 0x61, 0x72,
  0x69, 0x61, 0x62, 0x6c, 0x65, 0x4f, 0x70, 0x00, 0x01, 0x00, 0x00, 0x00,
  0x14, 0x00, 0x00, 0x00, 0x42, 0xfe, 0xff, 0xff, 0x00, 0x00, 0x00, 0x01,
  0x14, 0x00, 0x00, 0x00, 0x30, 0x00, 0x00, 0x00, 0x05, 0x00, 0x00, 0x00,
  0x00, 0x00, 0x00, 0x09, 0x44, 0x00, 0x00, 0x00, 0x2c, 0xfe, 0xff, 0xff,
  0x08, 0x00, 0x00, 0x00, 0x10, 0x00, 0x00, 0x00, 0x01, 0x00, 0x00, 0x00,
  0x00, 0x00, 0x00, 0x00, 0x00, 0x00, 0x00, 0x00, 0x01, 0x00, 0x00, 0x00,
  0xe4, 0xee, 0x81, 0x3b, 0x19, 0x00, 0x00, 0x00, 0x73, 0x65, 0x71, 0x75,
  0x65, 0x6e, 0x74, 0x69, 0x61, 0x6c, 0x2f, 0x64, 0x65, 0x6e, 0x73, 0x65,
  0x5f, 0x31, 0x2f, 0x4d, 0x61, 0x74, 0x4d, 0x75, 0x6c, 0x00, 0x00, 0x00,
  0x02, 0x00, 0x00, 0x00, 0x0a, 0x00, 0x00, 0x00, 0x14, 0x00, 0x00, 0x00,
  0xaa, 0xfe, 0xff, 0xff, 0x00, 0x00, 0x00, 0x01, 0x14, 0x00, 0x00, 0x00,
  0x34, 0x00, 0x00, 0x00, 0x04, 0x00, 0x00, 0x00, 0x00, 0x00, 0x00, 0x02,
  0x58, 0x00, 0x00, 0x00, 0x94, 0xfe, 0xff, 0xff, 0x08, 0x00, 0x00, 0x00,
  0x14, 0x00, 0x00, 0x00, 0x01, 0x00, 0x00, 0x00, 0x00, 0x00, 0x00, 0x00,
  0x00, 0x00, 0x00, 0x00, 0x00, 0x00, 0x00, 0x00, 0x01, 0x00, 0x00, 0x00,
  0xc3, 0xd1, 0xd9, 0x39, 0x29, 0x00, 0x00, 0x00, 0x73, 0x65, 0x71, 0x75,
  0x65, 0x6e, 0x74, 0x69, 0x61, 0x6c, 0x2f, 0x64, 0x65, 0x6e, 0x73, 0x65,
  0x5f, 0x31, 0x2f, 0x42, 0x69, 0x61, 0x73, 0x41, 0x64, 0x64, 0x2f, 0x52,
  0x65, 0x61, 0x64, 0x56, 0x61, 0x72, 0x69, 0x61, 0x62, 0x6c, 0x65, 0x4f,
  0x70, 0x00, 0x00, 0x00, 0x01, 0x00, 0x00, 0x00, 0x0a, 0x00, 0x00, 0x00,
  0x22, 0xff, 0xff, 0xff, 0x00, 0x00, 0x00, 0x01, 0x14, 0x00, 0x00, 0x00,
  0x30, 0x00, 0x00, 0x00, 0x03, 0x00, 0x00, 0x00, 0x00, 0x00, 0x00, 0x09,
  0x44, 0x00, 0x00, 0x00, 0x0c, 0xff, 0xff, 0xff, 0x08, 0x00, 0x00, 0x00,
  0x10, 0x00, 0x00, 0x00, 0x01, 0x00, 0x00, 0x00, 0x00, 0x00, 0x00, 0x00,
  0x00, 0x00, 0x00, 0x00, 0x01, 0x00, 0x00, 0x00, 0x6c, 0xde, 0xb4, 0x3b,
  0x18, 0x00, 0x00, 0x00, 0x73, 0x65, 0x71, 0x75, 0x65, 0x6e, 0x74, 0x69,
  0x61, 0x6c, 0x2f, 0x79, 0x5f, 0x70, 0x72, 0x65, 0x64, 0x2f, 0x4d, 0x61,
  0x74, 0x4d, 0x75, 0x6c, 0x00, 0x00, 0x00, 0x00, 0x02, 0x00, 0x00, 0x00,
  0x03, 0x00, 0x00, 0x00, 0x0a, 0x00, 0x00, 0x00, 0x8a, 0xff, 0xff, 0xff,
  0x00, 0x00, 0x00, 0x01, 0x14, 0x00, 0x00, 0x00, 0x30, 0x00, 0x00, 0x00,
  0x02, 0x00, 0x00, 0x00, 0x00, 0x00, 0x00, 0x02, 0x54, 0x00, 0x00, 0x00,
  0x74, 0xff, 0xff, 0xff, 0x08, 0x00, 0x00, 0x00, 0x10, 0x00, 0x00, 0x00,
  0x01, 0x00, 0x00, 0x00, 0x00, 0x00, 0x00, 0x00, 0x00, 0x00, 0x00, 0x00,
  0x01, 0x00, 0x00, 0x00, 0x1c, 0x7e, 0x3f, 0x3a, 0x28, 0x00, 0x00, 0x00,
  0x73, 0x65, 0x71, 0x75, 0x65, 0x6e, 0x74, 0x69, 0x61, 0x6c, 0x2f, 0x79,
  0x5f, 0x70, 0x72, 0x65, 0x64, 0x2f, 0x42, 0x69, 0x61, 0x73, 0x41, 0x64,
  0x64, 0x2f, 0x52, 0x65, 0x61, 0x64, 0x56, 0x61, 0x72, 0x69, 0x61, 0x62,
  0x6c, 0x65, 0x4f, 0x70, 0x00, 0x00, 0x00, 0x00, 0x01, 0x00, 0x00, 0x00,
  0x03, 0x00, 0x00, 0x00, 0x00, 0x00, 0x16, 0x00, 0x1c, 0x00, 0x18, 0x00,
  0x17, 0x00, 0x10, 0x00, 0x0c, 0x00, 0x08, 0x00, 0x00, 0x00, 0x00, 0x00,
  0x00, 0x00, 0x07, 0x00, 0x16, 0x00, 0x00, 0x00, 0x00, 0x00, 0x00, 0x01,
  0x20, 0x00, 0x00, 0x00, 0x40, 0x00, 0x00, 0x00, 0x01, 0x00, 0x00, 0x00,
  0x00, 0x00, 0x00, 0x09, 0x4c, 0x00, 0x00, 0x00, 0x0c, 0x00, 0x0c, 0x00,
  0x00, 0x00, 0x00, 0x00, 0x08, 0x00, 0x04, 0x00, 0x0c, 0x00, 0x00, 0x00,
  0x08, 0x00, 0x00, 0x00, 0x14, 0x00, 0x00, 0x00, 0x01, 0x00, 0x00, 0x00,
  0xa4, 0xff, 0xff, 0xff, 0xff, 0xff, 0xff, 0xff, 0x00, 0x00, 0x00, 0x00,
  0x01, 0x00, 0x00, 0x00, 0xca, 0xca, 0x8f, 0x3e, 0x13, 0x00, 0x00, 0x00,
  0x73, 0x65, 0x72, 0x76, 0x69, 0x6e, 0x67, 0x5f, 0x64, 0x65, 0x66, 0x61,
  0x75, 0x6c, 0x74, 0x5f, 0x78, 0x3a, 0x30, 0x00, 0x02, 0x00, 0x00, 0x00,
  0x01, 0x00, 0x00, 0x00, 0x4e, 0x00, 0x00, 0x00, 0x02, 0x00, 0x00, 0x00,
  0x24, 0x00, 0x00, 0x00, 0x04, 0x00, 0x00, 0x00, 0xf0, 0xff, 0xff, 0xff,
  0x19, 0x00, 0x00, 0x00, 0x02, 0x00, 0x00, 0x00, 0x00, 0x00, 0x00, 0x19,
  0x0c, 0x00, 0x10, 0x00, 0x0f, 0x00, 0x00, 0x00, 0x08, 0x00, 0x04, 0x00,
  0x0c, 0x00, 0x00, 0x00, 0x09, 0x00, 0x00, 0x00, 0x04, 0x00, 0x00, 0x00,
  0x00, 0x00, 0x00, 0x09
};
unsigned int tflite_learn_5_len = 4288;
#endif // _EI_CLASSIFIER_TFLITE_LEARN_5_H_
