/* Copyright 2019 The TensorFlow Authors. All Rights Reserved.

Licensed under the Apache License, Version 2.0 (the "License");
you may not use this file except in compliance with the License.
You may obtain a copy of the License at

    http://www.apache.org/licenses/LICENSE-2.0

Unless required by applicable law or agreed to in writing, software
distributed under the License is distributed on an "AS IS" BASIS,
WITHOUT WARRANTIES OR CONDITIONS OF ANY KIND, either express or implied.
See the License for the specific language governing permissions and
limitations under the License.
==============================================================================*/

// This is a standard TensorFlow Lite model file that has been converted into a
// C data array, so it can be easily compiled into a binary for devices that
// don't have a file system. It was created using the command:
// xxd -i magic_wand_model.tflite > magic_wand_model_data.cc

#ifndef TENSORFLOW_LITE_MICRO_MODEL_DATA_H_
#define TENSORFLOW_LITE_MICRO_MODEL_DATA_H_

extern const unsigned char g_model_data[] PROGMEM = {
  0x1c, 0x00, 0x00, 0x00, 0x54, 0x46, 0x4c, 0x33, 0x14, 0x00, 0x20, 0x00,
  0x1c, 0x00, 0x18, 0x00, 0x14, 0x00, 0x10, 0x00, 0x0c, 0x00, 0x00, 0x00,
  0x08, 0x00, 0x04, 0x00, 0x14, 0x00, 0x00, 0x00, 0x1c, 0x00, 0x00, 0x00,
  0x90, 0x00, 0x00, 0x00, 0xe8, 0x00, 0x00, 0x00, 0x28, 0x0c, 0x00, 0x00,
  0x38, 0x0c, 0x00, 0x00, 0x0c, 0x18, 0x00, 0x00, 0x03, 0x00, 0x00, 0x00,
  0x01, 0x00, 0x00, 0x00, 0x04, 0x00, 0x00, 0x00, 0x4e, 0xf2, 0xff, 0xff,
  0x0c, 0x00, 0x00, 0x00, 0x1c, 0x00, 0x00, 0x00, 0x3c, 0x00, 0x00, 0x00,
  0x0f, 0x00, 0x00, 0x00, 0x73, 0x65, 0x72, 0x76, 0x69, 0x6e, 0x67, 0x5f,
  0x64, 0x65, 0x66, 0x61, 0x75, 0x6c, 0x74, 0x00, 0x01, 0x00, 0x00, 0x00,
  0x04, 0x00, 0x00, 0x00, 0x8c, 0xff, 0xff, 0xff, 0x14, 0x00, 0x00, 0x00,
  0x04, 0x00, 0x00, 0x00, 0x08, 0x00, 0x00, 0x00, 0x64, 0x65, 0x6e, 0x73,
  0x65, 0x5f, 0x31, 0x30, 0x00, 0x00, 0x00, 0x00, 0x01, 0x00, 0x00, 0x00,
  0x04, 0x00, 0x00, 0x00, 0x56, 0xf2, 0xff, 0xff, 0x04, 0x00, 0x00, 0x00,
  0x10, 0x00, 0x00, 0x00, 0x72, 0x65, 0x73, 0x68, 0x61, 0x70, 0x65, 0x5f,
  0x31, 0x30, 0x5f, 0x69, 0x6e, 0x70, 0x75, 0x74, 0x00, 0x00, 0x00, 0x00,
  0x02, 0x00, 0x00, 0x00, 0x34, 0x00, 0x00, 0x00, 0x04, 0x00, 0x00, 0x00,
  0xdc, 0xff, 0xff, 0xff, 0x17, 0x00, 0x00, 0x00, 0x04, 0x00, 0x00, 0x00,
  0x13, 0x00, 0x00, 0x00, 0x43, 0x4f, 0x4e, 0x56, 0x45, 0x52, 0x53, 0x49,
  0x4f, 0x4e, 0x5f, 0x4d, 0x45, 0x54, 0x41, 0x44, 0x41, 0x54, 0x41, 0x00,
  0x08, 0x00, 0x0c, 0x00, 0x08, 0x00, 0x04, 0x00, 0x08, 0x00, 0x00, 0x00,
  0x16, 0x00, 0x00, 0x00, 0x04, 0x00, 0x00, 0x00, 0x13, 0x00, 0x00, 0x00,
  0x6d, 0x69, 0x6e, 0x5f, 0x72, 0x75, 0x6e, 0x74, 0x69, 0x6d, 0x65, 0x5f,
  0x76, 0x65, 0x72, 0x73, 0x69, 0x6f, 0x6e, 0x00, 0x18, 0x00, 0x00, 0x00,
  0x3c, 0x0b, 0x00, 0x00, 0x34, 0x0b, 0x00, 0x00, 0x0c, 0x0b, 0x00, 0x00,
  0xf0, 0x0a, 0x00, 0x00, 0x20, 0x04, 0x00, 0x00, 0x88, 0x01, 0x00, 0x00,
  0x6c, 0x01, 0x00, 0x00, 0x58, 0x01, 0x00, 0x00, 0x44, 0x01, 0x00, 0x00,
  0x30, 0x01, 0x00, 0x00, 0x1c, 0x01, 0x00, 0x00, 0x04, 0x01, 0x00, 0x00,
  0xd0, 0x00, 0x00, 0x00, 0xc8, 0x00, 0x00, 0x00, 0xc0, 0x00, 0x00, 0x00,
  0xb8, 0x00, 0x00, 0x00, 0xb0, 0x00, 0x00, 0x00, 0xa8, 0x00, 0x00, 0x00,
  0xa0, 0x00, 0x00, 0x00, 0x98, 0x00, 0x00, 0x00, 0x90, 0x00, 0x00, 0x00,
  0x88, 0x00, 0x00, 0x00, 0x68, 0x00, 0x00, 0x00, 0x04, 0x00, 0x00, 0x00,
  0x36, 0xf3, 0xff, 0xff, 0x04, 0x00, 0x00, 0x00, 0x54, 0x00, 0x00, 0x00,
  0x0c, 0x00, 0x00, 0x00, 0x08, 0x00, 0x0e, 0x00, 0x08, 0x00, 0x04, 0x00,
  0x08, 0x00, 0x00, 0x00, 0x10, 0x00, 0x00, 0x00, 0x24, 0x00, 0x00, 0x00,
  0x00, 0x00, 0x06, 0x00, 0x08, 0x00, 0x04, 0x00, 0x06, 0x00, 0x00, 0x00,
  0x04, 0x00, 0x00, 0x00, 0x00, 0x00, 0x00, 0x00, 0x00, 0x00, 0x0a, 0x00,
  0x10, 0x00, 0x0c, 0x00, 0x08, 0x00, 0x04, 0x00, 0x0a, 0x00, 0x00, 0x00,
  0x02, 0x00, 0x00, 0x00, 0x02, 0x00, 0x00, 0x00, 0x04, 0x00, 0x00, 0x00,
  0x06, 0x00, 0x00, 0x00, 0x32, 0x2e, 0x31, 0x35, 0x2e, 0x30, 0x00, 0x00,
  0x96, 0xf3, 0xff, 0xff, 0x04, 0x00, 0x00, 0x00, 0x10, 0x00, 0x00, 0x00,
  0x31, 0x2e, 0x31, 0x31, 0x2e, 0x30, 0x00, 0x00, 0x00, 0x00, 0x00, 0x00,
  0x00, 0x00, 0x00, 0x00, 0xf0, 0xe9, 0xff, 0xff, 0xf4, 0xe9, 0xff, 0xff,
  0xf8, 0xe9, 0xff, 0xff, 0xfc, 0xe9, 0xff, 0xff, 0x00, 0xea, 0xff, 0xff,
  0x04, 0xea, 0xff, 0xff, 0x08, 0xea, 0xff, 0xff, 0x0c, 0xea, 0xff, 0xff,
  0x10, 0xea, 0xff, 0xff, 0xd6, 0xf3, 0xff, 0xff, 0x04, 0x00, 0x00, 0x00,
  0x24, 0x00, 0x00, 0x00, 0x8e, 0xd6, 0x97, 0xbf, 0x2e, 0xc8, 0x21, 0x3d,
  0xe1, 0xcb, 0xd7, 0x3f, 0xef, 0x48, 0x84, 0x3e, 0x58, 0xad, 0xe2, 0x3d,
  0xdb, 0x53, 0x11, 0xc0, 0xe7, 0xe0, 0x94, 0x3f, 0x31, 0x8b, 0xfd, 0xbf,
  0x56, 0x30, 0x2f, 0x3d, 0x06, 0xf4, 0xff, 0xff, 0x04, 0x00, 0x00, 0x00,
  0x08, 0x00, 0x00, 0x00, 0x01, 0x00, 0x00, 0x00, 0x02, 0x00, 0x00, 0x00,
  0x1a, 0xf4, 0xff, 0xff, 0x04, 0x00, 0x00, 0x00, 0x04, 0x00, 0x00, 0x00,
  0x14, 0x00, 0x00, 0x00, 0x2a, 0xf4, 0xff, 0xff, 0x04, 0x00, 0x00, 0x00,
  0x04, 0x00, 0x00, 0x00, 0x08, 0x00, 0x00, 0x00, 0x3a, 0xf4, 0xff, 0xff,
  0x04, 0x00, 0x00, 0x00, 0x04, 0x00, 0x00, 0x00, 0x00, 0x00, 0x00, 0x00,
  0x4a, 0xf4, 0xff, 0xff, 0x04, 0x00, 0x00, 0x00, 0x04, 0x00, 0x00, 0x00,
  0x01, 0x00, 0x00, 0x00, 0x5a, 0xf4, 0xff, 0xff, 0x04, 0x00, 0x00, 0x00,
  0x0c, 0x00, 0x00, 0x00, 0xd3, 0x47, 0xcf, 0xbe, 0x8d, 0xa9, 0x6d, 0x3f,
  0x22, 0xd4, 0xda, 0xbe, 0x72, 0xf4, 0xff, 0xff, 0x04, 0x00, 0x00, 0x00,
  0x88, 0x02, 0x00, 0x00, 0x35, 0x9f, 0x38, 0x3e, 0x57, 0xb8, 0x0f, 0xbe,
  0x10, 0xd1, 0x68, 0xbc, 0xf3, 0x86, 0x9a, 0x3f, 0x90, 0xe2, 0x36, 0xbe,
  0xf2, 0xb1, 0x2d, 0x3f, 0x5f, 0x24, 0x0f, 0x3f, 0x87, 0xdd, 0x84, 0x3e,
  0x0e, 0xef, 0x01, 0x3e, 0x07, 0x09, 0x96, 0x3f, 0xc9, 0xce, 0x2b, 0xbe,
  0xc2, 0x5e, 0x6e, 0x3f, 0xd1, 0x16, 0x0e, 0x3f, 0x9f, 0x73, 0xdb, 0x3d,
  0x95, 0x13, 0x94, 0xbe, 0x4e, 0x7a, 0x8a, 0x3f, 0x61, 0x41, 0xa1, 0xbe,
  0x03, 0x9b, 0x4a, 0x3f, 0x96, 0x24, 0x68, 0x3d, 0x2a, 0x5e, 0x6d, 0xbe,
  0xbf, 0xc3, 0x55, 0xbe, 0xb9, 0x5c, 0x51, 0x3f, 0x59, 0xd3, 0xca, 0xbd,
  0xff, 0xcd, 0x78, 0x3f, 0x43, 0x0b, 0xa7, 0x3e, 0xe2, 0xf2, 0x94, 0x3e,
  0x39, 0x4e, 0xdb, 0xbe, 0x45, 0x41, 0x9f, 0x3f, 0xa2, 0xe8, 0x40, 0x3d,
  0xe6, 0x69, 0x5a, 0x3f, 0xbc, 0xb6, 0x8e, 0x3e, 0xfe, 0x26, 0x04, 0xbe,
  0xeb, 0xb5, 0x17, 0xbe, 0xfa, 0x44, 0x73, 0x3f, 0x3f, 0xb8, 0x98, 0x3e,
  0xb7, 0xc1, 0x48, 0x3f, 0x28, 0x00, 0x6c, 0xbe, 0xcc, 0xcb, 0x8e, 0xbe,
  0xae, 0x2b, 0x36, 0xbe, 0xd1, 0x53, 0x70, 0x3f, 0xc9, 0x1b, 0x0a, 0x3f,
  0x60, 0xee, 0x48, 0x3f, 0x76, 0xbb, 0x97, 0xbe, 0x49, 0x87, 0x07, 0x3e,
  0xda, 0x22, 0x07, 0xbf, 0x7c, 0x55, 0x7c, 0x3f, 0x45, 0x6c, 0xab, 0x3e,
  0x82, 0x20, 0xe9, 0x3e, 0xdb, 0x9f, 0xa2, 0xbb, 0x28, 0xa0, 0x4e, 0xbe,
  0x18, 0xf7, 0x6e, 0xbe, 0x73, 0xea, 0x66, 0x3f, 0xd9, 0x5e, 0x8d, 0x3e,
  0x06, 0x59, 0x78, 0x3e, 0x93, 0xbd, 0x35, 0x3c, 0x90, 0x1b, 0x3c, 0x3f,
  0x3c, 0x20, 0x31, 0x3f, 0x1f, 0xda, 0xbd, 0xbf, 0xa9, 0x6e, 0xbd, 0x3e,
  0x65, 0x32, 0xdf, 0xbe, 0x12, 0xf2, 0x95, 0x3e, 0x05, 0xab, 0xa3, 0x3e,
  0xc2, 0x25, 0x4b, 0x3f, 0x51, 0xba, 0x29, 0xbf, 0xaf, 0x42, 0x2d, 0x3f,
  0xeb, 0x9f, 0xfe, 0xbe, 0xc6, 0x65, 0x14, 0x3e, 0x5e, 0x87, 0xa4, 0x3e,
  0xaa, 0x75, 0x53, 0x3f, 0x0e, 0x75, 0x71, 0xbf, 0x51, 0xb4, 0xd5, 0x3e,
  0xc2, 0x44, 0x46, 0xbf, 0x07, 0x76, 0xc3, 0x3e, 0x94, 0x27, 0x33, 0x3f,
  0xe0, 0x3d, 0xbf, 0x3e, 0x37, 0x33, 0xa1, 0xbf, 0x99, 0x6b, 0x2b, 0x3e,
  0x94, 0x4b, 0xe0, 0xbe, 0xef, 0x29, 0xe4, 0x3e, 0xdc, 0x3a, 0xae, 0x3e,
  0x6a, 0xf4, 0x04, 0x3f, 0x40, 0x39, 0x41, 0xbf, 0x9e, 0x22, 0x75, 0x3c,
  0xeb, 0x10, 0x24, 0xbf, 0x48, 0xdf, 0x88, 0x3d, 0x03, 0x1a, 0x95, 0x3e,
  0x21, 0x3c, 0x7f, 0x3f, 0x14, 0x33, 0x1e, 0xbf, 0x9e, 0x8a, 0xbc, 0x3e,
  0xf6, 0x27, 0xee, 0xbe, 0x6c, 0x29, 0x1f, 0x3f, 0xce, 0xb3, 0x5a, 0x3f,
  0x88, 0x85, 0x1f, 0x3f, 0xcc, 0x3c, 0x60, 0xbf, 0x9a, 0x1e, 0xda, 0xbc,
  0x33, 0xeb, 0x1a, 0xbf, 0x90, 0x73, 0x8e, 0x3e, 0x24, 0xa5, 0xdf, 0x3e,
  0x35, 0x58, 0x8d, 0x3f, 0x71, 0x20, 0x03, 0xbf, 0xe3, 0x83, 0xc5, 0xbc,
  0x6d, 0xda, 0x83, 0xbd, 0x84, 0x60, 0x66, 0x3d, 0x7e, 0xb5, 0x1f, 0x3f,
  0xb7, 0x51, 0x77, 0x3f, 0x5e, 0x2e, 0xe6, 0xbe, 0x95, 0x68, 0x5e, 0x3e,
  0xe3, 0xa6, 0x21, 0xbf, 0x35, 0xfe, 0x63, 0xbe, 0xc6, 0x05, 0x2f, 0x3e,
  0xce, 0x53, 0x9b, 0x3e, 0xf7, 0xef, 0xc1, 0x3e, 0xfc, 0x8c, 0x92, 0x3f,
  0x13, 0x8a, 0x9a, 0xbe, 0xa3, 0x37, 0x3c, 0xbd, 0xec, 0x65, 0x0a, 0x3e,
  0x7e, 0x7d, 0x88, 0x3e, 0x9b, 0xd3, 0x6d, 0xbf, 0xaf, 0x4e, 0x42, 0x3f,
  0xd8, 0x34, 0x41, 0xbf, 0x5c, 0xe3, 0x1b, 0x3f, 0xa4, 0x58, 0xed, 0x3e,
  0x15, 0x6f, 0xe3, 0xbd, 0x0f, 0x74, 0xc5, 0xbf, 0xbb, 0xba, 0x3c, 0x3f,
  0x57, 0x8c, 0xa6, 0x3d, 0x22, 0x48, 0x3c, 0x3d, 0x76, 0xe3, 0x07, 0x3f,
  0xa8, 0x3c, 0x86, 0x3e, 0x3d, 0xb2, 0x1d, 0x3f, 0xc7, 0x49, 0x99, 0x3f,
  0xc1, 0x85, 0xde, 0xbd, 0x47, 0xf6, 0xdb, 0x3c, 0xbc, 0xf2, 0x7a, 0x3e,
  0x9c, 0xf6, 0x09, 0xbe, 0x9d, 0x91, 0x3c, 0xbf, 0xa0, 0x42, 0x18, 0x3f,
  0xbc, 0xac, 0x12, 0xbf, 0x6c, 0x7d, 0xc0, 0x3e, 0x37, 0x84, 0x0a, 0x3f,
  0x68, 0x41, 0xe0, 0xbd, 0x8d, 0x4b, 0x79, 0xbf, 0x68, 0x80, 0x19, 0x3f,
  0x2b, 0xe0, 0x02, 0xbe, 0xed, 0x4f, 0x93, 0xbe, 0xc5, 0xd6, 0x41, 0x3f,
  0xc1, 0x40, 0xb5, 0x3e, 0xed, 0xc8, 0x65, 0x3f, 0x79, 0x78, 0x77, 0x3f,
  0x2f, 0x65, 0xcb, 0xbe, 0xf5, 0x35, 0x9e, 0xbc, 0x86, 0x84, 0x2b, 0x3f,
  0xe2, 0x7f, 0x2e, 0x3e, 0x29, 0x2b, 0x17, 0xbf, 0x47, 0xad, 0x59, 0x3f,
  0xcf, 0xd6, 0x12, 0xbf, 0x7f, 0x98, 0xff, 0x3e, 0x27, 0xae, 0x03, 0x3f,
  0xf0, 0x5e, 0x2a, 0xbd, 0x63, 0x52, 0xdf, 0xbe, 0x50, 0x72, 0x5f, 0x3f,
  0x25, 0xef, 0x9f, 0x3e, 0x06, 0xf7, 0xff, 0xff, 0x04, 0x00, 0x00, 0x00,
  0xc0, 0x06, 0x00, 0x00, 0xc9, 0xcc, 0xea, 0xbe, 0xd7, 0xf7, 0x0a, 0x3e,
  0x1f, 0x81, 0xa3, 0x3d, 0xa3, 0xc5, 0xef, 0xbb, 0xf8, 0x6a, 0x80, 0xbe,
  0x4d, 0x4a, 0x1a, 0xbf, 0x11, 0x0c, 0x79, 0xbf, 0x82, 0xfa, 0x2a, 0xbf,
  0x2b, 0xf5, 0xbf, 0xbd, 0xf0, 0x3a, 0xde, 0x3e, 0xb1, 0x1b, 0xea, 0x3e,
  0xef, 0xd3, 0x9b, 0x3d, 0x7f, 0x44, 0x04, 0xbd, 0x9c, 0xc0, 0x09, 0xbd,
  0x5e, 0x14, 0x20, 0xbd, 0x93, 0x09, 0x0b, 0x3d, 0xbe, 0x0d, 0xa9, 0xbd,
  0xa8, 0x09, 0x55, 0x3e, 0xbc, 0x83, 0xfa, 0x3e, 0xcc, 0x60, 0x94, 0x3f,
  0x03, 0x42, 0x81, 0x3f, 0x7d, 0x24, 0x60, 0x3e, 0x31, 0xe8, 0xd0, 0x3e,
  0x2b, 0xf4, 0x50, 0x3e, 0x75, 0x5f, 0xbc, 0xbe, 0x96, 0xb0, 0xfa, 0x3d,
  0xf3, 0xef, 0x2f, 0x3e, 0x0e, 0xcc, 0x7d, 0x3e, 0x3c, 0xd3, 0x34, 0x3e,
  0x8a, 0x70, 0xf4, 0xbe, 0xbc, 0xac, 0x6c, 0xbf, 0x90, 0xd4, 0x2e, 0xbf,
  0xd8, 0xdd, 0x96, 0xba, 0x12, 0x38, 0xf6, 0x3e, 0x36, 0x84, 0x86, 0x3e,
  0xf4, 0x68, 0xa2, 0x3c, 0x89, 0xd5, 0x74, 0x3c, 0x59, 0x47, 0x83, 0xbe,
  0x69, 0x76, 0xc9, 0xbb, 0x52, 0xb7, 0x77, 0x3e, 0x41, 0x1f, 0x41, 0xbd,
  0xc5, 0x6c, 0x94, 0xbd, 0x06, 0x41, 0x0b, 0x3f, 0x3d, 0x3d, 0x82, 0x3f,
  0xf7, 0x29, 0x85, 0x3f, 0x10, 0x1b, 0xc9, 0x3d, 0x29, 0xf3, 0x1a, 0xbc,
  0x81, 0x18, 0x64, 0x3e, 0xf5, 0x14, 0x84, 0xbe, 0x48, 0x17, 0xd3, 0x3d,
  0x71, 0x5d, 0x99, 0x3d, 0x57, 0xcf, 0xad, 0x3e, 0x28, 0x47, 0x69, 0x3e,
  0xf2, 0xcf, 0x0a, 0xbf, 0xe8, 0x7f, 0x81, 0xbf, 0x99, 0x92, 0x41, 0xbf,
  0xf7, 0x37, 0x0a, 0x3f, 0x04, 0x66, 0xb2, 0x3e, 0xfd, 0x2c, 0x44, 0x3f,
  0x39, 0xfb, 0x2c, 0x3f, 0x04, 0x8c, 0x92, 0x3e, 0xe7, 0x92, 0x2c, 0xbe,
  0xad, 0x15, 0x45, 0x3e, 0x03, 0x90, 0x1e, 0x3e, 0x2f, 0x12, 0x86, 0xbb,
  0xe1, 0x21, 0xc9, 0x3d, 0xfc, 0x92, 0x86, 0x3f, 0x48, 0x1f, 0xa3, 0x3f,
  0x9d, 0x8b, 0x8c, 0x3f, 0x04, 0x84, 0xf1, 0x3e, 0x92, 0xdb, 0x71, 0x3e,
  0xda, 0x9d, 0xf3, 0x3e, 0xaf, 0x46, 0x02, 0x3f, 0xfa, 0xe6, 0x0f, 0x3e,
  0x82, 0xfe, 0xc2, 0x3e, 0x2d, 0x51, 0x4e, 0x3e, 0x21, 0x28, 0x78, 0x3e,
  0x84, 0x1c, 0x23, 0x3d, 0x94, 0xa6, 0xb6, 0x3e, 0xf1, 0xe0, 0x56, 0x3c,
  0xe1, 0xc7, 0xb4, 0x3e, 0xc6, 0x5c, 0x3b, 0x3e, 0x00, 0x81, 0xac, 0x3d,
  0x73, 0x5e, 0xb0, 0xbd, 0x08, 0x21, 0x08, 0xbe, 0x9a, 0xe7, 0x13, 0x3d,
  0xaa, 0xef, 0x0d, 0xbb, 0x46, 0xe2, 0xf1, 0xbd, 0xc6, 0x2b, 0xbb, 0x3e,
  0xf0, 0x45, 0x1f, 0x3e, 0x14, 0x03, 0xc4, 0x3d, 0x06, 0x28, 0x81, 0x3e,
  0x92, 0x6c, 0x54, 0xbd, 0x74, 0x3a, 0xec, 0x3d, 0x2f, 0x97, 0xa9, 0x3e,
  0x75, 0xc1, 0x97, 0xbe, 0xfc, 0x3c, 0xee, 0x3e, 0x81, 0xdb, 0xbd, 0xbd,
  0xb8, 0xce, 0xc0, 0x3c, 0xc9, 0x38, 0xd6, 0xbd, 0xee, 0x7b, 0x93, 0x3c,
  0xd7, 0x9c, 0xc8, 0xbe, 0xa5, 0x26, 0xb4, 0x3d, 0x37, 0xff, 0x19, 0xbf,
  0xea, 0xa1, 0xac, 0x3e, 0x0b, 0x8c, 0x3b, 0x3d, 0x30, 0x79, 0x44, 0xbd,
  0x4e, 0xde, 0xc8, 0xbe, 0xe1, 0x26, 0xe3, 0xbe, 0x2c, 0x79, 0x02, 0xbe,
  0xb7, 0x50, 0x48, 0xbd, 0xc7, 0x16, 0xc6, 0xbd, 0xcd, 0x4c, 0x19, 0x3f,
  0x32, 0x26, 0x3b, 0x3e, 0x03, 0xbf, 0x6d, 0x3d, 0x4e, 0x14, 0x22, 0xbe,
  0x84, 0x12, 0x02, 0xbf, 0xfa, 0x12, 0x02, 0x3d, 0x2d, 0x32, 0x87, 0x3d,
  0xf2, 0x6b, 0x68, 0xbe, 0x49, 0x48, 0xa8, 0x3e, 0x91, 0xb8, 0x11, 0x3e,
  0xd2, 0xc2, 0x5e, 0xbe, 0x35, 0xe8, 0x7a, 0xbe, 0x98, 0x08, 0x97, 0xbe,
  0x1c, 0xfc, 0xef, 0xbe, 0xc9, 0x92, 0x04, 0xbe, 0xef, 0x39, 0x96, 0xbe,
  0x50, 0x94, 0xa3, 0x3e, 0x99, 0x70, 0xb4, 0xbd, 0xad, 0x80, 0x6c, 0xbd,
  0xef, 0xe6, 0xb1, 0xbe, 0x27, 0xbe, 0xa9, 0xbe, 0x57, 0x4e, 0x0d, 0xbf,
  0x4d, 0x84, 0xc3, 0xbe, 0x9e, 0xf3, 0x67, 0xbe, 0xce, 0x4a, 0xcd, 0x3e,
  0x40, 0x42, 0xf1, 0xbb, 0xce, 0x18, 0x1d, 0x3e, 0x86, 0x73, 0xfa, 0xbe,
  0x90, 0xf5, 0xbe, 0xbd, 0x38, 0xe7, 0x20, 0xbe, 0x94, 0x3a, 0xc2, 0x3d,
  0x7f, 0x9f, 0xb3, 0xbc, 0xa1, 0xbb, 0xcd, 0x3d, 0x18, 0xa8, 0x50, 0x3d,
  0xf1, 0xe7, 0x58, 0x3e, 0xdd, 0xbc, 0x71, 0x3e, 0xa6, 0x54, 0xae, 0x3e,
  0xae, 0x70, 0xcf, 0x3e, 0x1d, 0x52, 0x77, 0x3e, 0x25, 0x0c, 0x8e, 0xbe,
  0x87, 0xe3, 0xb3, 0x3d, 0x57, 0x33, 0xc8, 0x3a, 0x4b, 0x08, 0xd1, 0x3d,
  0x19, 0x51, 0x03, 0x3f, 0x71, 0xaa, 0x90, 0x3e, 0xa0, 0x9f, 0xb0, 0x3d,
  0xdd, 0xec, 0x5d, 0x3e, 0x46, 0x74, 0x8c, 0xbe, 0x60, 0x99, 0x34, 0xbe,
  0x3f, 0x76, 0xbc, 0xbc, 0x3d, 0x63, 0x01, 0x3e, 0x02, 0x11, 0xe4, 0x3d,
  0xfa, 0x30, 0x1a, 0xbd, 0xcf, 0x68, 0x5a, 0xbe, 0x27, 0xe4, 0x38, 0xbd,
  0xbb, 0x88, 0x1a, 0xbf, 0x8c, 0x99, 0x3d, 0x3d, 0xaf, 0x07, 0x34, 0xbc,
  0xc7, 0x0a, 0xa9, 0xbd, 0x00, 0xd2, 0x29, 0x3e, 0x7c, 0xe6, 0xd6, 0x3d,
  0xcf, 0x6b, 0x5f, 0x3e, 0x90, 0xf2, 0x24, 0x3a, 0xc8, 0xc9, 0xe7, 0xbe,
  0x6f, 0x19, 0x58, 0x3e, 0x1e, 0x4d, 0x3a, 0xbe, 0xc1, 0xf4, 0x8e, 0xba,
  0x67, 0xb1, 0x9e, 0x3e, 0x2b, 0xa4, 0xbc, 0x3d, 0x92, 0x9a, 0xb1, 0x3e,
  0x3e, 0x15, 0x34, 0x3e, 0xa4, 0xe3, 0x1c, 0xbf, 0xcc, 0xb9, 0x04, 0x3e,
  0x4e, 0x50, 0x09, 0xbe, 0x09, 0x87, 0x1f, 0xbd, 0x8c, 0xc3, 0x1c, 0xbe,
  0x51, 0x10, 0x21, 0x3e, 0xf8, 0x55, 0xfc, 0xbc, 0x12, 0x69, 0x1f, 0xbe,
  0x0f, 0xfd, 0x38, 0xbf, 0x44, 0xe2, 0xb8, 0x3e, 0xd6, 0xaf, 0x95, 0x3e,
  0x9f, 0xa1, 0x15, 0xbc, 0x0c, 0x9b, 0x9d, 0x3b, 0x6a, 0xa4, 0x48, 0x3e,
  0x8c, 0x1f, 0x32, 0xbe, 0x48, 0x18, 0x77, 0xbe, 0xda, 0x03, 0xf7, 0xbe,
  0xdb, 0xcd, 0x98, 0x3e, 0x35, 0x63, 0x88, 0xbc, 0xfd, 0x88, 0x15, 0xbe,
  0xbe, 0xd0, 0x4c, 0x3e, 0xaf, 0x78, 0x60, 0x3d, 0x1a, 0x89, 0x32, 0x3e,
  0x10, 0x62, 0x7e, 0xbe, 0x17, 0xf0, 0xd2, 0xbe, 0xeb, 0x9b, 0xa7, 0x3c,
  0x93, 0xc3, 0xe4, 0xbb, 0x1e, 0xa5, 0x6a, 0xbd, 0x1f, 0xda, 0xf6, 0xbd,
  0x14, 0x23, 0xcc, 0x3c, 0x36, 0xa1, 0xe8, 0xbe, 0xf7, 0x18, 0xf2, 0xbe,
  0xbf, 0x45, 0x4d, 0xbf, 0x6d, 0x69, 0xa1, 0xbe, 0x71, 0xfe, 0x83, 0xbe,
  0xee, 0xb0, 0xbd, 0x3e, 0xac, 0xb4, 0x6f, 0x3e, 0x0f, 0xa2, 0x36, 0x3f,
  0x6c, 0x05, 0x8b, 0x3f, 0xe3, 0x7b, 0xeb, 0x3e, 0x75, 0x74, 0xdc, 0x3e,
  0x4d, 0xc8, 0x13, 0xbf, 0xc1, 0xb0, 0x43, 0xbe, 0xeb, 0xed, 0x57, 0xbf,
  0xe8, 0x71, 0xa2, 0x3e, 0xe4, 0xca, 0x6b, 0xbf, 0x8e, 0xe7, 0xb9, 0xbd,
  0xb6, 0xb0, 0x3d, 0x3e, 0xb3, 0x41, 0x4c, 0xbd, 0xa1, 0x06, 0x0a, 0xbf,
  0x61, 0xcd, 0x87, 0xbe, 0x46, 0xcc, 0x07, 0xbf, 0xb2, 0x8b, 0x70, 0xbf,
  0xcd, 0x04, 0x63, 0xbe, 0x83, 0x8f, 0xdf, 0x3e, 0xec, 0xb7, 0xb0, 0x3e,
  0x18, 0x71, 0xb7, 0x3d, 0x4c, 0xa9, 0x6f, 0x3e, 0xbf, 0x6c, 0xd6, 0xbd,
  0xb8, 0x53, 0x14, 0x3e, 0x2f, 0x33, 0xd9, 0xbe, 0x0a, 0x30, 0x04, 0x3f,
  0xc1, 0x6c, 0x2a, 0x3e, 0xf9, 0x35, 0x16, 0xbe, 0xf7, 0x83, 0xae, 0x3e,
  0x45, 0xc9, 0x30, 0x3f, 0xe6, 0x86, 0x10, 0x3e, 0xeb, 0xef, 0x67, 0xbd,
  0xa9, 0xfc, 0xac, 0xbe, 0x98, 0x9f, 0xd4, 0xbe, 0xea, 0xf8, 0xd4, 0xbf,
  0x78, 0xa4, 0x81, 0xbf, 0x1d, 0x79, 0xe2, 0xbe, 0x53, 0x88, 0x3b, 0x3f,
  0x82, 0xfb, 0x8c, 0x3e, 0x67, 0x61, 0x56, 0xbe, 0x89, 0xfc, 0x26, 0xbf,
  0xa6, 0xd5, 0x95, 0xbf, 0x2d, 0xb3, 0xa7, 0xbf, 0xfe, 0xcd, 0x2f, 0xbf,
  0x9a, 0x16, 0xbd, 0xbe, 0x8c, 0xf6, 0xcf, 0x3e, 0x97, 0x7b, 0xa3, 0x3e,
  0x52, 0xde, 0x7c, 0x3e, 0x78, 0x0d, 0x33, 0x3e, 0x8a, 0x50, 0x97, 0x3e,
  0x02, 0x54, 0x81, 0xbd, 0x57, 0xb2, 0xa6, 0x3e, 0xa9, 0xd8, 0xd5, 0x3c,
  0x26, 0xc0, 0x89, 0x3e, 0x77, 0x6d, 0xb5, 0x3e, 0x96, 0xe0, 0x69, 0x3e,
  0x89, 0x42, 0xcb, 0x3e, 0x70, 0x0d, 0xb9, 0x3e, 0x9a, 0xe2, 0xca, 0xbc,
  0x08, 0x5b, 0x8c, 0xbe, 0x3f, 0x84, 0xfe, 0xbe, 0x33, 0xec, 0xc4, 0x3e,
  0xee, 0x37, 0x5e, 0x3e, 0x87, 0xc1, 0xba, 0x3e, 0x82, 0xa8, 0xaa, 0x3e,
  0x7e, 0x8f, 0x21, 0x3e, 0x47, 0x6c, 0x10, 0x3f, 0xc8, 0x96, 0xaf, 0x3d,
  0x0d, 0x55, 0xdc, 0xbe, 0x4d, 0xcd, 0xdb, 0xbe, 0xb8, 0xbb, 0xef, 0xbe,
  0xe1, 0xcc, 0x86, 0xbe, 0x51, 0xc2, 0x04, 0xbf, 0xa4, 0xa1, 0x7f, 0x3d,
  0x92, 0x3c, 0x62, 0x3e, 0xb5, 0x7d, 0x8b, 0x3e, 0x32, 0x50, 0x8e, 0x3d,
  0x5e, 0x90, 0x8a, 0xbe, 0x90, 0x26, 0x93, 0xbd, 0x10, 0x8f, 0xea, 0xbe,
  0x28, 0x85, 0x2f, 0xbf, 0x3d, 0x33, 0x38, 0xbd, 0xe7, 0x8c, 0xa4, 0xbe,
  0xff, 0x9c, 0xfc, 0xbd, 0x07, 0x33, 0x19, 0x3d, 0xe0, 0xd3, 0xc8, 0xbe,
  0xb8, 0x8b, 0x3c, 0x3d, 0x3d, 0x99, 0x9d, 0xbe, 0xff, 0xd3, 0x9b, 0xbe,
  0xa6, 0xba, 0x05, 0xbb, 0x1d, 0x16, 0x05, 0xbe, 0x48, 0xd0, 0x73, 0x3d,
  0x83, 0xa5, 0xb7, 0x3e, 0x65, 0x7e, 0x3c, 0xbe, 0xc5, 0x7d, 0x43, 0x3d,
  0xa9, 0x00, 0xeb, 0xbd, 0xbf, 0x32, 0xb4, 0x3d, 0xfd, 0x63, 0x17, 0x3e,
  0xcd, 0xb4, 0x90, 0x3e, 0x5d, 0x52, 0xfc, 0x3e, 0xd4, 0x63, 0x14, 0x3f,
  0xc8, 0xde, 0x85, 0xbe, 0xbf, 0x74, 0x11, 0xbf, 0xb6, 0x6f, 0xab, 0xbe,
  0x49, 0xc4, 0xb7, 0xbd, 0x3e, 0x77, 0xba, 0x3b, 0x3e, 0xa3, 0x3b, 0xbe,
  0x71, 0x91, 0xe5, 0x3d, 0x86, 0xd2, 0xa9, 0x3e, 0x6c, 0x4b, 0x94, 0xbf,
  0x8a, 0x44, 0x12, 0xbe, 0xa0, 0x06, 0x31, 0xbe, 0x32, 0x25, 0x85, 0xbd,
  0x79, 0xa7, 0x25, 0x3e, 0xb2, 0x37, 0x5d, 0x3d, 0x49, 0xa5, 0x77, 0x3d,
  0x7b, 0x61, 0x17, 0x3f, 0x77, 0x1f, 0xd0, 0xbd, 0xe4, 0x98, 0x00, 0x3e,
  0x33, 0xdb, 0x1c, 0xbe, 0x40, 0x40, 0x5f, 0xbe, 0x48, 0x50, 0x63, 0x3e,
  0x14, 0xd3, 0x1f, 0x3f, 0xc1, 0x36, 0xca, 0x3e, 0x85, 0x75, 0x0f, 0x3f,
  0x13, 0xd3, 0x04, 0xbe, 0xe6, 0x11, 0x73, 0x3e, 0x28, 0xe0, 0x1c, 0xbe,
  0xc5, 0xe0, 0x16, 0xbd, 0x90, 0x27, 0x3b, 0x3e, 0xa8, 0x26, 0xa2, 0x3e,
  0xb6, 0x5f, 0xc1, 0xbd, 0xcb, 0x23, 0xea, 0x3e, 0xfb, 0x7c, 0xfe, 0xbe,
  0xc2, 0xab, 0xb1, 0x3e, 0xfa, 0x6d, 0x82, 0xbe, 0x9e, 0x3b, 0x12, 0x3e,
  0x83, 0x12, 0xb5, 0x3d, 0x20, 0x37, 0x93, 0xbd, 0x80, 0xae, 0x91, 0x3d,
  0x89, 0xb5, 0x0c, 0x3f, 0x24, 0x90, 0xa3, 0x3d, 0x6e, 0x50, 0x35, 0x3e,
  0xe4, 0x42, 0x5c, 0x3d, 0x38, 0x95, 0x6b, 0x3d, 0xb4, 0xd9, 0x5d, 0x3d,
  0xfe, 0x87, 0x1f, 0x3d, 0x2d, 0x60, 0xb2, 0xbb, 0x2d, 0xe4, 0xb6, 0xbd,
  0xff, 0x58, 0x65, 0x3e, 0x2d, 0x0b, 0xbf, 0x3d, 0x98, 0xdb, 0x8f, 0x3e,
  0x94, 0xe6, 0xa6, 0xbc, 0x80, 0xd2, 0x82, 0x3d, 0x58, 0x1e, 0xa1, 0xbe,
  0x81, 0xc1, 0x81, 0xbe, 0xc5, 0x2a, 0x25, 0xbe, 0x3b, 0x4f, 0xbd, 0x3e,
  0x5e, 0xa6, 0xd1, 0xbc, 0x65, 0xb6, 0x1c, 0x3e, 0x1f, 0xe9, 0x96, 0x3e,
  0xf8, 0x86, 0x05, 0xbe, 0x70, 0x7b, 0xf1, 0xbe, 0x5b, 0xac, 0xf4, 0xbe,
  0x23, 0x4c, 0x87, 0xbe, 0x8d, 0xf7, 0xa1, 0xbe, 0x4f, 0xc8, 0x9a, 0x3d,
  0x7f, 0x27, 0xdb, 0xbd, 0xec, 0xae, 0xad, 0x3d, 0xa3, 0xa9, 0x0a, 0xbe,
  0x9f, 0xc4, 0x1c, 0x3e, 0xec, 0xa6, 0x00, 0x3e, 0x9b, 0xa9, 0x94, 0x3e,
  0x89, 0x40, 0x9a, 0xbe, 0xf1, 0x4a, 0xd7, 0xbd, 0xf2, 0x28, 0xd8, 0xbb,
  0x1b, 0x3a, 0x8e, 0x3e, 0xb4, 0x9f, 0x44, 0x3e, 0x10, 0x67, 0x1f, 0x3e,
  0xa6, 0x23, 0x4c, 0x3e, 0xd8, 0x04, 0x6f, 0x3d, 0xeb, 0xeb, 0xa4, 0x3e,
  0x8d, 0x47, 0xae, 0x3e, 0x4a, 0xe7, 0x96, 0x3e, 0xf9, 0x69, 0xe9, 0x3e,
  0xa6, 0xcc, 0x8c, 0x3d, 0xe5, 0x35, 0xc1, 0x3e, 0x9e, 0x3e, 0x3b, 0x3e,
  0x64, 0x48, 0xfd, 0xbc, 0x88, 0x80, 0xf2, 0xbe, 0x60, 0xf5, 0x16, 0xbf,
  0xd4, 0x6d, 0x72, 0xbe, 0xb6, 0x43, 0xf1, 0xbd, 0xe6, 0xd9, 0xeb, 0xbe,
  0x77, 0x26, 0xd6, 0xbc, 0xad, 0x87, 0xb0, 0x3d, 0xd7, 0xda, 0x93, 0x3e,
  0xf3, 0xff, 0x0b, 0xbf, 0xa9, 0x5f, 0x06, 0xbf, 0xee, 0x8c, 0xaf, 0xbe,
  0xd0, 0xca, 0x25, 0xbe, 0x91, 0x34, 0xd1, 0x3d, 0x45, 0x20, 0x00, 0x3e,
  0x60, 0x76, 0xcc, 0x3e, 0x40, 0xfb, 0x06, 0x3e, 0x3a, 0xb6, 0xf1, 0xbe,
  0xcb, 0x5d, 0xf6, 0xbc, 0x15, 0xdf, 0xd0, 0xbe, 0x49, 0x64, 0xab, 0x3e,
  0x47, 0x39, 0xe3, 0xbb, 0x66, 0x32, 0xc9, 0x3e, 0xec, 0xf0, 0xad, 0x3d,
  0x0e, 0xa8, 0x79, 0x3e, 0xd2, 0xfd, 0xff, 0xff, 0x04, 0x00, 0x00, 0x00,
  0x0c, 0x00, 0x00, 0x00, 0x74, 0xbb, 0x74, 0x3e, 0xd6, 0x16, 0xee, 0x3e,
  0xcb, 0x9f, 0x3b, 0xbe, 0xea, 0xfd, 0xff, 0xff, 0x04, 0x00, 0x00, 0x00,
  0x18, 0x00, 0x00, 0x00, 0x98, 0xf9, 0x7c, 0x3f, 0x77, 0x79, 0x63, 0x3e,
  0xc7, 0x76, 0xaa, 0x3e, 0x8a, 0xee, 0x8f, 0x3d, 0x35, 0x33, 0xab, 0x3d,
  0xcb, 0x46, 0x0c, 0xbb, 0x4c, 0xf4, 0xff, 0xff, 0x50, 0xf4, 0xff, 0xff,
  0x0f, 0x00, 0x00, 0x00, 0x4d, 0x4c, 0x49, 0x52, 0x20, 0x43, 0x6f, 0x6e,
  0x76, 0x65, 0x72, 0x74, 0x65, 0x64, 0x2e, 0x00, 0x01, 0x00, 0x00, 0x00,
  0x14, 0x00, 0x00, 0x00, 0x00, 0x00, 0x0e, 0x00, 0x18, 0x00, 0x14, 0x00,
  0x10, 0x00, 0x0c, 0x00, 0x08, 0x00, 0x04, 0x00, 0x0e, 0x00, 0x00, 0x00,
  0x14, 0x00, 0x00, 0x00, 0x1c, 0x00, 0x00, 0x00, 0x7c, 0x02, 0x00, 0x00,
  0x80, 0x02, 0x00, 0x00, 0x84, 0x02, 0x00, 0x00, 0x04, 0x00, 0x00, 0x00,
  0x6d, 0x61, 0x69, 0x6e, 0x00, 0x00, 0x00, 0x00, 0x09, 0x00, 0x00, 0x00,
  0x2c, 0x02, 0x00, 0x00, 0xcc, 0x01, 0x00, 0x00, 0x74, 0x01, 0x00, 0x00,
  0x4c, 0x01, 0x00, 0x00, 0xec, 0x00, 0x00, 0x00, 0xa4, 0x00, 0x00, 0x00,
  0x70, 0x00, 0x00, 0x00, 0x38, 0x00, 0x00, 0x00, 0x04, 0x00, 0x00, 0x00,
  0x62, 0xfe, 0xff, 0xff, 0x14, 0x00, 0x00, 0x00, 0x00, 0x00, 0x00, 0x09,
  0x14, 0x00, 0x00, 0x00, 0x18, 0x00, 0x00, 0x00, 0x07, 0x00, 0x00, 0x00,
  0xa6, 0xfe, 0xff, 0xff, 0x00, 0x00, 0x80, 0x3f, 0x01, 0x00, 0x00, 0x00,
  0x14, 0x00, 0x00, 0x00, 0x01, 0x00, 0x00, 0x00, 0x13, 0x00, 0x00, 0x00,
  0x92, 0xfe, 0xff, 0xff, 0x14, 0x00, 0x00, 0x00, 0x00, 0x00, 0x00, 0x08,
  0x10, 0x00, 0x00, 0x00, 0x14, 0x00, 0x00, 0x00, 0x06, 0x00, 0x00, 0x00,
  0x14, 0xf5, 0xff, 0xff, 0x01, 0x00, 0x00, 0x00, 0x13, 0x00, 0x00, 0x00,
  0x03, 0x00, 0x00, 0x00, 0x12, 0x00, 0x00, 0x00, 0x0b, 0x00, 0x00, 0x00,
  0x05, 0x00, 0x00, 0x00, 0xc6, 0xfe, 0xff, 0xff, 0x14, 0x00, 0x00, 0x00,
  0x00, 0x00, 0x00, 0x1b, 0x10, 0x00, 0x00, 0x00, 0x14, 0x00, 0x00, 0x00,
  0x05, 0x00, 0x00, 0x00, 0x48, 0xf5, 0xff, 0xff, 0x01, 0x00, 0x00, 0x00,
  0x12, 0x00, 0x00, 0x00, 0x02, 0x00, 0x00, 0x00, 0x11, 0x00, 0x00, 0x00,
  0x0a, 0x00, 0x00, 0x00, 0xf6, 0xfe, 0xff, 0xff, 0x14, 0x00, 0x00, 0x00,
  0x00, 0x00, 0x00, 0x01, 0x20, 0x00, 0x00, 0x00, 0x24, 0x00, 0x00, 0x00,
  0x04, 0x00, 0x00, 0x00, 0xbc, 0xff, 0xff, 0xff, 0x00, 0x00, 0x00, 0x01,
  0x01, 0x00, 0x00, 0x00, 0x01, 0x00, 0x00, 0x00, 0x00, 0x00, 0x00, 0x01,
  0x01, 0x00, 0x00, 0x00, 0x11, 0x00, 0x00, 0x00, 0x03, 0x00, 0x00, 0x00,
  0x10, 0x00, 0x00, 0x00, 0x04, 0x00, 0x00, 0x00, 0x02, 0x00, 0x00, 0x00,
  0x3a, 0xff, 0xff, 0xff, 0x20, 0x00, 0x00, 0x00, 0x00, 0x00, 0x00, 0x01,
  0x2c, 0x00, 0x00, 0x00, 0x30, 0x00, 0x00, 0x00, 0x04, 0x00, 0x00, 0x00,
  0x0c, 0x00, 0x14, 0x00, 0x13, 0x00, 0x0c, 0x00, 0x08, 0x00, 0x07, 0x00,
  0x0c, 0x00, 0x00, 0x00, 0x00, 0x00, 0x00, 0x01, 0x01, 0x00, 0x00, 0x00,
  0x01, 0x00, 0x00, 0x00, 0x00, 0x00, 0x00, 0x01, 0x01, 0x00, 0x00, 0x00,
  0x10, 0x00, 0x00, 0x00, 0x03, 0x00, 0x00, 0x00, 0x0f, 0x00, 0x00, 0x00,
  0x03, 0x00, 0x00, 0x00, 0x01, 0x00, 0x00, 0x00, 0x00, 0x00, 0x0a, 0x00,
  0x10, 0x00, 0x0c, 0x00, 0x08, 0x00, 0x04, 0x00, 0x0a, 0x00, 0x00, 0x00,
  0x0c, 0x00, 0x00, 0x00, 0x10, 0x00, 0x00, 0x00, 0x03, 0x00, 0x00, 0x00,
  0x01, 0x00, 0x00, 0x00, 0x0f, 0x00, 0x00, 0x00, 0x02, 0x00, 0x00, 0x00,
  0x00, 0x00, 0x00, 0x00, 0x0e, 0x00, 0x00, 0x00, 0xba, 0xff, 0xff, 0xff,
  0x1c, 0x00, 0x00, 0x00, 0x00, 0x00, 0x00, 0x3b, 0x1c, 0x00, 0x00, 0x00,
  0x20, 0x00, 0x00, 0x00, 0x02, 0x00, 0x00, 0x00, 0x00, 0x00, 0x06, 0x00,
  0x08, 0x00, 0x04, 0x00, 0x06, 0x00, 0x00, 0x00, 0x04, 0x00, 0x00, 0x00,
  0x01, 0x00, 0x00, 0x00, 0x0e, 0x00, 0x00, 0x00, 0x04, 0x00, 0x00, 0x00,
  0x0d, 0x00, 0x00, 0x00, 0x09, 0x00, 0x00, 0x00, 0x08, 0x00, 0x00, 0x00,
  0x08, 0x00, 0x00, 0x00, 0x00, 0x00, 0x0e, 0x00, 0x1a, 0x00, 0x14, 0x00,
  0x10, 0x00, 0x0c, 0x00, 0x0b, 0x00, 0x04, 0x00, 0x0e, 0x00, 0x00, 0x00,
  0x24, 0x00, 0x00, 0x00, 0x00, 0x00, 0x00, 0x20, 0x24, 0x00, 0x00, 0x00,
  0x28, 0x00, 0x00, 0x00, 0x01, 0x00, 0x00, 0x00, 0x00, 0x00, 0x0e, 0x00,
  0x08, 0x00, 0x00, 0x00, 0x00, 0x00, 0x00, 0x00, 0x00, 0x00, 0x04, 0x00,
  0x0e, 0x00, 0x00, 0x00, 0x01, 0x00, 0x00, 0x00, 0x01, 0x00, 0x00, 0x00,
  0x0d, 0x00, 0x00, 0x00, 0x04, 0x00, 0x00, 0x00, 0x0c, 0x00, 0x00, 0x00,
  0x07, 0x00, 0x00, 0x00, 0x06, 0x00, 0x00, 0x00, 0x06, 0x00, 0x00, 0x00,
  0x00, 0x00, 0x0e, 0x00, 0x16, 0x00, 0x00, 0x00, 0x10, 0x00, 0x0c, 0x00,
  0x0b, 0x00, 0x04, 0x00, 0x0e, 0x00, 0x00, 0x00, 0x18, 0x00, 0x00, 0x00,
  0x00, 0x00, 0x00, 0x37, 0x18, 0x00, 0x00, 0x00, 0x1c, 0x00, 0x00, 0x00,
  0x00, 0x00, 0x06, 0x00, 0x08, 0x00, 0x07, 0x00, 0x06, 0x00, 0x00, 0x00,
  0x00, 0x00, 0x00, 0x02, 0x01, 0x00, 0x00, 0x00, 0x0c, 0x00, 0x00, 0x00,
  0x01, 0x00, 0x00, 0x00, 0x00, 0x00, 0x00, 0x00, 0x01, 0x00, 0x00, 0x00,
  0x14, 0x00, 0x00, 0x00, 0x01, 0x00, 0x00, 0x00, 0x00, 0x00, 0x00, 0x00,
  0x15, 0x00, 0x00, 0x00, 0xb8, 0x08, 0x00, 0x00, 0x44, 0x08, 0x00, 0x00,
  0xd0, 0x07, 0x00, 0x00, 0x78, 0x07, 0x00, 0x00, 0x20, 0x07, 0x00, 0x00,
  0xc4, 0x06, 0x00, 0x00, 0x64, 0x06, 0x00, 0x00, 0xec, 0x05, 0x00, 0x00,
  0x94, 0x05, 0x00, 0x00, 0x3c, 0x05, 0x00, 0x00, 0xc8, 0x04, 0x00, 0x00,
  0x78, 0x04, 0x00, 0x00, 0x28, 0x04, 0x00, 0x00, 0xd4, 0x03, 0x00, 0x00,
  0x7c, 0x03, 0x00, 0x00, 0x08, 0x03, 0x00, 0x00, 0x2c, 0x02, 0x00, 0x00,
  0x50, 0x01, 0x00, 0x00, 0xe0, 0x00, 0x00, 0x00, 0x60, 0x00, 0x00, 0x00,
  0x04, 0x00, 0x00, 0x00, 0xb2, 0xf7, 0xff, 0xff, 0x00, 0x00, 0x00, 0x01,
  0x14, 0x00, 0x00, 0x00, 0x1c, 0x00, 0x00, 0x00, 0x1c, 0x00, 0x00, 0x00,
  0x15, 0x00, 0x00, 0x00, 0x34, 0x00, 0x00, 0x00, 0x02, 0x00, 0x00, 0x00,
  0xff, 0xff, 0xff, 0xff, 0x03, 0x00, 0x00, 0x00, 0x98, 0xf7, 0xff, 0xff,
  0x19, 0x00, 0x00, 0x00, 0x53, 0x74, 0x61, 0x74, 0x65, 0x66, 0x75, 0x6c,
  0x50, 0x61, 0x72, 0x74, 0x69, 0x74, 0x69, 0x6f, 0x6e, 0x65, 0x64, 0x43,
  0x61, 0x6c, 0x6c, 0x3a, 0x30, 0x00, 0x00, 0x00, 0x02, 0x00, 0x00, 0x00,
  0x01, 0x00, 0x00, 0x00, 0x03, 0x00, 0x00, 0x00, 0x0a, 0xf8, 0xff, 0xff,
  0x00, 0x00, 0x00, 0x01, 0x14, 0x00, 0x00, 0x00, 0x1c, 0x00, 0x00, 0x00,
  0x1c, 0x00, 0x00, 0x00, 0x14, 0x00, 0x00, 0x00, 0x58, 0x00, 0x00, 0x00,
  0x02, 0x00, 0x00, 0x00, 0xff, 0xff, 0xff, 0xff, 0x03, 0x00, 0x00, 0x00,
  0xf0, 0xf7, 0xff, 0xff, 0x3c, 0x00, 0x00, 0x00, 0x73, 0x65, 0x71, 0x75,
  0x65, 0x6e, 0x74, 0x69, 0x61, 0x6c, 0x5f, 0x31, 0x30, 0x2f, 0x64, 0x65,
  0x6e, 0x73, 0x65, 0x5f, 0x31, 0x30, 0x2f, 0x4d, 0x61, 0x74, 0x4d, 0x75,
  0x6c, 0x3b, 0x73, 0x65, 0x71, 0x75, 0x65, 0x6e, 0x74, 0x69, 0x61, 0x6c,
  0x5f, 0x31, 0x30, 0x2f, 0x64, 0x65, 0x6e, 0x73, 0x65, 0x5f, 0x31, 0x30,
  0x2f, 0x42, 0x69, 0x61, 0x73, 0x41, 0x64, 0x64, 0x00, 0x00, 0x00, 0x00,
  0x02, 0x00, 0x00, 0x00, 0x01, 0x00, 0x00, 0x00, 0x03, 0x00, 0x00, 0x00,
  0x86, 0xf8, 0xff, 0xff, 0x00, 0x00, 0x00, 0x01, 0x14, 0x00, 0x00, 0x00,
  0x1c, 0x00, 0x00, 0x00, 0x1c, 0x00, 0x00, 0x00, 0x13, 0x00, 0x00, 0x00,
  0x48, 0x00, 0x00, 0x00, 0x02, 0x00, 0x00, 0x00, 0xff, 0xff, 0xff, 0xff,
  0x03, 0x00, 0x00, 0x00, 0x6c, 0xf8, 0xff, 0xff, 0x2e, 0x00, 0x00, 0x00,
  0x73, 0x65, 0x71, 0x75, 0x65, 0x6e, 0x74, 0x69, 0x61, 0x6c, 0x5f, 0x31,
  0x30, 0x2f, 0x67, 0x6c, 0x6f, 0x62, 0x61, 0x6c, 0x5f, 0x61, 0x76, 0x65,
  0x72, 0x61, 0x67, 0x65, 0x5f, 0x70, 0x6f, 0x6f, 0x6c, 0x69, 0x6e, 0x67,
  0x32, 0x64, 0x5f, 0x31, 0x30, 0x2f, 0x4d, 0x65, 0x61, 0x6e, 0x00, 0x00,
  0x02, 0x00, 0x00, 0x00, 0x01, 0x00, 0x00, 0x00, 0x03, 0x00, 0x00, 0x00,
  0xf2, 0xf8, 0xff, 0xff, 0x00, 0x00, 0x00, 0x01, 0x14, 0x00, 0x00, 0x00,
  0x24, 0x00, 0x00, 0x00, 0x24, 0x00, 0x00, 0x00, 0x12, 0x00, 0x00, 0x00,
  0xac, 0x00, 0x00, 0x00, 0x04, 0x00, 0x00, 0x00, 0xff, 0xff, 0xff, 0xff,
  0x10, 0x00, 0x00, 0x00, 0x04, 0x00, 0x00, 0x00, 0x03, 0x00, 0x00, 0x00,
  0xe0, 0xf8, 0xff, 0xff, 0x8a, 0x00, 0x00, 0x00, 0x73, 0x65, 0x71, 0x75,
  0x65, 0x6e, 0x74, 0x69, 0x61, 0x6c, 0x5f, 0x31, 0x30, 0x2f, 0x63, 0x6f,
  0x6e, 0x76, 0x32, 0x64, 0x5f, 0x32, 0x31, 0x2f, 0x52, 0x65, 0x6c, 0x75,
  0x3b, 0x73, 0x65, 0x71, 0x75, 0x65, 0x6e, 0x74, 0x69, 0x61, 0x6c, 0x5f,
  0x31, 0x30, 0x2f, 0x63, 0x6f, 0x6e, 0x76, 0x32, 0x64, 0x5f, 0x32, 0x31,
  0x2f, 0x42, 0x69, 0x61, 0x73, 0x41, 0x64, 0x64, 0x3b, 0x73, 0x65, 0x71,
  0x75, 0x65, 0x6e, 0x74, 0x69, 0x61, 0x6c, 0x5f, 0x31, 0x30, 0x2f, 0x63,
  0x6f, 0x6e, 0x76, 0x32, 0x64, 0x5f, 0x32, 0x31, 0x2f, 0x43, 0x6f, 0x6e,
  0x76, 0x32, 0x44, 0x3b, 0x73, 0x65, 0x71, 0x75, 0x65, 0x6e, 0x74, 0x69,
  0x61, 0x6c, 0x5f, 0x31, 0x30, 0x2f, 0x63, 0x6f, 0x6e, 0x76, 0x32, 0x64,
  0x5f, 0x32, 0x31, 0x2f, 0x42, 0x69, 0x61, 0x73, 0x41, 0x64, 0x64, 0x2f,
  0x52, 0x65, 0x61, 0x64, 0x56, 0x61, 0x72, 0x69, 0x61, 0x62, 0x6c, 0x65,
  0x4f, 0x70, 0x00, 0x00, 0x04, 0x00, 0x00, 0x00, 0x01, 0x00, 0x00, 0x00,
  0x10, 0x00, 0x00, 0x00, 0x04, 0x00, 0x00, 0x00, 0x03, 0x00, 0x00, 0x00,
  0xca, 0xf9, 0xff, 0xff, 0x00, 0x00, 0x00, 0x01, 0x14, 0x00, 0x00, 0x00,
  0x24, 0x00, 0x00, 0x00, 0x24, 0x00, 0x00, 0x00, 0x11, 0x00, 0x00, 0x00,
  0xac, 0x00, 0x00, 0x00, 0x04, 0x00, 0x00, 0x00, 0xff, 0xff, 0xff, 0xff,
  0x12, 0x00, 0x00, 0x00, 0x06, 0x00, 0x00, 0x00, 0x06, 0x00, 0x00, 0x00,
  0xb8, 0xf9, 0xff, 0xff, 0x8a, 0x00, 0x00, 0x00, 0x73, 0x65, 0x71, 0x75,
  0x65, 0x6e, 0x74, 0x69, 0x61, 0x6c, 0x5f, 0x31, 0x30, 0x2f, 0x63, 0x6f,
  0x6e, 0x76, 0x32, 0x64, 0x5f, 0x32, 0x30, 0x2f, 0x52, 0x65, 0x6c, 0x75,
  0x3b, 0x73, 0x65, 0x71, 0x75, 0x65, 0x6e, 0x74, 0x69, 0x61, 0x6c, 0x5f,
  0x31, 0x30, 0x2f, 0x63, 0x6f, 0x6e, 0x76, 0x32, 0x64, 0x5f, 0x32, 0x30,
  0x2f, 0x42, 0x69, 0x61, 0x73, 0x41, 0x64, 0x64, 0x3b, 0x73, 0x65, 0x71,
  0x75, 0x65, 0x6e, 0x74, 0x69, 0x61, 0x6c, 0x5f, 0x31, 0x30, 0x2f, 0x63,
  0x6f, 0x6e, 0x76, 0x32, 0x64, 0x5f, 0x32, 0x30, 0x2f, 0x43, 0x6f, 0x6e,
  0x76, 0x32, 0x44, 0x3b, 0x73, 0x65, 0x71, 0x75, 0x65, 0x6e, 0x74, 0x69,
  0x61, 0x6c, 0x5f, 0x31, 0x30, 0x2f, 0x63, 0x6f, 0x6e, 0x76, 0x32, 0x64,
  0x5f, 0x32, 0x30, 0x2f, 0x42, 0x69, 0x61, 0x73, 0x41, 0x64, 0x64, 0x2f,
  0x52, 0x65, 0x61, 0x64, 0x56, 0x61, 0x72, 0x69, 0x61, 0x62, 0x6c, 0x65,
  0x4f, 0x70, 0x00, 0x00, 0x04, 0x00, 0x00, 0x00, 0x01, 0x00, 0x00, 0x00,
  0x12, 0x00, 0x00, 0x00, 0x06, 0x00, 0x00, 0x00, 0x06, 0x00, 0x00, 0x00,
  0xa2, 0xfa, 0xff, 0xff, 0x00, 0x00, 0x00, 0x01, 0x14, 0x00, 0x00, 0x00,
  0x24, 0x00, 0x00, 0x00, 0x24, 0x00, 0x00, 0x00, 0x10, 0x00, 0x00, 0x00,
  0x44, 0x00, 0x00, 0x00, 0x04, 0x00, 0x00, 0x00, 0xff, 0xff, 0xff, 0xff,
  0x14, 0x00, 0x00, 0x00, 0x08, 0x00, 0x00, 0x00, 0x08, 0x00, 0x00, 0x00,
  0x90, 0xfa, 0xff, 0xff, 0x20, 0x00, 0x00, 0x00, 0x73, 0x65, 0x71, 0x75,
  0x65, 0x6e, 0x74, 0x69, 0x61, 0x6c, 0x5f, 0x31, 0x30, 0x2f, 0x72, 0x65,
  0x73, 0x68, 0x61, 0x70, 0x65, 0x5f, 0x31, 0x30, 0x2f, 0x52, 0x65, 0x73,
  0x68, 0x61, 0x70, 0x65, 0x00, 0x00, 0x00, 0x00, 0x04, 0x00, 0x00, 0x00,
  0x01, 0x00, 0x00, 0x00, 0x14, 0x00, 0x00, 0x00, 0x08, 0x00, 0x00, 0x00,
  0x08, 0x00, 0x00, 0x00, 0x4e, 0xfd, 0xff, 0xff, 0x00, 0x00, 0x00, 0x01,
  0x14, 0x00, 0x00, 0x00, 0x14, 0x00, 0x00, 0x00, 0x0f, 0x00, 0x00, 0x00,
  0x00, 0x00, 0x00, 0x02, 0x34, 0x00, 0x00, 0x00, 0xec, 0xfa, 0xff, 0xff,
  0x26, 0x00, 0x00, 0x00, 0x73, 0x65, 0x71, 0x75, 0x65, 0x6e, 0x74, 0x69,
  0x61, 0x6c, 0x5f, 0x31, 0x30, 0x2f, 0x72, 0x65, 0x73, 0x68, 0x61, 0x70,
  0x65, 0x5f, 0x31, 0x30, 0x2f, 0x52, 0x65, 0x73, 0x68, 0x61, 0x70, 0x65,
  0x2f, 0x73, 0x68, 0x61, 0x70, 0x65, 0x00, 0x00, 0x01, 0x00, 0x00, 0x00,
  0x04, 0x00, 0x00, 0x00, 0xa2, 0xfd, 0xff, 0xff, 0x00, 0x00, 0x00, 0x01,
  0x14, 0x00, 0x00, 0x00, 0x14, 0x00, 0x00, 0x00, 0x0e, 0x00, 0x00, 0x00,
  0x00, 0x00, 0x00, 0x02, 0x34, 0x00, 0x00, 0x00, 0x40, 0xfb, 0xff, 0xff,
  0x26, 0x00, 0x00, 0x00, 0x73, 0x65, 0x71, 0x75, 0x65, 0x6e, 0x74, 0x69,
  0x61, 0x6c, 0x5f, 0x31, 0x30, 0x2f, 0x72, 0x65, 0x73, 0x68, 0x61, 0x70,
  0x65, 0x5f, 0x31, 0x30, 0x2f, 0x73, 0x74, 0x72, 0x69, 0x64, 0x65, 0x64,
  0x5f, 0x73, 0x6c, 0x69, 0x63, 0x65, 0x00, 0x00, 0x00, 0x00, 0x00, 0x00,
  0xf2, 0xfd, 0xff, 0xff, 0x00, 0x00, 0x00, 0x01, 0x14, 0x00, 0x00, 0x00,
  0x14, 0x00, 0x00, 0x00, 0x0d, 0x00, 0x00, 0x00, 0x00, 0x00, 0x00, 0x02,
  0x2c, 0x00, 0x00, 0x00, 0x90, 0xfb, 0xff, 0xff, 0x1e, 0x00, 0x00, 0x00,
  0x73, 0x65, 0x71, 0x75, 0x65, 0x6e, 0x74, 0x69, 0x61, 0x6c, 0x5f, 0x31,
  0x30, 0x2f, 0x72, 0x65, 0x73, 0x68, 0x61, 0x70, 0x65, 0x5f, 0x31, 0x30,
  0x2f, 0x53, 0x68, 0x61, 0x70, 0x65, 0x00, 0x00, 0x01, 0x00, 0x00, 0x00,
  0x03, 0x00, 0x00, 0x00, 0x72, 0xfc, 0xff, 0xff, 0x00, 0x00, 0x00, 0x01,
  0x10, 0x00, 0x00, 0x00, 0x10, 0x00, 0x00, 0x00, 0x0c, 0x00, 0x00, 0x00,
  0x2c, 0x00, 0x00, 0x00, 0xd8, 0xfb, 0xff, 0xff, 0x1d, 0x00, 0x00, 0x00,
  0x73, 0x65, 0x71, 0x75, 0x65, 0x6e, 0x74, 0x69, 0x61, 0x6c, 0x5f, 0x31,
  0x30, 0x2f, 0x64, 0x65, 0x6e, 0x73, 0x65, 0x5f, 0x31, 0x30, 0x2f, 0x4d,
  0x61, 0x74, 0x4d, 0x75, 0x6c, 0x00, 0x00, 0x00, 0x02, 0x00, 0x00, 0x00,
  0x03, 0x00, 0x00, 0x00, 0x03, 0x00, 0x00, 0x00, 0x8a, 0xfe, 0xff, 0xff,
  0x00, 0x00, 0x00, 0x01, 0x14, 0x00, 0x00, 0x00, 0x14, 0x00, 0x00, 0x00,
  0x0b, 0x00, 0x00, 0x00, 0x00, 0x00, 0x00, 0x02, 0x50, 0x00, 0x00, 0x00,
  0x28, 0xfc, 0xff, 0xff, 0x40, 0x00, 0x00, 0x00, 0x73, 0x65, 0x71, 0x75,
  0x65, 0x6e, 0x74, 0x69, 0x61, 0x6c, 0x5f, 0x31, 0x30, 0x2f, 0x67, 0x6c,
  0x6f, 0x62, 0x61, 0x6c, 0x5f, 0x61, 0x76, 0x65, 0x72, 0x61, 0x67, 0x65,
  0x5f, 0x70, 0x6f, 0x6f, 0x6c, 0x69, 0x6e, 0x67, 0x32, 0x64, 0x5f, 0x31,
  0x30, 0x2f, 0x4d, 0x65, 0x61, 0x6e, 0x2f, 0x72, 0x65, 0x64, 0x75, 0x63,
  0x74, 0x69, 0x6f, 0x6e, 0x5f, 0x69, 0x6e, 0x64, 0x69, 0x63, 0x65, 0x73,
  0x00, 0x00, 0x00, 0x00, 0x01, 0x00, 0x00, 0x00, 0x02, 0x00, 0x00, 0x00,
  0xfa, 0xfe, 0xff, 0xff, 0x00, 0x00, 0x00, 0x01, 0x14, 0x00, 0x00, 0x00,
  0x14, 0x00, 0x00, 0x00, 0x0a, 0x00, 0x00, 0x00, 0x00, 0x00, 0x00, 0x02,
  0x38, 0x00, 0x00, 0x00, 0x98, 0xfc, 0xff, 0xff, 0x28, 0x00, 0x00, 0x00,
  0x73, 0x65, 0x71, 0x75, 0x65, 0x6e, 0x74, 0x69, 0x61, 0x6c, 0x5f, 0x31,
  0x30, 0x2f, 0x72, 0x65, 0x73, 0x68, 0x61, 0x70, 0x65, 0x5f, 0x31, 0x30,
  0x2f, 0x52, 0x65, 0x73, 0x68, 0x61, 0x70, 0x65, 0x2f, 0x73, 0x68, 0x61,
  0x70, 0x65, 0x2f, 0x31, 0x00, 0x00, 0x00, 0x00, 0x00, 0x00, 0x00, 0x00,
  0x4e, 0xff, 0xff, 0xff, 0x00, 0x00, 0x00, 0x01, 0x14, 0x00, 0x00, 0x00,
  0x14, 0x00, 0x00, 0x00, 0x09, 0x00, 0x00, 0x00, 0x00, 0x00, 0x00, 0x02,
  0x38, 0x00, 0x00, 0x00, 0xec, 0xfc, 0xff, 0xff, 0x28, 0x00, 0x00, 0x00,
  0x73, 0x65, 0x71, 0x75, 0x65, 0x6e, 0x74, 0x69, 0x61, 0x6c, 0x5f, 0x31,
  0x30, 0x2f, 0x72, 0x65, 0x73, 0x68, 0x61, 0x70, 0x65, 0x5f, 0x31, 0x30,
  0x2f, 0x52, 0x65, 0x73, 0x68, 0x61, 0x70, 0x65, 0x2f, 0x73, 0x68, 0x61,
  0x70, 0x65, 0x2f, 0x32, 0x00, 0x00, 0x00, 0x00, 0x00, 0x00, 0x00, 0x00,
  0xa2, 0xff, 0xff, 0xff, 0x00, 0x00, 0x00, 0x01, 0x14, 0x00, 0x00, 0x00,
  0x14, 0x00, 0x00, 0x00, 0x08, 0x00, 0x00, 0x00, 0x00, 0x00, 0x00, 0x02,
  0x3c, 0x00, 0x00, 0x00, 0x40, 0xfd, 0xff, 0xff, 0x2c, 0x00, 0x00, 0x00,
  0x73, 0x65, 0x71, 0x75, 0x65, 0x6e, 0x74, 0x69, 0x61, 0x6c, 0x5f, 0x31,
  0x30, 0x2f, 0x72, 0x65, 0x73, 0x68, 0x61, 0x70, 0x65, 0x5f, 0x31, 0x30,
  0x2f, 0x73, 0x74, 0x72, 0x69, 0x64, 0x65, 0x64, 0x5f, 0x73, 0x6c, 0x69,
  0x63, 0x65, 0x2f, 0x73, 0x74, 0x61, 0x63, 0x6b, 0x00, 0x00, 0x00, 0x00,
  0x01, 0x00, 0x00, 0x00, 0x01, 0x00, 0x00, 0x00, 0x00, 0x00, 0x16, 0x00,
  0x1c, 0x00, 0x18, 0x00, 0x17, 0x00, 0x10, 0x00, 0x0c, 0x00, 0x08, 0x00,
  0x00, 0x00, 0x00, 0x00, 0x00, 0x00, 0x07, 0x00, 0x16, 0x00, 0x00, 0x00,
  0x00, 0x00, 0x00, 0x01, 0x14, 0x00, 0x00, 0x00, 0x14, 0x00, 0x00, 0x00,
  0x07, 0x00, 0x00, 0x00, 0x00, 0x00, 0x00, 0x02, 0x3c, 0x00, 0x00, 0x00,
  0xb4, 0xfd, 0xff, 0xff, 0x2e, 0x00, 0x00, 0x00, 0x73, 0x65, 0x71, 0x75,
  0x65, 0x6e, 0x74, 0x69, 0x61, 0x6c, 0x5f, 0x31, 0x30, 0x2f, 0x72, 0x65,
  0x73, 0x68, 0x61, 0x70, 0x65, 0x5f, 0x31, 0x30, 0x2f, 0x73, 0x74, 0x72,
  0x69, 0x64, 0x65, 0x64, 0x5f, 0x73, 0x6c, 0x69, 0x63, 0x65, 0x2f, 0x73,
  0x74, 0x61, 0x63, 0x6b, 0x5f, 0x31, 0x00, 0x00, 0x01, 0x00, 0x00, 0x00,
  0x01, 0x00, 0x00, 0x00, 0xa6, 0xfe, 0xff, 0xff, 0x00, 0x00, 0x00, 0x01,
  0x10, 0x00, 0x00, 0x00, 0x10, 0x00, 0x00, 0x00, 0x06, 0x00, 0x00, 0x00,
  0x3c, 0x00, 0x00, 0x00, 0x0c, 0xfe, 0xff, 0xff, 0x2d, 0x00, 0x00, 0x00,
  0x73, 0x65, 0x71, 0x75, 0x65, 0x6e, 0x74, 0x69, 0x61, 0x6c, 0x5f, 0x31,
  0x30, 0x2f, 0x64, 0x65, 0x6e, 0x73, 0x65, 0x5f, 0x31, 0x30, 0x2f, 0x42,
  0x69, 0x61, 0x73, 0x41, 0x64, 0x64, 0x2f, 0x52, 0x65, 0x61, 0x64, 0x56,
  0x61, 0x72, 0x69, 0x61, 0x62, 0x6c, 0x65, 0x4f, 0x70, 0x00, 0x00, 0x00,
  0x01, 0x00, 0x00, 0x00, 0x03, 0x00, 0x00, 0x00, 0xfe, 0xfe, 0xff, 0xff,
  0x00, 0x00, 0x00, 0x01, 0x10, 0x00, 0x00, 0x00, 0x10, 0x00, 0x00, 0x00,
  0x05, 0x00, 0x00, 0x00, 0x2c, 0x00, 0x00, 0x00, 0x64, 0xfe, 0xff, 0xff,
  0x1e, 0x00, 0x00, 0x00, 0x73, 0x65, 0x71, 0x75, 0x65, 0x6e, 0x74, 0x69,
  0x61, 0x6c, 0x5f, 0x31, 0x30, 0x2f, 0x63, 0x6f, 0x6e, 0x76, 0x32, 0x64,
  0x5f, 0x32, 0x31, 0x2f, 0x43, 0x6f, 0x6e, 0x76, 0x32, 0x44, 0x00, 0x00,
  0x04, 0x00, 0x00, 0x00, 0x03, 0x00, 0x00, 0x00, 0x03, 0x00, 0x00, 0x00,
  0x03, 0x00, 0x00, 0x00, 0x06, 0x00, 0x00, 0x00, 0x52, 0xff, 0xff, 0xff,
  0x00, 0x00, 0x00, 0x01, 0x10, 0x00, 0x00, 0x00, 0x10, 0x00, 0x00, 0x00,
  0x04, 0x00, 0x00, 0x00, 0x2c, 0x00, 0x00, 0x00, 0xb8, 0xfe, 0xff, 0xff,
  0x1e, 0x00, 0x00, 0x00, 0x73, 0x65, 0x71, 0x75, 0x65, 0x6e, 0x74, 0x69,
  0x61, 0x6c, 0x5f, 0x31, 0x30, 0x2f, 0x63, 0x6f, 0x6e, 0x76, 0x32, 0x64,
  0x5f, 0x32, 0x30, 0x2f, 0x43, 0x6f, 0x6e, 0x76, 0x32, 0x44, 0x00, 0x00,
  0x04, 0x00, 0x00, 0x00, 0x06, 0x00, 0x00, 0x00, 0x03, 0x00, 0x00, 0x00,
  0x03, 0x00, 0x00, 0x00, 0x08, 0x00, 0x00, 0x00, 0xa6, 0xff, 0xff, 0xff,
  0x00, 0x00, 0x00, 0x01, 0x10, 0x00, 0x00, 0x00, 0x10, 0x00, 0x00, 0x00,
  0x03, 0x00, 0x00, 0x00, 0x3c, 0x00, 0x00, 0x00, 0x0c, 0xff, 0xff, 0xff,
  0x2e, 0x00, 0x00, 0x00, 0x73, 0x65, 0x71, 0x75, 0x65, 0x6e, 0x74, 0x69,
  0x61, 0x6c, 0x5f, 0x31, 0x30, 0x2f, 0x63, 0x6f, 0x6e, 0x76, 0x32, 0x64,
  0x5f, 0x32, 0x31, 0x2f, 0x42, 0x69, 0x61, 0x73, 0x41, 0x64, 0x64, 0x2f,
  0x52, 0x65, 0x61, 0x64, 0x56, 0x61, 0x72, 0x69, 0x61, 0x62, 0x6c, 0x65,
  0x4f, 0x70, 0x00, 0x00, 0x01, 0x00, 0x00, 0x00, 0x03, 0x00, 0x00, 0x00,
  0x00, 0x00, 0x16, 0x00, 0x18, 0x00, 0x14, 0x00, 0x00, 0x00, 0x10, 0x00,
  0x0c, 0x00, 0x08, 0x00, 0x00, 0x00, 0x00, 0x00, 0x00, 0x00, 0x07, 0x00,
  0x16, 0x00, 0x00, 0x00, 0x00, 0x00, 0x00, 0x01, 0x10, 0x00, 0x00, 0x00,
  0x10, 0x00, 0x00, 0x00, 0x02, 0x00, 0x00, 0x00, 0x3c, 0x00, 0x00, 0x00,
  0x7c, 0xff, 0xff, 0xff, 0x2e, 0x00, 0x00, 0x00, 0x73, 0x65, 0x71, 0x75,
  0x65, 0x6e, 0x74, 0x69, 0x61, 0x6c, 0x5f, 0x31, 0x30, 0x2f, 0x63, 0x6f,
  0x6e, 0x76, 0x32, 0x64, 0x5f, 0x32, 0x30, 0x2f, 0x42, 0x69, 0x61, 0x73,
  0x41, 0x64, 0x64, 0x2f, 0x52, 0x65, 0x61, 0x64, 0x56, 0x61, 0x72, 0x69,
  0x61, 0x62, 0x6c, 0x65, 0x4f, 0x70, 0x00, 0x00, 0x01, 0x00, 0x00, 0x00,
  0x06, 0x00, 0x00, 0x00, 0x00, 0x00, 0x16, 0x00, 0x1c, 0x00, 0x18, 0x00,
  0x00, 0x00, 0x14, 0x00, 0x10, 0x00, 0x0c, 0x00, 0x00, 0x00, 0x00, 0x00,
  0x08, 0x00, 0x07, 0x00, 0x16, 0x00, 0x00, 0x00, 0x00, 0x00, 0x00, 0x01,
  0x14, 0x00, 0x00, 0x00, 0x24, 0x00, 0x00, 0x00, 0x24, 0x00, 0x00, 0x00,
  0x01, 0x00, 0x00, 0x00, 0x44, 0x00, 0x00, 0x00, 0x03, 0x00, 0x00, 0x00,
  0xff, 0xff, 0xff, 0xff, 0x14, 0x00, 0x00, 0x00, 0x40, 0x00, 0x00, 0x00,
  0x04, 0x00, 0x04, 0x00, 0x04, 0x00, 0x00, 0x00, 0x22, 0x00, 0x00, 0x00,
  0x73, 0x65, 0x72, 0x76, 0x69, 0x6e, 0x67, 0x5f, 0x64, 0x65, 0x66, 0x61,
  0x75, 0x6c, 0x74, 0x5f, 0x72, 0x65, 0x73, 0x68, 0x61, 0x70, 0x65, 0x5f,
  0x31, 0x30, 0x5f, 0x69, 0x6e, 0x70, 0x75, 0x74, 0x3a, 0x30, 0x00, 0x00,
  0x03, 0x00, 0x00, 0x00, 0x01, 0x00, 0x00, 0x00, 0x14, 0x00, 0x00, 0x00,
  0x40, 0x00, 0x00, 0x00, 0x08, 0x00, 0x00, 0x00, 0x80, 0x00, 0x00, 0x00,
  0x64, 0x00, 0x00, 0x00, 0x54, 0x00, 0x00, 0x00, 0x44, 0x00, 0x00, 0x00,
  0x34, 0x00, 0x00, 0x00, 0x24, 0x00, 0x00, 0x00, 0x14, 0x00, 0x00, 0x00,
  0x04, 0x00, 0x00, 0x00, 0xac, 0xff, 0xff, 0xff, 0x19, 0x00, 0x00, 0x00,
  0x00, 0x00, 0x00, 0x19, 0xb8, 0xff, 0xff, 0xff, 0x09, 0x00, 0x00, 0x00,
  0x00, 0x00, 0x00, 0x09, 0xc4, 0xff, 0xff, 0xff, 0x28, 0x00, 0x00, 0x00,
  0x00, 0x00, 0x00, 0x28, 0xd0, 0xff, 0xff, 0xff, 0x03, 0x00, 0x00, 0x00,
  0x00, 0x00, 0x00, 0x03, 0xdc, 0xff, 0xff, 0xff, 0x16, 0x00, 0x00, 0x00,
  0x00, 0x00, 0x00, 0x16, 0xe8, 0xff, 0xff, 0xff, 0x53, 0x00, 0x00, 0x00,
  0x00, 0x00, 0x00, 0x53, 0xf4, 0xff, 0xff, 0xff, 0x2d, 0x00, 0x00, 0x00,
  0x00, 0x00, 0x00, 0x2d, 0x0c, 0x00, 0x0c, 0x00, 0x0b, 0x00, 0x00, 0x00,
  0x00, 0x00, 0x04, 0x00, 0x0c, 0x00, 0x00, 0x00, 0x4d, 0x00, 0x00, 0x00,
  0x00, 0x00, 0x00, 0x4d};
extern const int model_tflite_len PROGMEM = 6352;

#endif  // TENSORFLOW_LITE_MICRO_MODEL_DATA_H_